{
  "version": "1.0",
  "truncation": {
    "direction": "Right",
    "max_length": 64,
    "strategy": "LongestFirst",
    "stride": 0
  },
  "padding": {
    "strategy": {
      "Fixed": 64
    },
    "direction": "Right",
    "pad_to_multiple_of": null,
    "pad_id": 3,
    "pad_type_id": 0,
    "pad_token": "[PAD]"
  },
  "added_tokens": [
    {
      "id": 0,
      "content": "[UNK]",
      "single_word": false,
      "lstrip": false,
      "rstrip": false,
      "normalized": false,
      "special": true
    },
    {
      "id": 1,
      "content": "[BOS]",
      "single_word": false,
      "lstrip": false,
      "rstrip": false,
      "normalized": false,
      "special": true
    },
    {
      "id": 2,
      "content": "[EOS]",
      "single_word": false,
      "lstrip": false,
      "rstrip": false,
      "normalized": false,
      "special": true
    },
    {
      "id": 3,
      "content": "[PAD]",
      "single_word": false,
      "lstrip": false,
      "rstrip": false,
      "normalized": false,
      "special": true
    }
  ],
  "normalizer": {
    "type": "Sequence",
    "normalizers": [
      {
        "type": "NFD"
      },
      {
        "type": "Lowercase"
      },
      {
        "type": "StripAccents"
      }
    ]
  },
  "pre_tokenizer": {
    "type": "Whitespace"
  },
  "post_processor": {
    "type": "TemplateProcessing",
    "single": [
      {
        "SpecialToken": {
          "id": "[BOS]",
          "type_id": 0
        }
      },
      {
        "Sequence": {
          "id": "A",
          "type_id": 0
        }
      },
      {
        "SpecialToken": {
          "id": "[EOS]",
          "type_id": 0
        }
      }
    ],
    "pair": [
      {
        "Sequence": {
          "id": "A",
          "type_id": 0
        }
      },
      {
        "Sequence": {
          "id": "B",
          "type_id": 1
        }
      }
    ],
    "special_tokens": {
      "[BOS]": {
        "id": "[BOS]",
        "ids": [
          1
        ],
        "tokens": [
          "[BOS]"
        ]
      },
      "[EOS]": {
        "id": "[EOS]",
        "ids": [
          2
        ],
        "tokens": [
          "[EOS]"
        ]
      },
      "[PAD]": {
        "id": "[PAD]",
        "ids": [
          3
        ],
        "tokens": [
          "[PAD]"
        ]
      }
    }
  },
  "decoder": {
    "type": "BPEDecoder",
    "suffix": "</w>"
  },
  "model": {
    "type": "BPE",
    "dropout": null,
    "unk_token": "[UNK]",
    "continuing_subword_prefix": null,
    "end_of_word_suffix": null,
    "fuse_unk": false,
    "byte_fallback": false,
    "vocab": {
      "[UNK]": 0,
      "[BOS]": 1,
      "[EOS]": 2,
      "[PAD]": 3,
      "!": 4,
      "\"": 5,
      "#": 6,
      "$": 7,
      "%": 8,
      "&": 9,
      "'": 10,
      "(": 11,
      ")": 12,
      "*": 13,
      "+": 14,
      ",": 15,
      "-": 16,
      ".": 17,
      "/": 18,
      "0": 19,
      "1": 20,
      "2": 21,
      "3": 22,
      "4": 23,
      "5": 24,
      "6": 25,
      "7": 26,
      "8": 27,
      "9": 28,
      ":": 29,
      ";": 30,
      "<": 31,
      "=": 32,
      ">": 33,
      "?": 34,
      "@": 35,
      "[": 36,
      "\\": 37,
      "]": 38,
      "^": 39,
      "_": 40,
      "`": 41,
      "a": 42,
      "b": 43,
      "c": 44,
      "d": 45,
      "e": 46,
      "f": 47,
      "g": 48,
      "h": 49,
      "i": 50,
      "j": 51,
      "k": 52,
      "l": 53,
      "m": 54,
      "n": 55,
      "o": 56,
      "p": 57,
      "q": 58,
      "r": 59,
      "s": 60,
      "t": 61,
      "u": 62,
      "v": 63,
      "w": 64,
      "x": 65,
      "y": 66,
      "z": 67,
      "|": 68,
      "~": 69,
      "§": 70,
      "¨": 71,
      "¬": 72,
      "­": 73,
      "´": 74,
      "·": 75,
      "ˉ": 76,
      "α": 77,
      "β": 78,
      "η": 79,
      "ψ": 80,
      "ω": 81,
      "–": 82,
      "—": 83,
      "―": 84,
      "‘": 85,
      "’": 86,
      "“": 87,
      "”": 88,
      "…": 89,
      "′": 90,
      "€": 91,
      "℃": 92,
      "→": 93,
      "∶": 94,
      "①": 95,
      "③": 96,
      "─": 97,
      "★": 98,
      "☆": 99,
      "、": 100,
      "。": 101,
      "《": 102,
      "》": 103,
      "】": 104,
      "一": 105,
      "七": 106,
      "万": 107,
      "三": 108,
      "上": 109,
      "下": 110,
      "不": 111,
      "与": 112,
      "专": 113,
      "且": 114,
      "世": 115,
      "业": 116,
      "东": 117,
      "两": 118,
      "个": 119,
      "中": 120,
      "为": 121,
      "主": 122,
      "举": 123,
      "么": 124,
      "义": 125,
      "之": 126,
      "乎": 127,
      "乔": 128,
      "也": 129,
      "习": 130,
      "书": 131,
      "买": 132,
      "乱": 133,
      "了": 134,
      "事": 135,
      "于": 136,
      "云": 137,
      "五": 138,
      "些": 139,
      "交": 140,
      "享": 141,
      "亲": 142,
      "人": 143,
      "亻": 144,
      "什": 145,
      "今": 146,
      "从": 147,
      "他": 148,
      "付": 149,
      "代": 150,
      "以": 151,
      "们": 152,
      "件": 153,
      "价": 154,
      "份": 155,
      "众": 156,
      "会": 157,
      "传": 158,
      "伯": 159,
      "似": 160,
      "但": 161,
      "位": 162,
      "住": 163,
      "体": 164,
      "作": 165,
      "你": 166,
      "使": 167,
      "供": 168,
      "便": 169,
      "俘": 170,
      "信": 171,
      "候": 172,
      "做": 173,
      "停": 174,
      "偷": 175,
      "像": 176,
      "儿": 177,
      "允": 178,
      "元": 179,
      "先": 180,
      "光": 181,
      "克": 182,
      "公": 183,
      "共": 184,
      "关": 185,
      "兴": 186,
      "兵": 187,
      "其": 188,
      "兹": 189,
      "内": 190,
      "冒": 191,
      "写": 192,
      "军": 193,
      "冰": 194,
      "冲": 195,
      "况": 196,
      "几": 197,
      "出": 198,
      "击": 199,
      "分": 200,
      "切": 201,
      "刊": 202,
      "则": 203,
      "利": 204,
      "别": 205,
      "到": 206,
      "刻": 207,
      "前": 208,
      "剑": 209,
      "剥": 210,
      "力": 211,
      "办": 212,
      "加": 213,
      "务": 214,
      "动": 215,
      "劲": 216,
      "包": 217,
      "化": 218,
      "区": 219,
      "千": 220,
      "升": 221,
      "单": 222,
      "南": 223,
      "印": 224,
      "厂": 225,
      "历": 226,
      "压": 227,
      "原": 228,
      "去": 229,
      "参": 230,
      "又": 231,
      "叉": 232,
      "及": 233,
      "友": 234,
      "反": 235,
      "发": 236,
      "取": 237,
      "受": 238,
      "变": 239,
      "口": 240,
      "句": 241,
      "另": 242,
      "只": 243,
      "叫": 244,
      "可": 245,
      "史": 246,
      "叶": 247,
      "各": 248,
      "合": 249,
      "同": 250,
      "名": 251,
      "后": 252,
      "吗": 253,
      "否": 254,
      "吧": 255,
      "听": 256,
      "启": 257,
      "吴": 258,
      "吸": 259,
      "呀": 260,
      "呆": 261,
      "告": 262,
      "员": 263,
      "呢": 264,
      "周": 265,
      "味": 266,
      "和": 267,
      "咖": 268,
      "响": 269,
      "售": 270,
      "啊": 271,
      "啡": 272,
      "喜": 273,
      "器": 274,
      "回": 275,
      "因": 276,
      "围": 277,
      "国": 278,
      "图": 279,
      "圆": 280,
      "圈": 281,
      "在": 282,
      "地": 283,
      "场": 284,
      "址": 285,
      "坦": 286,
      "坨": 287,
      "型": 288,
      "城": 289,
      "基": 290,
      "塞": 291,
      "境": 292,
      "声": 293,
      "处": 294,
      "备": 295,
      "夏": 296,
      "外": 297,
      "多": 298,
      "够": 299,
      "大": 300,
      "天": 301,
      "太": 302,
      "夫": 303,
      "失": 304,
      "头": 305,
      "女": 306,
      "她": 307,
      "好": 308,
      "如": 309,
      "妙": 310,
      "始": 311,
      "姓": 312,
      "姻": 313,
      "婚": 314,
      "子": 315,
      "字": 316,
      "存": 317,
      "学": 318,
      "孩": 319,
      "它": 320,
      "安": 321,
      "官": 322,
      "定": 323,
      "实": 324,
      "家": 325,
      "容": 326,
      "宾": 327,
      "寄": 328,
      "富": 329,
      "寓": 330,
      "寸": 331,
      "对": 332,
      "寻": 333,
      "导": 334,
      "将": 335,
      "小": 336,
      "少": 337,
      "尔": 338,
      "就": 339,
      "局": 340,
      "展": 341,
      "山": 342,
      "岁": 343,
      "巡": 344,
      "工": 345,
      "巧": 346,
      "差": 347,
      "己": 348,
      "已": 349,
      "市": 350,
      "布": 351,
      "带": 352,
      "常": 353,
      "幅": 354,
      "干": 355,
      "年": 356,
      "并": 357,
      "幽": 358,
      "广": 359,
      "应": 360,
      "店": 361,
      "度": 362,
      "庭": 363,
      "开": 364,
      "式": 365,
      "引": 366,
      "强": 367,
      "当": 368,
      "影": 369,
      "往": 370,
      "径": 371,
      "很": 372,
      "律": 373,
      "得": 374,
      "循": 375,
      "微": 376,
      "心": 377,
      "必": 378,
      "忘": 379,
      "忠": 380,
      "快": 381,
      "性": 382,
      "总": 383,
      "息": 384,
      "恶": 385,
      "悉": 386,
      "您": 387,
      "情": 388,
      "想": 389,
      "意": 390,
      "感": 391,
      "愿": 392,
      "慧": 393,
      "戌": 394,
      "成": 395,
      "我": 396,
      "或": 397,
      "房": 398,
      "所": 399,
      "手": 400,
      "扌": 401,
      "才": 402,
      "打": 403,
      "执": 404,
      "找": 405,
      "承": 406,
      "技": 407,
      "把": 408,
      "抗": 409,
      "报": 410,
      "抵": 411,
      "拉": 412,
      "括": 413,
      "按": 414,
      "换": 415,
      "据": 416,
      "接": 417,
      "推": 418,
      "提": 419,
      "搏": 420,
      "搭": 421,
      "摊": 422,
      "摸": 423,
      "撒": 424,
      "支": 425,
      "收": 426,
      "改": 427,
      "攻": 428,
      "效": 429,
      "救": 430,
      "教": 431,
      "数": 432,
      "文": 433,
      "断": 434,
      "新": 435,
      "方": 436,
      "族": 437,
      "无": 438,
      "既": 439,
      "日": 440,
      "时": 441,
      "昂": 442,
      "易": 443,
      "是": 444,
      "普": 445,
      "智": 446,
      "更": 447,
      "曾": 448,
      "替": 449,
      "最": 450,
      "有": 451,
      "朋": 452,
      "服": 453,
      "木": 454,
      "末": 455,
      "本": 456,
      "机": 457,
      "束": 458,
      "条": 459,
      "来": 460,
      "杯": 461,
      "松": 462,
      "极": 463,
      "构": 464,
      "果": 465,
      "枝": 466,
      "架": 467,
      "查": 468,
      "标": 469,
      "树": 470,
      "校": 471,
      "样": 472,
      "核": 473,
      "根": 474,
      "梅": 475,
      "检": 476,
      "森": 477,
      "榜": 478,
      "次": 479,
      "欢": 480,
      "款": 481,
      "正": 482,
      "此": 483,
      "步": 484,
      "死": 485,
      "殖": 486,
      "段": 487,
      "每": 488,
      "比": 489,
      "水": 490,
      "求": 491,
      "没": 492,
      "沦": 493,
      "河": 494,
      "治": 495,
      "法": 496,
      "泛": 497,
      "泳": 498,
      "洲": 499,
      "活": 500,
      "派": 501,
      "测": 502,
      "消": 503,
      "清": 504,
      "游": 505,
      "源": 506,
      "漫": 507,
      "火": 508,
      "灵": 509,
      "点": 510,
      "烤": 511,
      "烧": 512,
      "热": 513,
      "焦": 514,
      "然": 515,
      "照": 516,
      "熟": 517,
      "燃": 518,
      "爪": 519,
      "爱": 520,
      "父": 521,
      "片": 522,
      "物": 523,
      "犬": 524,
      "状": 525,
      "犹": 526,
      "狗": 527,
      "猫": 528,
      "猴": 529,
      "玉": 530,
      "王": 531,
      "环": 532,
      "现": 533,
      "班": 534,
      "球": 535,
      "理": 536,
      "琪": 537,
      "生": 538,
      "用": 539,
      "电": 540,
      "画": 541,
      "病": 542,
      "登": 543,
      "白": 544,
      "的": 545,
      "目": 546,
      "直": 547,
      "看": 548,
      "真": 549,
      "着": 550,
      "瞪": 551,
      "知": 552,
      "短": 553,
      "矿": 554,
      "研": 555,
      "砰": 556,
      "础": 557,
      "确": 558,
      "磁": 559,
      "示": 560,
      "礼": 561,
      "社": 562,
      "祖": 563,
      "票": 564,
      "秀": 565,
      "私": 566,
      "种": 567,
      "科": 568,
      "秤": 569,
      "程": 570,
      "究": 571,
      "空": 572,
      "穿": 573,
      "站": 574,
      "章": 575,
      "童": 576,
      "端": 577,
      "笑": 578,
      "等": 579,
      "答": 580,
      "筛": 581,
      "简": 582,
      "算": 583,
      "管": 584,
      "籍": 585,
      "类": 586,
      "粬": 587,
      "精": 588,
      "系": 589,
      "紧": 590,
      "红": 591,
      "约": 592,
      "纪": 593,
      "线": 594,
      "织": 595,
      "终": 596,
      "经": 597,
      "结": 598,
      "给": 599,
      "统": 600,
      "继": 601,
      "续": 602,
      "缓": 603,
      "编": 604,
      "缩": 605,
      "网": 606,
      "罗": 607,
      "置": 608,
      "美": 609,
      "群": 610,
      "者": 611,
      "而": 612,
      "耙": 613,
      "耦": 614,
      "职": 615,
      "聚": 616,
      "肌": 617,
      "肝": 618,
      "肪": 619,
      "能": 620,
      "脂": 621,
      "脉": 622,
      "脑": 623,
      "脚": 624,
      "脱": 625,
      "腹": 626,
      "自": 627,
      "航": 628,
      "船": 629,
      "苦": 630,
      "英": 631,
      "范": 632,
      "茶": 633,
      "草": 634,
      "荷": 635,
      "菜": 636,
      "蒙": 637,
      "蔬": 638,
      "虏": 639,
      "虫": 640,
      "蜂": 641,
      "血": 642,
      "行": 643,
      "衣": 644,
      "表": 645,
      "袁": 646,
      "袋": 647,
      "装": 648,
      "裹": 649,
      "要": 650,
      "见": 651,
      "规": 652,
      "视": 653,
      "觉": 654,
      "解": 655,
      "触": 656,
      "言": 657,
      "警": 658,
      "计": 659,
      "订": 660,
      "认": 661,
      "让": 662,
      "记": 663,
      "许": 664,
      "论": 665,
      "设": 666,
      "访": 667,
      "识": 668,
      "诉": 669,
      "词": 670,
      "话": 671,
      "询": 672,
      "该": 673,
      "语": 674,
      "说": 675,
      "请": 676,
      "读": 677,
      "调": 678,
      "谈": 679,
      "谎": 680,
      "谚": 681,
      "象": 682,
      "豫": 683,
      "负": 684,
      "败": 685,
      "货": 686,
      "购": 687,
      "贯": 688,
      "贴": 689,
      "贷": 690,
      "费": 691,
      "资": 692,
      "赛": 693,
      "赢": 694,
      "走": 695,
      "起": 696,
      "超": 697,
      "越": 698,
      "趣": 699,
      "足": 700,
      "跑": 701,
      "跳": 702,
      "跺": 703,
      "身": 704,
      "车": 705,
      "轨": 706,
      "转": 707,
      "轮": 708,
      "轻": 709,
      "较": 710,
      "辨": 711,
      "达": 712,
      "过": 713,
      "迎": 714,
      "运": 715,
      "近": 716,
      "返": 717,
      "还": 718,
      "这": 719,
      "进": 720,
      "连": 721,
      "迪": 722,
      "退": 723,
      "适": 724,
      "选": 725,
      "途": 726,
      "通": 727,
      "造": 728,
      "逻": 729,
      "道": 730,
      "那": 731,
      "部": 732,
      "都": 733,
      "配": 734,
      "酒": 735,
      "采": 736,
      "里": 737,
      "重": 738,
      "野": 739,
      "量": 740,
      "金": 741,
      "银": 742,
      "错": 743,
      "镜": 744,
      "长": 745,
      "门": 746,
      "问": 747,
      "闯": 748,
      "间": 749,
      "队": 750,
      "阳": 751,
      "阿": 752,
      "陆": 753,
      "陈": 754,
      "院": 755,
      "除": 756,
      "难": 757,
      "雄": 758,
      "雌": 759,
      "零": 760,
      "需": 761,
      "青": 762,
      "非": 763,
      "靠": 764,
      "面": 765,
      "顶": 766,
      "项": 767,
      "须": 768,
      "顾": 769,
      "预": 770,
      "领": 771,
      "颇": 772,
      "题": 773,
      "飞": 774,
      "饿": 775,
      "香": 776,
      "马": 777,
      "驶": 778,
      "骑": 779,
      "骤": 780,
      "高": 781,
      "鬣": 782,
      "魅": 783,
      "魏": 784,
      "鱼": 785,
      "鲁": 786,
      "黑": 787,
      "龙": 788,
      "︰": 789,
      "！": 790,
      "＄": 791,
      "（": 792,
      "）": 793,
      "＊": 794,
      "，": 795,
      "．": 796,
      "：": 797,
      "？": 798,
      "｜": 799,
      "￡": 800,
      "￥": 801,
      "�": 802,
      "th": 803,
      "in": 804,
      "the": 805,
      "an": 806,
      "re": 807,
      "on": 808,
      "er": 809,
      "at": 810,
      "en": 811,
      "st": 812,
      "al": 813,
      "or": 814,
      "of": 815,
      "ed": 816,
      "is": 817,
      "and": 818,
      "ing": 819,
      "ou": 820,
      "es": 821,
      "ar": 822,
      "to": 823,
      "it": 824,
      "ic": 825,
      "as": 826,
      "ion": 827,
      "le": 828,
      "ro": 829,
      "ch": 830,
      "ent": 831,
      "ct": 832,
      "ve": 833,
      "se": 834,
      "me": 835,
      "il": 836,
      "de": 837,
      "be": 838,
      "co": 839,
      "lo": 840,
      "for": 841,
      "ly": 842,
      "ation": 843,
      "ce": 844,
      "he": 845,
      "ig": 846,
      "ra": 847,
      "we": 848,
      "su": 849,
      "con": 850,
      "pro": 851,
      "ad": 852,
      "im": 853,
      "no": 854,
      "so": 855,
      "id": 856,
      "wh": 857,
      "ge": 858,
      "te": 859,
      "ver": 860,
      "un": 861,
      "mo": 862,
      "are": 863,
      "wi": 864,
      "ay": 865,
      "that": 866,
      "us": 867,
      "ut": 868,
      "ir": 869,
      "pe": 870,
      "po": 871,
      "you": 872,
      "ab": 873,
      "with": 874,
      "li": 875,
      "am": 876,
      "per": 877,
      "ter": 878,
      "ld": 879,
      "fe": 880,
      "ul": 881,
      "ne": 882,
      "ur": 883,
      "ment": 884,
      "sh": 885,
      "ac": 886,
      "com": 887,
      "di": 888,
      "ke": 889,
      "res": 890,
      "ma": 891,
      "ex": 892,
      "pl": 893,
      "ri": 894,
      "ha": 895,
      "ess": 896,
      "ate": 897,
      "all": 898,
      "ill": 899,
      "ity": 900,
      "qu": 901,
      "od": 902,
      "ap": 903,
      "this": 904,
      "igh": 905,
      "ts": 906,
      "was": 907,
      "by": 908,
      "ho": 909,
      "ive": 910,
      "do": 911,
      "ta": 912,
      "oun": 913,
      "man": 914,
      "one": 915,
      "ti": 916,
      "ther": 917,
      "out": 918,
      "du": 919,
      "go": 920,
      "ll": 921,
      "can": 922,
      "ers": 923,
      "ci": 924,
      "wor": 925,
      "op": 926,
      "em": 927,
      "rom": 928,
      "ure": 929,
      "from": 930,
      "ist": 931,
      "our": 932,
      "act": 933,
      "have": 934,
      "ag": 935,
      "cl": 936,
      "if": 937,
      "art": 938,
      "but": 939,
      "ru": 940,
      "ol": 941,
      "ical": 942,
      "has": 943,
      "ant": 944,
      "sa": 945,
      "pa": 946,
      "ine": 947,
      "ould": 948,
      "um": 949,
      "not": 950,
      "ren": 951,
      "ction": 952,
      "ong": 953,
      "bo": 954,
      "por": 955,
      "end": 956,
      "ight": 957,
      "ang": 958,
      "ast": 959,
      "comp": 960,
      "gh": 961,
      "ie": 962,
      "om": 963,
      "tr": 964,
      "ard": 965,
      "der": 966,
      "fo": 967,
      "iz": 968,
      "low": 969,
      "red": 970,
      "ich": 971,
      "sy": 972,
      "ear": 973,
      "ated": 974,
      "au": 975,
      "will": 976,
      "tra": 977,
      "up": 978,
      "his": 979,
      "dis": 980,
      "ies": 981,
      "ous": 982,
      "age": 983,
      "ud": 984,
      "ffe": 985,
      "king": 986,
      "its": 987,
      "form": 988,
      "they": 989,
      "pr": 990,
      "ust": 991,
      "ph": 992,
      "ign": 993,
      "wn": 994,
      "ice": 995,
      "ough": 996,
      "ind": 997,
      "ach": 998,
      "ound": 999,
      "were": 1000,
      "ans": 1001,
      "ob": 1002,
      "which": 1003,
      "ide": 1004,
      "cre": 1005,
      "port": 1006,
      "new": 1007,
      "chin": 1008,
      "some": 1009,
      "af": 1010,
      "pres": 1011,
      "00": 1012,
      "able": 1013,
      "ty": 1014,
      "iv": 1015,
      "more": 1016,
      "int": 1017,
      "ally": 1018,
      "ks": 1019,
      "other": 1020,
      "pre": 1021,
      "ass": 1022,
      "there": 1023,
      "your": 1024,
      "ition": 1025,
      "el": 1026,
      "spe": 1027,
      "je": 1028,
      "ser": 1029,
      "gr": 1030,
      "br": 1031,
      "cont": 1032,
      "ble": 1033,
      "des": 1034,
      "ple": 1035,
      "cess": 1036,
      "ater": 1037,
      "my": 1038,
      "their": 1039,
      "now": 1040,
      "wo": 1041,
      "very": 1042,
      "ev": 1043,
      "ance": 1044,
      "fa": 1045,
      "ish": 1046,
      "ree": 1047,
      "mar": 1048,
      "pos": 1049,
      "stem": 1050,
      "cent": 1051,
      "fic": 1052,
      "who": 1053,
      "day": 1054,
      "log": 1055,
      "also": 1056,
      "ase": 1057,
      "bl": 1058,
      "ack": 1059,
      "ial": 1060,
      "when": 1061,
      "cor": 1062,
      "way": 1063,
      "year": 1064,
      "gra": 1065,
      "system": 1066,
      "time": 1067,
      "ary": 1068,
      "ite": 1069,
      "ence": 1070,
      "str": 1071,
      "sp": 1072,
      "ia": 1073,
      "mon": 1074,
      "min": 1075,
      "ject": 1076,
      "ens": 1077,
      "part": 1078,
      "like": 1079,
      "ip": 1080,
      "work": 1081,
      "inter": 1082,
      "meth": 1083,
      "velo": 1084,
      "ents": 1085,
      "said": 1086,
      "ck": 1087,
      "gen": 1088,
      "ber": 1089,
      "high": 1090,
      "her": 1091,
      "ting": 1092,
      "ain": 1093,
      "been": 1094,
      "fl": 1095,
      "any": 1096,
      "coun": 1097,
      "about": 1098,
      "est": 1099,
      "ory": 1100,
      "bas": 1101,
      "she": 1102,
      "over": 1103,
      "sho": 1104,
      "develo": 1105,
      "had": 1106,
      "ople": 1107,
      "par": 1108,
      "ations": 1109,
      "people": 1110,
      "than": 1111,
      "method": 1112,
      "pt": 1113,
      "ile": 1114,
      "fir": 1115,
      "stru": 1116,
      "develop": 1117,
      "ca": 1118,
      "produ": 1119,
      "into": 1120,
      "car": 1121,
      "ffect": 1122,
      "prov": 1123,
      "rel": 1124,
      "ful": 1125,
      "ok": 1126,
      "bet": 1127,
      "fore": 1128,
      "cur": 1129,
      "sul": 1130,
      "them": 1131,
      "cy": 1132,
      "after": 1133,
      "ions": 1134,
      "lect": 1135,
      "ces": 1136,
      "et": 1137,
      "what": 1138,
      "tain": 1139,
      "ild": 1140,
      "eng": 1141,
      "ors": 1142,
      "here": 1143,
      "bu": 1144,
      "ep": 1145,
      "thing": 1146,
      "av": 1147,
      "ced": 1148,
      "arch": 1149,
      "two": 1150,
      "china": 1151,
      "ms": 1152,
      "get": 1153,
      "aly": 1154,
      "used": 1155,
      "ry": 1156,
      "ating": 1157,
      "gre": 1158,
      "stud": 1159,
      "use": 1160,
      "la": 1161,
      "effect": 1162,
      "fin": 1163,
      "rent": 1164,
      "under": 1165,
      "gu": 1166,
      "first": 1167,
      "med": 1168,
      "ates": 1169,
      "ning": 1170,
      "off": 1171,
      "most": 1172,
      "say": 1173,
      "cal": 1174,
      "would": 1175,
      "ult": 1176,
      "just": 1177,
      "col": 1178,
      "hu": 1179,
      "only": 1180,
      "sur": 1181,
      "comm": 1182,
      "cho": 1183,
      "then": 1184,
      "long": 1185,
      "ments": 1186,
      "char": 1187,
      "may": 1188,
      "ue": 1189,
      "ility": 1190,
      "sel": 1191,
      "analy": 1192,
      "resul": 1193,
      "pp": 1194,
      "come": 1195,
      "paper": 1196,
      "del": 1197,
      "main": 1198,
      "cial": 1199,
      "trans": 1200,
      "should": 1201,
      "thr": 1202,
      "tech": 1203,
      "cau": 1204,
      "row": 1205,
      "ics": 1206,
      "vers": 1207,
      "chan": 1208,
      "good": 1209,
      "serv": 1210,
      "lit": 1211,
      "process": 1212,
      "cle": 1213,
      "son": 1214,
      "tal": 1215,
      "ese": 1216,
      "many": 1217,
      "ication": 1218,
      "cer": 1219,
      "well": 1220,
      "ise": 1221,
      "ink": 1222,
      "val": 1223,
      "design": 1224,
      "reg": 1225,
      "could": 1226,
      "ding": 1227,
      "vel": 1228,
      "world": 1229,
      "sis": 1230,
      "cause": 1231,
      "contro": 1232,
      "tre": 1233,
      "ational": 1234,
      "fun": 1235,
      "search": 1236,
      "ef": 1237,
      "test": 1238,
      "through": 1239,
      "ious": 1240,
      "water": 1241,
      "ak": 1242,
      "dition": 1243,
      "diffe": 1244,
      "such": 1245,
      "how": 1246,
      "ame": 1247,
      "ian": 1248,
      "ted": 1249,
      "these": 1250,
      "try": 1251,
      "mat": 1252,
      "fact": 1253,
      "ick": 1254,
      "sub": 1255,
      "object": 1256,
      "show": 1257,
      "him": 1258,
      "sol": 1259,
      "ative": 1260,
      "stand": 1261,
      "see": 1262,
      "ular": 1263,
      "pat": 1264,
      "make": 1265,
      "tur": 1266,
      "tri": 1267,
      "ps": 1268,
      "back": 1269,
      "play": 1270,
      "know": 1271,
      "vis": 1272,
      "ving": 1273,
      "sim": 1274,
      "read": 1275,
      "struct": 1276,
      "wer": 1277,
      "dat": 1278,
      "fi": 1279,
      "less": 1280,
      "life": 1281,
      "si": 1282,
      "based": 1283,
      "les": 1284,
      "even": 1285,
      "ste": 1286,
      "every": 1287,
      "ress": 1288,
      "ures": 1289,
      "19": 1290,
      "sm": 1291,
      "requ": 1292,
      "development": 1293,
      "cr": 1294,
      "cus": 1295,
      "ween": 1296,
      "need": 1297,
      "put": 1298,
      "between": 1299,
      "cap": 1300,
      "don": 1301,
      "years": 1302,
      "land": 1303,
      "ual": 1304,
      "ities": 1305,
      "jo": 1306,
      "hel": 1307,
      "down": 1308,
      "net": 1309,
      "because": 1310,
      "exper": 1311,
      "sing": 1312,
      "tim": 1313,
      "vie": 1314,
      "gener": 1315,
      "set": 1316,
      "lar": 1317,
      "call": 1318,
      "ily": 1319,
      "vest": 1320,
      "self": 1321,
      "clo": 1322,
      "200": 1323,
      "mu": 1324,
      "ric": 1325,
      "ss": 1326,
      "sign": 1327,
      "oper": 1328,
      "logy": 1329,
      "hand": 1330,
      "research": 1331,
      "study": 1332,
      "ron": 1333,
      "uring": 1334,
      "ward": 1335,
      "ace": 1336,
      "nor": 1337,
      "model": 1338,
      "ose": 1339,
      "though": 1340,
      "tle": 1341,
      "incl": 1342,
      "xt": 1343,
      "inte": 1344,
      "ten": 1345,
      "chinese": 1346,
      "air": 1347,
      "ality": 1348,
      "using": 1349,
      "made": 1350,
      "fer": 1351,
      "let": 1352,
      "ident": 1353,
      "pu": 1354,
      "econ": 1355,
      "ds": 1356,
      "line": 1357,
      "econom": 1358,
      "invest": 1359,
      "bus": 1360,
      "ism": 1361,
      "vol": 1362,
      "ship": 1363,
      "cts": 1364,
      "ot": 1365,
      "rest": 1366,
      "plo": 1367,
      "indu": 1368,
      "control": 1369,
      "mor": 1370,
      "data": 1371,
      "ural": 1372,
      "hy": 1373,
      "where": 1374,
      "proble": 1375,
      "three": 1376,
      "elect": 1377,
      "rect": 1378,
      "ness": 1379,
      "ves": 1380,
      "plan": 1381,
      "sion": 1382,
      "uni": 1383,
      "ved": 1384,
      "ince": 1385,
      "face": 1386,
      "tem": 1387,
      "ket": 1388,
      "ized": 1389,
      "appl": 1390,
      "ield": 1391,
      "national": 1392,
      "stri": 1393,
      "mal": 1394,
      "ization": 1395,
      "cons": 1396,
      "ature": 1397,
      "sed": 1398,
      "vent": 1399,
      "gan": 1400,
      "ability": 1401,
      "hou": 1402,
      "results": 1403,
      "ins": 1404,
      "ict": 1405,
      "different": 1406,
      "incre": 1407,
      "10": 1408,
      "formation": 1409,
      "present": 1410,
      "stu": 1411,
      "led": 1412,
      "ited": 1413,
      "cu": 1414,
      "each": 1415,
      "grou": 1416,
      "while": 1417,
      "view": 1418,
      "vir": 1419,
      "again": 1420,
      "io": 1421,
      "iness": 1422,
      "gover": 1423,
      "found": 1424,
      "child": 1425,
      "war": 1426,
      "state": 1427,
      "ings": 1428,
      "turn": 1429,
      "ason": 1430,
      "cri": 1431,
      "ire": 1432,
      ").": 1433,
      "power": 1434,
      "num": 1435,
      "sure": 1436,
      "exam": 1437,
      "objective": 1438,
      "gy": 1439,
      "ger": 1440,
      "20": 1441,
      "last": 1442,
      "var": 1443,
      "ution": 1444,
      "mer": 1445,
      "sup": 1446,
      "take": 1447,
      "much": 1448,
      "mis": 1449,
      "real": 1450,
      "ft": 1451,
      "right": 1452,
      "great": 1453,
      "fam": 1454,
      "light": 1455,
      "sto": 1456,
      "before": 1457,
      "amer": 1458,
      "did": 1459,
      "non": 1460,
      "mem": 1461,
      "head": 1462,
      "charact": 1463,
      "ban": 1464,
      "old": 1465,
      "sk": 1466,
      "ital": 1467,
      "ran": 1468,
      "own": 1469,
      "che": 1470,
      "import": 1471,
      "class": 1472,
      "want": 1473,
      "point": 1474,
      "wa": 1475,
      "flu": 1476,
      "app": 1477,
      "ster": 1478,
      "govern": 1479,
      "help": 1480,
      "those": 1481,
      "being": 1482,
      "ys": 1483,
      "level": 1484,
      "large": 1485,
      "mic": 1486,
      "publ": 1487,
      "bro": 1488,
      "equ": 1489,
      "wr": 1490,
      "ways": 1491,
      "pon": 1492,
      "both": 1493,
      "als": 1494,
      "techno": 1495,
      "small": 1496,
      "ters": 1497,
      "says": 1498,
      "order": 1499,
      "cell": 1500,
      "alth": 1501,
      "ven": 1502,
      "kind": 1503,
      "still": 1504,
      "ared": 1505,
      "sum": 1506,
      "bre": 1507,
      "during": 1508,
      "ient": 1509,
      "function": 1510,
      "fol": 1511,
      "lead": 1512,
      "person": 1513,
      "lish": 1514,
      "ga": 1515,
      "att": 1516,
      "too": 1517,
      "discus": 1518,
      "run": 1519,
      "city": 1520,
      "lin": 1521,
      "field": 1522,
      "itu": 1523,
      "ner": 1524,
      "pra": 1525,
      "que": 1526,
      "ices": 1527,
      "includ": 1528,
      "dy": 1529,
      "dra": 1530,
      "nam": 1531,
      "kes": 1532,
      "think": 1533,
      "studi": 1534,
      "fil": 1535,
      "inst": 1536,
      "intro": 1537,
      "vi": 1538,
      "build": 1539,
      "far": 1540,
      "must": 1541,
      "sou": 1542,
      "ib": 1543,
      "ize": 1544,
      "meas": 1545,
      "cul": 1546,
      "introdu": 1547,
      "ody": 1548,
      "ific": 1549,
      "look": 1550,
      "cept": 1551,
      "same": 1552,
      "add": 1553,
      "teach": 1554,
      "accor": 1555,
      "bal": 1556,
      "pri": 1557,
      "flow": 1558,
      "adv": 1559,
      "change": 1560,
      "grow": 1561,
      "group": 1562,
      "fra": 1563,
      "giv": 1564,
      "ases": 1565,
      "speci": 1566,
      "mi": 1567,
      "list": 1568,
      "home": 1569,
      "chool": 1570,
      "character": 1571,
      "open": 1572,
      "comple": 1573,
      "ton": 1574,
      "prof": 1575,
      "mr": 1576,
      "icle": 1577,
      "cond": 1578,
      "structure": 1579,
      "ency": 1580,
      "school": 1581,
      "chang": 1582,
      "company": 1583,
      "americ": 1584,
      "find": 1585,
      "leg": 1586,
      "prote": 1587,
      "pol": 1588,
      "direct": 1589,
      "ically": 1590,
      "oc": 1591,
      "place": 1592,
      "bed": 1593,
      "uc": 1594,
      "big": 1595,
      "cut": 1596,
      "ris": 1597,
      "quality": 1598,
      "government": 1599,
      "ash": 1600,
      "cted": 1601,
      "ars": 1602,
      "follow": 1603,
      "hist": 1604,
      "human": 1605,
      "business": 1606,
      "--": 1607,
      "ath": 1608,
      "start": 1609,
      "love": 1610,
      "fri": 1611,
      "sci": 1612,
      "health": 1613,
      "gl": 1614,
      "blo": 1615,
      "tru": 1616,
      "wee": 1617,
      "country": 1618,
      "law": 1619,
      "body": 1620,
      "tion": 1621,
      "according": 1622,
      "cour": 1623,
      "appe": 1624,
      "pho": 1625,
      "information": 1626,
      "technology": 1627,
      "second": 1628,
      "market": 1629,
      "times": 1630,
      "men": 1631,
      "pass": 1632,
      "application": 1633,
      "cult": 1634,
      "mater": 1635,
      "ides": 1636,
      "treat": 1637,
      "dro": 1638,
      "pul": 1639,
      "important": 1640,
      "dr": 1641,
      "ists": 1642,
      "friend": 1643,
      "respon": 1644,
      "sc": 1645,
      "does": 1646,
      "ele": 1647,
      "another": 1648,
      "dri": 1649,
      "since": 1650,
      "win": 1651,
      "project": 1652,
      "soci": 1653,
      "ages": 1654,
      "house": 1655,
      "ask": 1656,
      "pot": 1657,
      "peri": 1658,
      "material": 1659,
      "organ": 1660,
      "pur": 1661,
      "top": 1662,
      "manage": 1663,
      "methods": 1664,
      "little": 1665,
      "mil": 1666,
      "commun": 1667,
      "around": 1668,
      "anti": 1669,
      "analysis": 1670,
      "service": 1671,
      "bar": 1672,
      "happ": 1673,
      "position": 1674,
      "partic": 1675,
      "sal": 1676,
      "ord": 1677,
      "graph": 1678,
      "bra": 1679,
      "fur": 1680,
      "proper": 1681,
      "univers": 1682,
      "ware": 1683,
      "ort": 1684,
      "issu": 1685,
      "current": 1686,
      "mul": 1687,
      "vo": 1688,
      "educ": 1689,
      "key": 1690,
      "came": 1691,
      "hard": 1692,
      "ener": 1693,
      "ided": 1694,
      "aut": 1695,
      "children": 1696,
      "sen": 1697,
      "become": 1698,
      "usion": 1699,
      "bon": 1700,
      "public": 1701,
      "spa": 1702,
      "iting": 1703,
      "dec": 1704,
      "special": 1705,
      "rate": 1706,
      "number": 1707,
      "illion": 1708,
      "omen": 1709,
      "care": 1710,
      "side": 1711,
      "gest": 1712,
      "rence": 1713,
      "ore": 1714,
      "tern": 1715,
      "logical": 1716,
      "month": 1717,
      "analyz": 1718,
      "support": 1719,
      "report": 1720,
      "lear": 1721,
      "posed": 1722,
      "ken": 1723,
      "uro": 1724,
      "dep": 1725,
      "never": 1726,
      "ffic": 1727,
      "loc": 1728,
      "type": 1729,
      "techn": 1730,
      "bur": 1731,
      "appro": 1732,
      "better": 1733,
      "ses": 1734,
      "without": 1735,
      "bin": 1736,
      "cir": 1737,
      "contin": 1738,
      "eas": 1739,
      "tic": 1740,
      "ref": 1741,
      "condition": 1742,
      "room": 1743,
      "wever": 1744,
      "however": 1745,
      "pract": 1746,
      "ator": 1747,
      "suc": 1748,
      "investig": 1749,
      "ross": 1750,
      "best": 1751,
      "sun": 1752,
      "progra": 1753,
      "den": 1754,
      "called": 1755,
      "hal": 1756,
      "mid": 1757,
      "offic": 1758,
      "cost": 1759,
      "har": 1760,
      "mus": 1761,
      "enter": 1762,
      "four": 1763,
      "amp": 1764,
      "food": 1765,
      ".\"": 1766,
      "ional": 1767,
      "hold": 1768,
      "clear": 1769,
      "ey": 1770,
      "free": 1771,
      "sof": 1772,
      "whe": 1773,
      "reason": 1774,
      "multi": 1775,
      "na": 1776,
      "oil": 1777,
      "envir": 1778,
      "article": 1779,
      "ium": 1780,
      "concl": 1781,
      "stry": 1782,
      "management": 1783,
      "fac": 1784,
      "mean": 1785,
      "feel": 1786,
      "ground": 1787,
      "environ": 1788,
      "cing": 1789,
      "going": 1790,
      "deter": 1791,
      "ben": 1792,
      "area": 1793,
      "mone": 1794,
      "struction": 1795,
      "effic": 1796,
      "dist": 1797,
      "lot": 1798,
      "next": 1799,
      "production": 1800,
      "name": 1801,
      "few": 1802,
      "activ": 1803,
      "redu": 1804,
      "example": 1805,
      "tail": 1806,
      "action": 1807,
      "products": 1808,
      "da": 1809,
      "team": 1810,
      "minist": 1811,
      "lu": 1812,
      "ped": 1813,
      "allow": 1814,
      "itive": 1815,
      "relation": 1816,
      "problem": 1817,
      "ied": 1818,
      "keep": 1819,
      "comput": 1820,
      "ba": 1821,
      "give": 1822,
      "conf": 1823,
      "pet": 1824,
      "value": 1825,
      "advan": 1826,
      "lim": 1827,
      "move": 1828,
      "ties": 1829,
      "ering": 1830,
      "pati": 1831,
      "industry": 1832,
      "cra": 1833,
      "quest": 1834,
      "atch": 1835,
      "ased": 1836,
      "div": 1837,
      "soft": 1838,
      "prove": 1839,
      "000": 1840,
      "students": 1841,
      "space": 1842,
      "iment": 1843,
      "full": 1844,
      "operation": 1845,
      "gn": 1846,
      "always": 1847,
      "sil": 1848,
      "recent": 1849,
      "today": 1850,
      "went": 1851,
      "cust": 1852,
      "sty": 1853,
      "ctive": 1854,
      "environment": 1855,
      "aim": 1856,
      "load": 1857,
      "against": 1858,
      "cou": 1859,
      "prin": 1860,
      "ling": 1861,
      "nat": 1862,
      "py": 1863,
      "post": 1864,
      "descri": 1865,
      "ready": 1866,
      "signific": 1867,
      "case": 1868,
      "stra": 1869,
      "experi": 1870,
      "ming": 1871,
      "sco": 1872,
      "tu": 1873,
      "aren": 1874,
      "university": 1875,
      "pay": 1876,
      "ane": 1877,
      "things": 1878,
      "kno": 1879,
      "ants": 1880,
      "success": 1881,
      "patients": 1882,
      "might": 1883,
      "won": 1884,
      "loo": 1885,
      "unt": 1886,
      "auto": 1887,
      "result": 1888,
      "problems": 1889,
      "beli": 1890,
      "contain": 1891,
      "book": 1892,
      "women": 1893,
      "web": 1894,
      "common": 1895,
      "got": 1896,
      "energy": 1897,
      "bor": 1898,
      "often": 1899,
      "custom": 1900,
      "sw": 1901,
      "stat": 1902,
      "treatment": 1903,
      "ls": 1904,
      "chem": 1905,
      "mechan": 1906,
      "economic": 1907,
      "program": 1908,
      "ox": 1909,
      "sat": 1910,
      "thor": 1911,
      "youn": 1912,
      "week": 1913,
      "period": 1914,
      "ping": 1915,
      "possi": 1916,
      "including": 1917,
      "characterist": 1918,
      "money": 1919,
      "wal": 1920,
      "influ": 1921,
      "met": 1922,
      "ably": 1923,
      "micro": 1924,
      "fu": 1925,
      "ually": 1926,
      "centr": 1927,
      "wide": 1928,
      "among": 1929,
      "content": 1930,
      "international": 1931,
      "related": 1932,
      "glo": 1933,
      "lt": 1934,
      "ze": 1935,
      "local": 1936,
      "ource": 1937,
      "effective": 1938,
      "ditional": 1939,
      "ged": 1940,
      "ith": 1941,
      "theory": 1942,
      "sug": 1943,
      "ann": 1944,
      "perfor": 1945,
      "away": 1946,
      "improve": 1947,
      "shall": 1948,
      "ade": 1949,
      "euro": 1950,
      "ched": 1951,
      "sever": 1952,
      "syn": 1953,
      "ush": 1954,
      "general": 1955,
      "family": 1956,
      "tend": 1957,
      "uses": 1958,
      "standard": 1959,
      "education": 1960,
      "maj": 1961,
      "expe": 1962,
      "working": 1963,
      "tries": 1964,
      "ned": 1965,
      "rele": 1966,
      "dev": 1967,
      "ird": 1968,
      "percent": 1969,
      "news": 1970,
      "left": 1971,
      "depend": 1972,
      "ever": 1973,
      "mind": 1974,
      "social": 1975,
      "why": 1976,
      "strong": 1977,
      "ploy": 1978,
      "studied": 1979,
      "phas": 1980,
      "dise": 1981,
      "bit": 1982,
      "polit": 1983,
      "performan": 1984,
      "major": 1985,
      "lang": 1986,
      "inal": 1987,
      "pal": 1988,
      "given": 1989,
      "night": 1990,
      "once": 1991,
      "heart": 1992,
      "super": 1993,
      "near": 1994,
      "safe": 1995,
      "interest": 1996,
      "history": 1997,
      "ges": 1998,
      "jap": 1999,
      "lay": 2000,
      "exp": 2001,
      "culture": 2002,
      "really": 2003,
      "stic": 2004,
      "text": 2005,
      "clin": 2006,
      "ports": 2007,
      "growth": 2008,
      "extra": 2009,
      "estab": 2010,
      "several": 2011,
      "),": 2012,
      "reco": 2013,
      "ential": 2014,
      "mach": 2015,
      "lling": 2016,
      "typ": 2017,
      "network": 2018,
      "fut": 2019,
      "gor": 2020,
      "aring": 2021,
      "establish": 2022,
      "50": 2023,
      "ji": 2024,
      "poly": 2025,
      "combin": 2026,
      "engine": 2027,
      "understand": 2028,
      "ded": 2029,
      "gin": 2030,
      "beaut": 2031,
      "live": 2032,
      "early": 2033,
      "train": 2034,
      "princi": 2035,
      "tar": 2036,
      "thin": 2037,
      "bers": 2038,
      "mit": 2039,
      "sl": 2040,
      "ints": 2041,
      "within": 2042,
      "product": 2043,
      "ail": 2044,
      "dam": 2045,
      "uan": 2046,
      "ury": 2047,
      "sens": 2048,
      "states": 2049,
      "construction": 2050,
      "moder": 2051,
      "making": 2052,
      "colle": 2053,
      "fort": 2054,
      "boo": 2055,
      "fully": 2056,
      "measure": 2057,
      "japan": 2058,
      "seem": 2059,
      "certain": 2060,
      "gs": 2061,
      "job": 2062,
      "ying": 2063,
      "ones": 2064,
      "toge": 2065,
      "president": 2066,
      "days": 2067,
      "provide": 2068,
      "profess": 2069,
      "course": 2070,
      "performance": 2071,
      "together": 2072,
      "late": 2073,
      "ream": 2074,
      "works": 2075,
      "langu": 2076,
      "ible": 2077,
      "site": 2078,
      "ats": 2079,
      "road": 2080,
      "secur": 2081,
      "ption": 2082,
      "12": 2083,
      "along": 2084,
      "white": 2085,
      "comes": 2086,
      "future": 2087,
      "forward": 2088,
      "explo": 2089,
      "achie": 2090,
      "strate": 2091,
      "higher": 2092,
      "south": 2093,
      "young": 2094,
      "zh": 2095,
      "step": 2096,
      "earth": 2097,
      "countries": 2098,
      "temper": 2099,
      "known": 2100,
      "distri": 2101,
      "ples": 2102,
      "effects": 2103,
      "building": 2104,
      "30": 2105,
      "dou": 2106,
      "means": 2107,
      "west": 2108,
      "cks": 2109,
      "ene": 2110,
      "plain": 2111,
      "later": 2112,
      "star": 2113,
      "stren": 2114,
      "single": 2115,
      "photo": 2116,
      "author": 2117,
      "close": 2118,
      "north": 2119,
      "mp": 2120,
      "os": 2121,
      "force": 2122,
      "ately": 2123,
      "ought": 2124,
      "polic": 2125,
      "flo": 2126,
      "ired": 2127,
      "half": 2128,
      "exist": 2129,
      "thought": 2130,
      "streng": 2131,
      "ball": 2132,
      "fall": 2133,
      "stop": 2134,
      "orig": 2135,
      "ids": 2136,
      "dar": 2137,
      "ier": 2138,
      "return": 2139,
      "conne": 2140,
      "past": 2141,
      "dru": 2142,
      "ging": 2143,
      "hun": 2144,
      "tor": 2145,
      "tical": 2146,
      "ives": 2147,
      "economy": 2148,
      "distribut": 2149,
      "15": 2150,
      "rich": 2151,
      "wall": 2152,
      "already": 2153,
      "dem": 2154,
      "supp": 2155,
      "fect": 2156,
      "expres": 2157,
      "phys": 2158,
      "something": 2159,
      "mark": 2160,
      "techni": 2161,
      "cast": 2162,
      "hor": 2163,
      "jing": 2164,
      "rece": 2165,
      "sea": 2166,
      "radi": 2167,
      "ider": 2168,
      "abo": 2169,
      "pris": 2170,
      "short": 2171,
      "conclusion": 2172,
      "relationship": 2173,
      "god": 2174,
      "ws": 2175,
      "recor": 2176,
      "united": 2177,
      "ju": 2178,
      "sam": 2179,
      "ons": 2180,
      "contra": 2181,
      "pop": 2182,
      "lied": 2183,
      "plac": 2184,
      "board": 2185,
      "integr": 2186,
      "range": 2187,
      "gas": 2188,
      "ctor": 2189,
      "black": 2190,
      "further": 2191,
      "natural": 2192,
      "gress": 2193,
      "tens": 2194,
      "ites": 2195,
      "party": 2196,
      "199": 2197,
      "american": 2198,
      "official": 2199,
      "bei": 2200,
      "image": 2201,
      "diffic": 2202,
      "experiment": 2203,
      "introduced": 2204,
      "significant": 2205,
      "possible": 2206,
      "ulation": 2207,
      "mag": 2208,
      "center": 2209,
      "surface": 2210,
      "specific": 2211,
      "ff": 2212,
      "term": 2213,
      "compan": 2214,
      "approach": 2215,
      "language": 2216,
      "band": 2217,
      "situ": 2218,
      "ues": 2219,
      "atures": 2220,
      "outs": 2221,
      "mother": 2222,
      "europe": 2223,
      "ax": 2224,
      "diag": 2225,
      "tage": 2226,
      "ification": 2227,
      "vision": 2228,
      "increase": 2229,
      "suggest": 2230,
      "bi": 2231,
      "fish": 2232,
      "moun": 2233,
      "role": 2234,
      "ama": 2235,
      "ights": 2236,
      "ources": 2237,
      "eval": 2238,
      "fail": 2239,
      "whole": 2240,
      "bank": 2241,
      "cases": 2242,
      "five": 2243,
      "itor": 2244,
      "def": 2245,
      "resist": 2246,
      "plant": 2247,
      "traditional": 2248,
      "calcul": 2249,
      "bio": 2250,
      "indic": 2251,
      "developed": 2252,
      "proved": 2253,
      "foreign": 2254,
      "solution": 2255,
      "risk": 2256,
      "whether": 2257,
      "pressure": 2258,
      "color": 2259,
      "member": 2260,
      "vious": 2261,
      "inde": 2262,
      "ished": 2263,
      "require": 2264,
      "scient": 2265,
      "modern": 2266,
      "ior": 2267,
      "ute": 2268,
      "ived": 2269,
      "systems": 2270,
      "11": 2271,
      "gree": 2272,
      "sor": 2273,
      "ried": 2274,
      "crit": 2275,
      "computer": 2276,
      "dle": 2277,
      "anim": 2278,
      "obtain": 2279,
      "green": 2280,
      "machine": 2281,
      "gir": 2282,
      "hour": 2283,
      "mb": 2284,
      "million": 2285,
      "pan": 2286,
      "stor": 2287,
      "employ": 2288,
      "ending": 2289,
      "spect": 2290,
      "basic": 2291,
      "fre": 2292,
      "yl": 2293,
      "ision": 2294,
      "tell": 2295,
      "style": 2296,
      "select": 2297,
      "capital": 2298,
      "particular": 2299,
      "usu": 2300,
      "told": 2301,
      "asing": 2302,
      "plement": 2303,
      "shows": 2304,
      "blood": 2305,
      "until": 2306,
      "itch": 2307,
      "ications": 2308,
      "tax": 2309,
      "bot": 2310,
      "lower": 2311,
      "others": 2312,
      "wood": 2313,
      "discussed": 2314,
      "learn": 2315,
      "security": 2316,
      "cat": 2317,
      "east": 2318,
      "sent": 2319,
      "prob": 2320,
      "points": 2321,
      "makes": 2322,
      "phil": 2323,
      "finan": 2324,
      "base": 2325,
      "fast": 2326,
      "lab": 2327,
      "dete": 2328,
      "coming": 2329,
      "simple": 2330,
      "dynam": 2331,
      "experience": 2332,
      "18": 2333,
      "various": 2334,
      "evalu": 2335,
      "cli": 2336,
      "kill": 2337,
      "nal": 2338,
      "tool": 2339,
      "section": 2340,
      "defin": 2341,
      "const": 2342,
      "gold": 2343,
      "brid": 2344,
      "steel": 2345,
      "equip": 2346,
      "\".": 2347,
      "paren": 2348,
      "due": 2349,
      "prevent": 2350,
      "dig": 2351,
      "frequ": 2352,
      "espe": 2353,
      "total": 2354,
      "rist": 2355,
      "optim": 2356,
      "complete": 2357,
      "bat": 2358,
      "fig": 2359,
      "wind": 2360,
      "reach": 2361,
      "code": 2362,
      "manag": 2363,
      "trade": 2364,
      "changes": 2365,
      "determin": 2366,
      "temperature": 2367,
      "mess": 2368,
      "mine": 2369,
      "ration": 2370,
      "yet": 2371,
      "third": 2372,
      "proposed": 2373,
      "necess": 2374,
      "share": 2375,
      "word": 2376,
      "path": 2377,
      "please": 2378,
      "clean": 2379,
      "ago": 2380,
      "fr": 2381,
      "scre": 2382,
      "scal": 2383,
      "source": 2384,
      "table": 2385,
      "ination": 2386,
      "ences": 2387,
      "associ": 2388,
      "concer": 2389,
      "idence": 2390,
      "ference": 2391,
      "accoun": 2392,
      "quick": 2393,
      "cially": 2394,
      "processing": 2395,
      "electron": 2396,
      "hol": 2397,
      "father": 2398,
      "question": 2399,
      "above": 2400,
      "eve": 2401,
      "ening": 2402,
      "lies": 2403,
      "etc": 2404,
      "eyes": 2405,
      "user": 2406,
      "create": 2407,
      "english": 2408,
      "showed": 2409,
      "looking": 2410,
      "global": 2411,
      "ker": 2412,
      "ense": 2413,
      "took": 2414,
      "heat": 2415,
      "sha": 2416,
      "ified": 2417,
      "cru": 2418,
      "init": 2419,
      "town": 2420,
      "tee": 2421,
      "words": 2422,
      "active": 2423,
      "especially": 2424,
      "fron": 2425,
      "mee": 2426,
      "deep": 2427,
      "promo": 2428,
      "access": 2429,
      "having": 2430,
      "speed": 2431,
      "series": 2432,
      "chemical": 2433,
      "ler": 2434,
      "hai": 2435,
      "cells": 2436,
      "teaching": 2437,
      "issue": 2438,
      "software": 2439,
      "characteristics": 2440,
      "demand": 2441,
      "companies": 2442,
      "mass": 2443,
      "pie": 2444,
      "size": 2445,
      "watch": 2446,
      "invol": 2447,
      "death": 2448,
      "formed": 2449,
      "avail": 2450,
      "services": 2451,
      "designed": 2452,
      "six": 2453,
      "central": 2454,
      ",\"": 2455,
      "bes": 2456,
      "fru": 2457,
      "areas": 2458,
      "disease": 2459,
      "og": 2460,
      "sound": 2461,
      "focus": 2462,
      "spir": 2463,
      "parame": 2464,
      "office": 2465,
      "subject": 2466,
      "nu": 2467,
      "marke": 2468,
      "electric": 2469,
      "vari": 2470,
      "xi": 2471,
      "xed": 2472,
      "least": 2473,
      "heav": 2474,
      "wel": 2475,
      "cry": 2476,
      "iency": 2477,
      "spr": 2478,
      "vil": 2479,
      "imp": 2480,
      "compet": 2481,
      "compon": 2482,
      "price": 2483,
      "ledge": 2484,
      "hib": 2485,
      "round": 2486,
      "vation": 2487,
      "sex": 2488,
      "acc": 2489,
      "fair": 2490,
      "middle": 2491,
      "condu": 2492,
      "adop": 2493,
      "implement": 2494,
      "nel": 2495,
      "hope": 2496,
      "following": 2497,
      "vit": 2498,
      "ilar": 2499,
      "detail": 2500,
      "foot": 2501,
      "male": 2502,
      "continu": 2503,
      "diagno": 2504,
      "ah": 2505,
      "bad": 2506,
      "seen": 2507,
      "ills": 2508,
      "taking": 2509,
      "bring": 2510,
      "break": 2511,
      "analyzed": 2512,
      "divid": 2513,
      "squ": 2514,
      "ude": 2515,
      "remo": 2516,
      "mob": 2517,
      "prim": 2518,
      "presented": 2519,
      "check": 2520,
      "complex": 2521,
      "conditions": 2522,
      "music": 2523,
      "beijing": 2524,
      "cup": 2525,
      "san": 2526,
      "ances": 2527,
      "ention": 2528,
      "cover": 2529,
      "feed": 2530,
      "astic": 2531,
      "finally": 2532,
      "mainly": 2533,
      "pattern": 2534,
      "hydro": 2535,
      "studies": 2536,
      "easy": 2537,
      "inc": 2538,
      "ines": 2539,
      "reli": 2540,
      "remain": 2541,
      "season": 2542,
      "manu": 2543,
      "similar": 2544,
      "stead": 2545,
      "cross": 2546,
      "tro": 2547,
      "rection": 2548,
      "atic": 2549,
      "separ": 2550,
      "begin": 2551,
      "cold": 2552,
      "woman": 2553,
      "basis": 2554,
      "buy": 2555,
      "factors": 2556,
      "industri": 2557,
      "materials": 2558,
      "spo": 2559,
      "ino": 2560,
      "acid": 2561,
      "brit": 2562,
      "liter": 2563,
      "science": 2564,
      "influence": 2565,
      "bul": 2566,
      "although": 2567,
      "suit": 2568,
      "host": 2569,
      "taken": 2570,
      "izing": 2571,
      "region": 2572,
      "fire": 2573,
      "policy": 2574,
      "popular": 2575,
      "ither": 2576,
      "ror": 2577,
      "arti": 2578,
      "geo": 2579,
      "features": 2580,
      "reported": 2581,
      "practice": 2582,
      "14": 2583,
      "review": 2584,
      "ilt": 2585,
      "rap": 2586,
      "imate": 2587,
      "une": 2588,
      "amoun": 2589,
      "shop": 2590,
      "dia": 2591,
      "augh": 2592,
      "carbon": 2593,
      "knowledge": 2594,
      "socie": 2595,
      "financial": 2596,
      "manufact": 2597,
      "game": 2598,
      "algor": 2599,
      "itary": 2600,
      "coll": 2601,
      "plate": 2602,
      "idea": 2603,
      "appear": 2604,
      "mechanism": 2605,
      "algorith": 2606,
      "16": 2607,
      "fill": 2608,
      "psy": 2609,
      "exe": 2610,
      "writ": 2611,
      "political": 2612,
      "pack": 2613,
      "ery": 2614,
      "resources": 2615,
      "river": 2616,
      "page": 2617,
      "phone": 2618,
      "talk": 2619,
      "morning": 2620,
      "clinical": 2621,
      "affect": 2622,
      "jud": 2623,
      "wing": 2624,
      "zhou": 2625,
      "enough": 2626,
      "tele": 2627,
      "gradu": 2628,
      "applied": 2629,
      "lines": 2630,
      "front": 2631,
      "bir": 2632,
      "done": 2633,
      "fle": 2634,
      "nan": 2635,
      "nature": 2636,
      "oid": 2637,
      "thesis": 2638,
      "stress": 2639,
      "ames": 2640,
      "prep": 2641,
      "medical": 2642,
      "film": 2643,
      "phase": 2644,
      "mes": 2645,
      "station": 2646,
      "almost": 2647,
      "deal": 2648,
      "therefore": 2649,
      "safety": 2650,
      "jiang": 2651,
      "rain": 2652,
      "living": 2653,
      "ended": 2654,
      "phy": 2655,
      "medi": 2656,
      "version": 2657,
      "months": 2658,
      "ply": 2659,
      "sle": 2660,
      "smo": 2661,
      "zz": 2662,
      "tact": 2663,
      "ideo": 2664,
      "ival": 2665,
      "media": 2666,
      "commit": 2667,
      "factor": 2668,
      "society": 2669,
      "dim": 2670,
      "ham": 2671,
      "individ": 2672,
      "pose": 2673,
      "liqu": 2674,
      "door": 2675,
      "stern": 2676,
      "frame": 2677,
      "difficult": 2678,
      "available": 2679,
      "bs": 2680,
      "lon": 2681,
      "thus": 2682,
      "roll": 2683,
      "soon": 2684,
      "verse": 2685,
      "across": 2686,
      "parts": 2687,
      "friends": 2688,
      "achieve": 2689,
      "strength": 2690,
      "meeting": 2691,
      "\",": 2692,
      "bud": 2693,
      "pict": 2694,
      "tom": 2695,
      "meet": 2696,
      "depart": 2697,
      "popul": 2698,
      "perfect": 2699,
      "box": 2700,
      "didn": 2701,
      "necessary": 2702,
      "100": 2703,
      "card": 2704,
      "rul": 2705,
      "yang": 2706,
      "toward": 2707,
      "ently": 2708,
      "cture": 2709,
      "sequ": 2710,
      "ilities": 2711,
      "wash": 2712,
      "pair": 2713,
      "ensive": 2714,
      "park": 2715,
      "aves": 2716,
      "matic": 2717,
      "gar": 2718,
      "han": 2719,
      "pi": 2720,
      "tou": 2721,
      "ators": 2722,
      "dest": 2723,
      "mod": 2724,
      "uss": 2725,
      "explain": 2726,
      "cancer": 2727,
      "actually": 2728,
      "iful": 2729,
      "visit": 2730,
      "13": 2731,
      "sch": 2732,
      "ened": 2733,
      "stain": 2734,
      "coal": 2735,
      "saw": 2736,
      "display": 2737,
      "command": 2738,
      "include": 2739,
      "investment": 2740,
      "link": 2741,
      "mac": 2742,
      "ring": 2743,
      "vered": 2744,
      "ray": 2745,
      "concept": 2746,
      "reser": 2747,
      "compared": 2748,
      "observ": 2749,
      "strict": 2750,
      "skin": 2751,
      "true": 2752,
      "activity": 2753,
      "walk": 2754,
      "technique": 2755,
      "outside": 2756,
      "slow": 2757,
      "stree": 2758,
      "lying": 2759,
      "province": 2760,
      "mission": 2761,
      "america": 2762,
      "usually": 2763,
      "ai": 2764,
      "represent": 2765,
      "ches": 2766,
      "metal": 2767,
      "loss": 2768,
      "addition": 2769,
      "gets": 2770,
      "ables": 2771,
      "acks": 2772,
      "likely": 2773,
      "collect": 2774,
      "pped": 2775,
      "normal": 2776,
      "training": 2777,
      "mountain": 2778,
      "ake": 2779,
      "bri": 2780,
      "dream": 2781,
      "pen": 2782,
      "wed": 2783,
      "chap": 2784,
      "beha": 2785,
      "weight": 2786,
      "shang": 2787,
      "joy": 2788,
      "levels": 2789,
      "asked": 2790,
      "situation": 2791,
      "fed": 2792,
      "file": 2793,
      "stage": 2794,
      "administ": 2795,
      "unit": 2796,
      "quant": 2797,
      "docu": 2798,
      "cannot": 2799,
      "controll": 2800,
      "consider": 2801,
      "benef": 2802,
      "efficiency": 2803,
      "17": 2804,
      "western": 2805,
      "utes": 2806,
      "poor": 2807,
      "plic": 2808,
      "civil": 2809,
      "fied": 2810,
      "wave": 2811,
      "potential": 2812,
      "beautiful": 2813,
      "individual": 2814,
      "behavi": 2815,
      "aver": 2816,
      "pred": 2817,
      "eral": 2818,
      "deb": 2819,
      "soil": 2820,
      "provides": 2821,
      "transfer": 2822,
      "windo": 2823,
      "military": 2824,
      "sense": 2825,
      "investigate": 2826,
      "distribution": 2827,
      "fat": 2828,
      "stone": 2829,
      "story": 2830,
      "hosp": 2831,
      "ured": 2832,
      "ctions": 2833,
      "press": 2834,
      "event": 2835,
      "increased": 2836,
      "running": 2837,
      "believe": 2838,
      "bridge": 2839,
      "ange": 2840,
      "progress": 2841,
      "sold": 2842,
      "iding": 2843,
      "quar": 2844,
      "ivity": 2845,
      "provided": 2846,
      "types": 2847,
      "double": 2848,
      "probably": 2849,
      "dynamic": 2850,
      "equipment": 2851,
      "eat": 2852,
      "ns": 2853,
      "tree": 2854,
      "adjust": 2855,
      "imag": 2856,
      "respe": 2857,
      "exer": 2858,
      "claim": 2859,
      "developing": 2860,
      "matter": 2861,
      "kinds": 2862,
      "glass": 2863,
      "principle": 2864,
      "jour": 2865,
      "lord": 2866,
      "vill": 2867,
      "stay": 2868,
      "ley": 2869,
      "lost": 2870,
      "direction": 2871,
      "doing": 2872,
      "paint": 2873,
      "property": 2874,
      "properties": 2875,
      "fine": 2876,
      "gain": 2877,
      "swe": 2878,
      "song": 2879,
      "yor": 2880,
      "yuan": 2881,
      "ching": 2882,
      "consum": 2883,
      "selves": 2884,
      "everything": 2885,
      "request": 2886,
      "priv": 2887,
      "40": 2888,
      "bab": 2889,
      "billion": 2890,
      "hit": 2891,
      "nast": 2892,
      "ised": 2893,
      "began": 2894,
      "nothing": 2895,
      "ung": 2896,
      "accept": 2897,
      "travel": 2898,
      "server": 2899,
      "capac": 2900,
      "police": 2901,
      "scale": 2902,
      "mobile": 2903,
      "algorithm": 2904,
      "80": 2905,
      "bound": 2906,
      "dry": 2907,
      "hind": 2908,
      "theore": 2909,
      "cting": 2910,
      "liver": 2911,
      "counter": 2912,
      "getting": 2913,
      "needs": 2914,
      "personal": 2915,
      "element": 2916,
      "hong": 2917,
      "rock": 2918,
      "prise": 2919,
      "sometimes": 2920,
      "lands": 2921,
      "increasing": 2922,
      "stock": 2923,
      "gave": 2924,
      "started": 2925,
      "brain": 2926,
      "dark": 2927,
      "physical": 2928,
      "hospital": 2929,
      "inj": 2930,
      "mode": 2931,
      "mail": 2932,
      "thern": 2933,
      "istic": 2934,
      "upon": 2935,
      "built": 2936,
      "differen": 2937,
      "attention": 2938,
      "added": 2939,
      "index": 2940,
      "spring": 2941,
      "ave": 2942,
      "cam": 2943,
      "nit": 2944,
      "sess": 2945,
      "tan": 2946,
      "xim": 2947,
      "ined": 2948,
      "orient": 2949,
      "plat": 2950,
      "former": 2951,
      "serve": 2952,
      "relative": 2953,
      "recogn": 2954,
      "college": 2955,
      "either": 2956,
      "ml": 2957,
      "mou": 2958,
      "sand": 2959,
      "ye": 2960,
      "inno": 2961,
      "seed": 2962,
      "held": 2963,
      "hot": 2964,
      "agree": 2965,
      "forms": 2966,
      "broad": 2967,
      "particip": 2968,
      "multiple": 2969,
      "obtained": 2970,
      "25": 2971,
      "ners": 2972,
      "lier": 2973,
      "serious": 2974,
      "contri": 2975,
      "laun": 2976,
      "occur": 2977,
      "community": 2978,
      "device": 2979,
      "cise": 2980,
      "rat": 2981,
      "pow": 2982,
      "aged": 2983,
      "brand": 2984,
      "shown": 2985,
      "linear": 2986,
      "members": 2987,
      "measures": 2988,
      "expected": 2989,
      "drug": 2990,
      "york": 2991,
      "60": 2992,
      "cred": 2993,
      "dan": 2994,
      "hn": 2995,
      "thy": 2996,
      "thous": 2997,
      "asse": 2998,
      "secre": 2999,
      "ester": 3000,
      "caused": 3001,
      "efficient": 3002,
      "customers": 3003,
      "bility": 3004,
      "cro": 3005,
      "fit": 3006,
      "nut": 3007,
      "thes": 3008,
      "sts": 3009,
      "hear": 3010,
      "iday": 3011,
      "poll": 3012,
      "pers": 3013,
      "ney": 3014,
      "portun": 3015,
      "electro": 3016,
      "famil": 3017,
      "ordin": 3018,
      "supply": 3019,
      "shanghai": 3020,
      "ered": 3021,
      "gg": 3022,
      "russ": 3023,
      "thre": 3024,
      "invent": 3025,
      "neg": 3026,
      "phen": 3027,
      "preci": 3028,
      "offer": 3029,
      "surve": 3030,
      "famous": 3031,
      "summer": 3032,
      "target": 3033,
      "amount": 3034,
      "cular": 3035,
      "ond": 3036,
      "itation": 3037,
      "became": 3038,
      "novel": 3039,
      "dies": 3040,
      "pread": 3041,
      "blue": 3042,
      "medic": 3043,
      "crim": 3044,
      "responsi": 3045,
      "kore": 3046,
      "anci": 3047,
      "ising": 3048,
      "hair": 3049,
      "opportun": 3050,
      "archite": 3051,
      "recently": 3052,
      "described": 3053,
      "books": 3054,
      "liquid": 3055,
      "thousand": 3056,
      "ians": 3057,
      "tren": 3058,
      "video": 3059,
      "wast": 3060,
      "chron": 3061,
      "vere": 3062,
      "behind": 3063,
      "moment": 3064,
      "crete": 3065,
      "fault": 3066,
      "cape": 3067,
      "longer": 3068,
      "trying": 3069,
      "generation": 3070,
      "protein": 3071,
      "issues": 3072,
      "girl": 3073,
      "hours": 3074,
      "quickly": 3075,
      "spirit": 3076,
      "psycho": 3077,
      "fight": 3078,
      "infe": 3079,
      "chall": 3080,
      "bel": 3081,
      "construct": 3082,
      "imm": 3083,
      "ify": 3084,
      "century": 3085,
      "cked": 3086,
      "everyone": 3087,
      "writing": 3088,
      "itute": 3089,
      "happy": 3090,
      "engineering": 3091,
      "thinking": 3092,
      "impact": 3093,
      "bag": 3094,
      "tour": 3095,
      "inv": 3096,
      "core": 3097,
      "ously": 3098,
      "corpor": 3099,
      "saying": 3100,
      "commer": 3101,
      "difference": 3102,
      "applications": 3103,
      "teacher": 3104,
      "fruit": 3105,
      "aking": 3106,
      "gon": 3107,
      "lor": 3108,
      "sit": 3109,
      "ero": 3110,
      "atory": 3111,
      "christ": 3112,
      "decre": 3113,
      "covered": 3114,
      "tel": 3115,
      "acy": 3116,
      "takes": 3117,
      "tric": 3118,
      "someone": 3119,
      "charge": 3120,
      "tests": 3121,
      "memory": 3122,
      "protection": 3123,
      "elements": 3124,
      "location": 3125,
      "meaning": 3126,
      "average": 3127,
      "users": 3128,
      "extens": 3129,
      "emer": 3130,
      "internet": 3131,
      "gene": 3132,
      "avoid": 3133,
      "transport": 3134,
      "john": 3135,
      "hands": 3136,
      "turned": 3137,
      "drive": 3138,
      "reduce": 3139,
      "requirements": 3140,
      "industrial": 3141,
      "ao": 3142,
      "hous": 3143,
      "pac": 3144,
      "qing": 3145,
      "reform": 3146,
      "chain": 3147,
      "demo": 3148,
      "master": 3149,
      "minutes": 3150,
      "regular": 3151,
      "groups": 3152,
      "species": 3153,
      "director": 3154,
      "located": 3155,
      "born": 3156,
      "layer": 3157,
      "department": 3158,
      "24": 3159,
      "cum": 3160,
      "reh": 3161,
      "ret": 3162,
      "acqu": 3163,
      "exc": 3164,
      "pain": 3165,
      "print": 3166,
      "positive": 3167,
      "standing": 3168,
      "install": 3169,
      "cultural": 3170,
      "circu": 3171,
      "satis": 3172,
      "widely": 3173,
      "explore": 3174,
      "labor": 3175,
      "message": 3176,
      "parameters": 3177,
      "prepared": 3178,
      "chapter": 3179,
      "ka": 3180,
      "thera": 3181,
      "offe": 3182,
      "dead": 3183,
      "motion": 3184,
      "terms": 3185,
      "feature": 3186,
      "dog": 3187,
      "monitor": 3188,
      "firm": 3189,
      "himself": 3190,
      "reflect": 3191,
      "officials": 3192,
      "rapid": 3193,
      "hus": 3194,
      "ko": 3195,
      "lam": 3196,
      "wish": 3197,
      "eness": 3198,
      "aspe": 3199,
      "modi": 3200,
      "ump": 3201,
      "fav": 3202,
      "required": 3203,
      "unique": 3204,
      "inside": 3205,
      "2010": 3206,
      "includes": 3207,
      "directly": 3208,
      "organization": 3209,
      "graphy": 3210,
      "learning": 3211,
      "established": 3212,
      "strategy": 3213,
      "jin": 3214,
      "ny": 3215,
      "za": 3216,
      "roy": 3217,
      "ford": 3218,
      "rather": 3219,
      "extre": 3220,
      "quite": 3221,
      "clu": 3222,
      "ief": 3223,
      "speak": 3224,
      "carry": 3225,
      "final": 3226,
      "regul": 3227,
      "testing": 3228,
      "signal": 3229,
      "changed": 3230,
      "daily": 3231,
      "original": 3232,
      "european": 3233,
      "parents": 3234,
      "figure": 3235,
      "ancient": 3236,
      "cas": 3237,
      "tv": 3238,
      "wise": 3239,
      "ina": 3240,
      "online": 3241,
      "iling": 3242,
      "adap": 3243,
      "agric": 3244,
      "workers": 3245,
      "researchers": 3246,
      "dynast": 3247,
      "technical": 3248,
      "japanese": 3249,
      "dimens": 3250,
      "hum": 3251,
      "rid": 3252,
      "xin": 3253,
      "zone": 3254,
      "oud": 3255,
      "itis": 3256,
      "icles": 3257,
      "veh": 3258,
      "proced": 3259,
      "vert": 3260,
      "uration": 3261,
      "domin": 3262,
      "anger": 3263,
      "iety": 3264,
      "afric": 3265,
      "iao": 3266,
      "estim": 3267,
      "datab": 3268,
      "itude": 3269,
      "gives": 3270,
      "histor": 3271,
      "communication": 3272,
      "sales": 3273,
      "eye": 3274,
      "gi": 3275,
      "gard": 3276,
      "mas": 3277,
      "pic": 3278,
      "rig": 3279,
      "zy": 3280,
      "meter": 3281,
      "wife": 3282,
      "ends": 3283,
      "obvious": 3284,
      "created": 3285,
      "regard": 3286,
      "consist": 3287,
      "leader": 3288,
      "leading": 3289,
      "seems": 3290,
      "professional": 3291,
      "origin": 3292,
      "street": 3293,
      "agricult": 3294,
      "camp": 3295,
      "dred": 3296,
      "gal": 3297,
      "gun": 3298,
      "instead": 3299,
      "enjoy": 3300,
      "rot": 3301,
      "degree": 3302,
      "utions": 3303,
      "iron": 3304,
      "peace": 3305,
      "rub": 3306,
      "maintain": 3307,
      "reading": 3308,
      "behavior": 3309,
      "credit": 3310,
      "..": 3311,
      "reve": 3312,
      "atom": 3313,
      "cere": 3314,
      "ceed": 3315,
      "motor": 3316,
      "shan": 3317,
      "subst": 3318,
      "joint": 3319,
      "teachers": 3320,
      "weeks": 3321,
      "coura": 3322,
      "status": 3323,
      "fuel": 3324,
      "frequency": 3325,
      "execut": 3326,
      "cc": 3327,
      "cking": 3328,
      "games": 3329,
      "hes": 3330,
      "arm": 3331,
      "tex": 3332,
      "doll": 3333,
      "tages": 3334,
      "boy": 3335,
      "brought": 3336,
      "carried": 3337,
      "store": 3338,
      "continue": 3339,
      "activities": 3340,
      "limited": 3341,
      "expect": 3342,
      "birth": 3343,
      "capacity": 3344,
      "ather": 3345,
      "eco": 3346,
      "las": 3347,
      "oso": 3348,
      "tum": 3349,
      "ison": 3350,
      "asia": 3351,
      "seven": 3352,
      "cop": 3353,
      "cool": 3354,
      "weak": 3355,
      "dome": 3356,
      "obama": 3357,
      "presents": 3358,
      "correct": 3359,
      "ensity": 3360,
      "produce": 3361,
      "farm": 3362,
      "address": 3363,
      "determine": 3364,
      "beauty": 3365,
      "hundred": 3366,
      "digital": 3367,
      "manager": 3368,
      "population": 3369,
      "fab": 3370,
      "ially": 3371,
      "lat": 3372,
      "tt": 3373,
      "enced": 3374,
      "staf": 3375,
      "argu": 3376,
      "contact": 3377,
      "note": 3378,
      "exchange": 3379,
      "goal": 3380,
      "pping": 3381,
      "solid": 3382,
      "write": 3383,
      "introduces": 3384,
      "decision": 3385,
      "advanced": 3386,
      "expression": 3387,
      "heavy": 3388,
      "primary": 3389,
      "bing": 3390,
      "fran": 3391,
      "lan": 3392,
      "nation": 3393,
      "spread": 3394,
      "xic": 3395,
      "yes": 3396,
      "attra": 3397,
      "alle": 3398,
      "entire": 3399,
      "improved": 3400,
      "immedi": 3401,
      "forming": 3402,
      "formul": 3403,
      "pret": 3404,
      "bran": 3405,
      "warm": 3406,
      "discuss": 3407,
      "legal": 3408,
      "practical": 3409,
      "believ": 3410,
      "radio": 3411,
      "resistance": 3412,
      "spl": 3413,
      "wang": 3414,
      "demon": 3415,
      "excell": 3416,
      "plastic": 3417,
      "grand": 3418,
      "county": 3419,
      "looked": 3420,
      "config": 3421,
      "components": 3422,
      "lad": 3423,
      "leng": 3424,
      "push": 3425,
      "yo": 3426,
      "stream": 3427,
      "ale": 3428,
      "edge": 3429,
      "concrete": 3430,
      "und": 3431,
      "tery": 3432,
      "acade": 3433,
      "emp": 3434,
      "actions": 3435,
      "idered": 3436,
      "evol": 3437,
      "whose": 3438,
      "logic": 3439,
      "student": 3440,
      "cris": 3441,
      "sky": 3442,
      "wanted": 3443,
      "instit": 3444,
      "response": 3445,
      "characteristic": 3446,
      "prises": 3447,
      "magnet": 3448,
      "contribut": 3449,
      "database": 3450,
      "gent": 3451,
      "sn": 3452,
      "ume": 3453,
      "mole": 3454,
      "hood": 3455,
      "dom": 3456,
      "prepar": 3457,
      "anything": 3458,
      "guang": 3459,
      "guide": 3460,
      "background": 3461,
      "brother": 3462,
      "easily": 3463,
      "enterprise": 3464,
      "damage": 3465,
      "screen": 3466,
      "secret": 3467,
      "cit": 3468,
      "dden": 3469,
      "fan": 3470,
      "kers": 3471,
      "mill": 3472,
      "nic": 3473,
      "pts": 3474,
      "rates": 3475,
      "rise": 3476,
      "inner": 3477,
      "itself": 3478,
      "chi": 3479,
      "chief": 3480,
      "perha": 3481,
      "goes": 3482,
      "prices": 3483,
      "guar": 3484,
      "simply": 3485,
      "questions": 3486,
      "straight": 3487,
      "nearly": 3488,
      "existing": 3489,
      "sleep": 3490,
      "extreme": 3491,
      "perhaps": 3492,
      "bone": 3493,
      "cil": 3494,
      "eth": 3495,
      "kong": 3496,
      "pick": 3497,
      "wu": 3498,
      "yel": 3499,
      "arri": 3500,
      "rail": 3501,
      "concentr": 3502,
      "tea": 3503,
      "urban": 3504,
      "died": 3505,
      "previous": 3506,
      "themselves": 3507,
      "factory": 3508,
      "considered": 3509,
      "purch": 3510,
      "decided": 3511,
      "piece": 3512,
      "nuclear": 3513,
      "british": 3514,
      "rules": 3515,
      "staff": 3516,
      "bid": 3517,
      "cand": 3518,
      "camer": 3519,
      "hon": 3520,
      "mist": 3521,
      "rice": 3522,
      "sin": 3523,
      "scri": 3524,
      "zing": 3525,
      "cooperation": 3526,
      "heard": 3527,
      "shar": 3528,
      "else": 3529,
      "medium": 3530,
      "needed": 3531,
      "miss": 3532,
      "named": 3533,
      "switch": 3534,
      "places": 3535,
      "electronic": 3536,
      "markets": 3537,
      "pes": 3538,
      "pun": 3539,
      "sites": 3540,
      "tit": 3541,
      "tions": 3542,
      "wan": 3543,
      "zo": 3544,
      "yourself": 3545,
      "simulation": 3546,
      "198": 3547,
      "join": 3548,
      "2008": 3549,
      "numer": 3550,
      "attack": 3551,
      "relev": 3552,
      "combination": 3553,
      "received": 3554,
      "particularly": 3555,
      "account": 3556,
      "beginning": 3557,
      "private": 3558,
      "fren": 3559,
      "hi": 3560,
      "lic": 3561,
      "pc": 3562,
      "independ": 3563,
      "recomm": 3564,
      "sell": 3565,
      "sudden": 3566,
      "pool": 3567,
      "shap": 3568,
      "machin": 3569,
      "extend": 3570,
      "hotel": 3571,
      "tial": 3572,
      "output": 3573,
      "cles": 3574,
      "umin": 3575,
      "answer": 3576,
      "internal": 3577,
      "consci": 3578,
      "ibility": 3579,
      "wonder": 3580,
      "scientific": 3581,
      "philoso": 3582,
      "washing": 3583,
      "husband": 3584,
      "%.": 3585,
      "award": 3586,
      "blow": 3587,
      "ffer": 3588,
      "hur": 3589,
      "ked": 3590,
      "nar": 3591,
      "reaction": 3592,
      "remember": 3593,
      "bey": 3594,
      "beam": 3595,
      "below": 3596,
      "moon": 3597,
      "except": 3598,
      "compound": 3599,
      "earlier": 3600,
      "audi": 3601,
      "huge": 3602,
      "setting": 3603,
      "closed": 3604,
      "hyper": 3605,
      "enterprises": 3606,
      "combined": 3607,
      "professor": 3608,
      "shape": 3609,
      "suitable": 3610,
      "excellent": 3611,
      "dress": 3612,
      "fy": 3613,
      "mad": 3614,
      "oh": 3615,
      "vic": 3616,
      "wil": 3617,
      "insul": 3618,
      "coast": 3619,
      "forced": 3620,
      "moving": 3621,
      "lip": 3622,
      "felt": 3623,
      "compos": 3624,
      "ague": 3625,
      "angle": 3626,
      "assist": 3627,
      "sphere": 3628,
      "minim": 3629,
      "carri": 3630,
      "hua": 3631,
      "maybe": 3632,
      "iction": 3633,
      "foundation": 3634,
      "largest": 3635,
      "vibr": 3636,
      "currently": 3637,
      "wheel": 3638,
      "feeling": 3639,
      "advantage": 3640,
      "successful": 3641,
      "announ": 3642,
      "placed": 3643,
      "tools": 3644,
      "diagnosis": 3645,
      "survey": 3646,
      "circuit": 3647,
      "ni": 3648,
      "nur": 3649,
      "ology": 3650,
      "snow": 3651,
      "van": 3652,
      "attem": 3653,
      "isra": 3654,
      "improv": 3655,
      "cies": 3656,
      "istics": 3657,
      "evidence": 3658,
      "highly": 3659,
      "solve": 3660,
      "volume": 3661,
      "doesn": 3662,
      "reasons": 3663,
      "environmental": 3664,
      "fresh": 3665,
      "associated": 3666,
      "sweet": 3667,
      "waste": 3668,
      "dynasty": 3669,
      "hab": 3670,
      "yield": 3671,
      "thick": 3672,
      "stability": 3673,
      "item": 3674,
      "die": 3675,
      "compreh": 3676,
      "izes": 3677,
      "ideas": 3678,
      "stral": 3679,
      "surv": 3680,
      "transl": 3681,
      "valid": 3682,
      "treated": 3683,
      "plants": 3684,
      "tempor": 3685,
      "growing": 3686,
      "advantages": 3687,
      "release": 3688,
      "experimental": 3689,
      "significantly": 3690,
      "square": 3691,
      "flex": 3692,
      "brief": 3693,
      "administration": 3694,
      "length": 3695,
      "cate": 3696,
      "tun": 3697,
      "va": 3698,
      "chen": 3699,
      "severe": 3700,
      "ques": 3701,
      "ively": 3702,
      "llig": 3703,
      "acter": 3704,
      "aging": 3705,
      "ift": 3706,
      "ght": 3707,
      "interface": 3708,
      "cars": 3709,
      "values": 3710,
      "regist": 3711,
      "characters": 3712,
      "viol": 3713,
      "schools": 3714,
      "movement": 3715,
      "satur": 3716,
      "record": 3717,
      "contract": 3718,
      "determined": 3719,
      "involved": 3720,
      "picture": 3721,
      "document": 3722,
      "platform": 3723,
      "23": 3724,
      "date": 3725,
      "fing": 3726,
      "ira": 3727,
      "sche": 3728,
      "wine": 3729,
      "lection": 3730,
      "decl": 3731,
      "dered": 3732,
      "lose": 3733,
      "tered": 3734,
      "lives": 3735,
      "qual": 3736,
      "tific": 3737,
      "compar": 3738,
      "desp": 3739,
      "spend": 3740,
      "causes": 3741,
      "forest": 3742,
      "valu": 3743,
      "generally": 3744,
      "intellig": 3745,
      "plane": 3746,
      "court": 3747,
      "ltd": 3748,
      "strateg": 3749,
      "promote": 3750,
      "london": 3751,
      "theoretical": 3752,
      "medicine": 3753,
      "domestic": 3754,
      "yellow": 3755,
      "french": 3756,
      "27": 3757,
      "jan": 3758,
      "oce": 3759,
      "instru": 3760,
      "enh": 3761,
      "aries": 3762,
      "veget": 3763,
      "iments": 3764,
      "female": 3765,
      "umn": 3766,
      "spective": 3767,
      "grade": 3768,
      "cycle": 3769,
      "fields": 3770,
      "ternal": 3771,
      "investigated": 3772,
      "craft": 3773,
      "diseases": 3774,
      "expand": 3775,
      "animal": 3776,
      "evaluate": 3777,
      "bill": 3778,
      "dance": 3779,
      "ech": 3780,
      "mc": 3781,
      "rang": 3782,
      "wild": 3783,
      "ato": 3784,
      "ali": 3785,
      "iss": 3786,
      "leave": 3787,
      "roman": 3788,
      "becomes": 3789,
      "forces": 3790,
      "resource": 3791,
      "agent": 3792,
      "rum": 3793,
      "objects": 3794,
      "fixed": 3795,
      "197": 3796,
      "skills": 3797,
      "minister": 3798,
      "contains": 3799,
      "scientists": 3800,
      "baby": 3801,
      "aw": 3802,
      "gment": 3803,
      "mir": 3804,
      "pig": 3805,
      "rights": 3806,
      "sports": 3807,
      "tin": 3808,
      "uk": 3809,
      "yan": 3810,
      "income": 3811,
      "reference": 3812,
      "atives": 3813,
      "ensure": 3814,
      "iles": 3815,
      "belong": 3816,
      "prop": 3817,
      "images": 3818,
      "lie": 3819,
      "neigh": 3820,
      "urs": 3821,
      "comfort": 3822,
      "exhib": 3823,
      "trou": 3824,
      "austral": 3825,
      "phar": 3826,
      "pression": 3827,
      "jection": 3828,
      "ficial": 3829,
      "lake": 3830,
      "functions": 3831,
      "standards": 3832,
      "floor": 3833,
      "competition": 3834,
      "window": 3835,
      "favor": 3836,
      "bacter": 3837,
      "dong": 3838,
      "ii": 3839,
      "ires": 3840,
      "mut": 3841,
      "rs": 3842,
      "revol": 3843,
      "icate": 3844,
      "chair": 3845,
      "hest": 3846,
      "wear": 3847,
      "acce": 3848,
      "paid": 3849,
      "assess": 3850,
      "poses": 3851,
      "mony": 3852,
      "relations": 3853,
      "useful": 3854,
      "choose": 3855,
      "playing": 3856,
      "voltage": 3857,
      "numbers": 3858,
      "leaders": 3859,
      "discussion": 3860,
      "balance": 3861,
      "block": 3862,
      "senior": 3863,
      "costs": 3864,
      "distance": 3865,
      "annual": 3866,
      "understanding": 3867,
      "failure": 3868,
      "initial": 3869,
      "controlled": 3870,
      "crisis": 3871,
      "relevant": 3872,
      "cure": 3873,
      "oly": 3874,
      "winter": 3875,
      "yu": 3876,
      "leaves": 3877,
      "mental": 3878,
      "resid": 3879,
      "worth": 3880,
      "rule": 3881,
      "bodies": 3882,
      "observe": 3883,
      "overall": 3884,
      "played": 3885,
      "calls": 3886,
      "flowers": 3887,
      "voice": 3888,
      "allows": 3889,
      "tube": 3890,
      "looks": 3891,
      "journal": 3892,
      "russia": 3893,
      "club": 3894,
      "aks": 3895,
      "fro": 3896,
      "kin": 3897,
      "rout": 3898,
      "spot": 3899,
      "india": 3900,
      "ission": 3901,
      "ram": 3902,
      "sustain": 3903,
      "consu": 3904,
      "feet": 3905,
      "shor": 3906,
      "shut": 3907,
      "maxim": 3908,
      "plans": 3909,
      "talking": 3910,
      "tried": 3911,
      "structures": 3912,
      "summar": 3913,
      "included": 3914,
      "milk": 3915,
      "cryst": 3916,
      "literature": 3917,
      "ratio": 3918,
      "trend": 3919,
      "therapy": 3920,
      "enhance": 3921,
      "21": 3922,
      "90": 3923,
      "cities": 3924,
      "fly": 3925,
      "gate": 3926,
      "wen": 3927,
      "thetic": 3928,
      "attri": 3929,
      "ises": 3930,
      "army": 3931,
      "lee": 3932,
      "ada": 3933,
      "ado": 3934,
      "noise": 3935,
      "libr": 3936,
      "shi": 3937,
      "dian": 3938,
      "ender": 3939,
      "bles": 3940,
      "produced": 3941,
      "cardi": 3942,
      "choice": 3943,
      "goods": 3944,
      "player": 3945,
      "planning": 3946,
      "published": 3947,
      "discusses": 3948,
      "appeared": 3949,
      "significance": 3950,
      "typical": 3951,
      "techniques": 3952,
      "critic": 3953,
      "selected": 3954,
      "architecture": 3955,
      "despite": 3956,
      "iers": 3957,
      "ots": 3958,
      "sph": 3959,
      "wit": 3960,
      "reports": 3961,
      "ioned": 3962,
      "rose": 3963,
      "copy": 3964,
      "forts": 3965,
      "cele": 3966,
      "convent": 3967,
      "advert": 3968,
      "util": 3969,
      "absor": 3970,
      "termin": 3971,
      "compl": 3972,
      "exact": 3973,
      "plas": 3974,
      "fold": 3975,
      "creation": 3976,
      "genes": 3977,
      "count": 3978,
      "relig": 3979,
      "surance": 3980,
      "trees": 3981,
      "induced": 3982,
      "classes": 3983,
      "wait": 3984,
      "wrong": 3985,
      "names": 3986,
      "files": 3987,
      "institute": 3988,
      "biggest": 3989,
      "initi": 3990,
      "aughter": 3991,
      "manufacture": 3992,
      "negative": 3993,
      "immediately": 3994,
      "500": 3995,
      "bc": 3996,
      "cd": 3997,
      "fash": 3998,
      "gro": 3999,
      "ert": 4000,
      "encoura": 4001,
      "arily": 4002,
      "abor": 4003,
      "pling": 4004,
      "apart": 4005,
      "climate": 4006,
      "bright": 4007,
      "flight": 4008,
      "flav": 4009,
      "etic": 4010,
      "fund": 4011,
      "variety": 4012,
      "rising": 4013,
      "followed": 4014,
      "oxid": 4015,
      "employe": 4016,
      "constant": 4017,
      "exercise": 4018,
      "powder": 4019,
      "garden": 4020,
      "beyond": 4021,
      "26": 4022,
      "eight": 4023,
      "hang": 4024,
      "lack": 4025,
      "qi": 4026,
      "scan": 4027,
      "error": 4028,
      "ories": 4029,
      "esday": 4030,
      "champ": 4031,
      "ctors": 4032,
      "deli": 4033,
      "fest": 4034,
      "district": 4035,
      "goog": 4036,
      "agre": 4037,
      "correspon": 4038,
      "offers": 4039,
      "efforts": 4040,
      "players": 4041,
      "fiber": 4042,
      "2009": 4043,
      "virt": 4044,
      "powerful": 4045,
      "apply": 4046,
      "filter": 4047,
      "flower": 4048,
      "giving": 4049,
      "mixed": 4050,
      "cutting": 4051,
      "effectively": 4052,
      "jobs": 4053,
      "zhang": 4054,
      "storage": 4055,
      "association": 4056,
      "threat": 4057,
      "opportunity": 4058,
      "adapt": 4059,
      "reveal": 4060,
      ",”": 4061,
      "aur": 4062,
      "bic": 4063,
      "rural": 4064,
      "sac": 4065,
      "ug": 4066,
      "theast": 4067,
      "meters": 4068,
      "defe": 4069,
      "cot": 4070,
      "accur": 4071,
      "comb": 4072,
      "istan": 4073,
      "actual": 4074,
      "ideal": 4075,
      "greater": 4076,
      "delay": 4077,
      "pointed": 4078,
      "appropri": 4079,
      "investigation": 4080,
      "sensitive": 4081,
      "sample": 4082,
      "battle": 4083,
      "marketing": 4084,
      "component": 4085,
      "written": 4086,
      "committee": 4087,
      "towards": 4088,
      "commercial": 4089,
      "monitoring": 4090,
      "apo": 4091,
      "hig": 4092,
      "rand": 4093,
      "sme": 4094,
      "xml": 4095,
      "chance": 4096,
      "bear": 4097,
      "raise": 4098,
      "conven": 4099,
      "prom": 4100,
      "agency": 4101,
      "paign": 4102,
      "compress": 4103,
      "traffic": 4104,
      "thank": 4105,
      "huang": 4106,
      "2007": 4107,
      "stood": 4108,
      "protect": 4109,
      "trust": 4110,
      "career": 4111,
      "analyze": 4112,
      "circum": 4113,
      "newspaper": 4114,
      "bottom": 4115,
      "campaign": 4116,
      "israel": 4117,
      "ocean": 4118,
      "google": 4119,
      "dut": 4120,
      "nine": 4121,
      "pin": 4122,
      "pure": 4123,
      "ral": 4124,
      "sist": 4125,
      "tes": 4126,
      "task": 4127,
      "vin": 4128,
      "rely": 4129,
      "isol": 4130,
      "island": 4131,
      "root": 4132,
      "racy": 4133,
      "ulated": 4134,
      "option": 4135,
      "speech": 4136,
      "grass": 4137,
      "string": 4138,
      "interview": 4139,
      "bute": 4140,
      "guest": 4141,
      "draw": 4142,
      "drop": 4143,
      "couple": 4144,
      "automatic": 4145,
      "drugs": 4146,
      "integration": 4147,
      "animals": 4148,
      "respective": 4149,
      "village": 4150,
      "oriented": 4151,
      "aspects": 4152,
      "magnetic": 4153,
      "guaran": 4154,
      "hen": 4155,
      "hall": 4156,
      "mice": 4157,
      "nav": 4158,
      "via": 4159,
      "infl": 4160,
      "refer": 4161,
      "alk": 4162,
      "alone": 4163,
      "iso": 4164,
      "ental": 4165,
      "movie": 4166,
      "composition": 4167,
      "hole": 4168,
      "upper": 4169,
      "creating": 4170,
      "possess": 4171,
      "thanks": 4172,
      "aving": 4173,
      "processes": 4174,
      "match": 4175,
      "2005": 4176,
      "models": 4177,
      "functional": 4178,
      "passed": 4179,
      "drin": 4180,
      "meanwhile": 4181,
      "recovery": 4182,
      "connection": 4183,
      "calculation": 4184,
      "pipe": 4185,
      "debt": 4186,
      "korea": 4187,
      "comprehensive": 4188,
      "highest": 4189,
      "bru": 4190,
      "bol": 4191,
      "dav": 4192,
      "nice": 4193,
      "slight": 4194,
      "vas": 4195,
      "yester": 4196,
      "onic": 4197,
      "altern": 4198,
      "rote": 4199,
      "lots": 4200,
      "fear": 4201,
      "essential": 4202,
      "formal": 4203,
      "pted": 4204,
      "owned": 4205,
      "gaz": 4206,
      "opened": 4207,
      "projects": 4208,
      "happiness": 4209,
      "client": 4210,
      "defined": 4211,
      "adopted": 4212,
      "washington": 4213,
      "revolution": 4214,
      "olymp": 4215,
      "?\"": 4216,
      "pir": 4217,
      "tang": 4218,
      "thro": 4219,
      "consul": 4220,
      "proto": 4221,
      "ades": 4222,
      "map": 4223,
      "external": 4224,
      "emphas": 4225,
      "symp": 4226,
      "certific": 4227,
      "helps": 4228,
      "experiments": 4229,
      "banks": 4230,
      "brown": 4231,
      "instance": 4232,
      "profit": 4233,
      "truth": 4234,
      "killed": 4235,
      "completely": 4236,
      "benefits": 4237,
      "mouth": 4238,
      "conscious": 4239,
      "yesterday": 4240,
      "eating": 4241,
      "fif": 4242,
      "hone": 4243,
      "ime": 4244,
      "jun": 4245,
      "ological": 4246,
      "sper": 4247,
      "wrote": 4248,
      "xing": 4249,
      "infra": 4250,
      "chip": 4251,
      "chlor": 4252,
      "meat": 4253,
      "depos": 4254,
      "cook": 4255,
      "usions": 4256,
      "feas": 4257,
      "shu": 4258,
      "domain": 4259,
      "save": 4260,
      "myself": 4261,
      "centre": 4262,
      "mining": 4263,
      "shot": 4264,
      "regions": 4265,
      "patient": 4266,
      "listen": 4267,
      "changing": 4268,
      "occup": 4269,
      "starting": 4270,
      "distin": 4271,
      "latest": 4272,
      "evaluation": 4273,
      "welcome": 4274,
      "framework": 4275,
      "observed": 4276,
      "quarter": 4277,
      "injury": 4278,
      "innovation": 4279,
      "shaped": 4280,
      "improving": 4281,
      "pharma": 4282,
      "29": 4283,
      "bil": 4284,
      "uary": 4285,
      "vity": 4286,
      "rein": 4287,
      "atmo": 4288,
      "stim": 4289,
      "lets": 4290,
      "cheng": 4291,
      "iled": 4292,
      "loy": 4293,
      "additional": 4294,
      "teen": 4295,
      "moved": 4296,
      "perform": 4297,
      "shen": 4298,
      "quie": 4299,
      "worry": 4300,
      "saving": 4301,
      "derived": 4302,
      "aud": 4303,
      "aug": 4304,
      "elim": 4305,
      "monday": 4306,
      "effort": 4307,
      "akes": 4308,
      "operations": 4309,
      "intel": 4310,
      "introduction": 4311,
      "finding": 4312,
      "appears": 4313,
      "sunday": 4314,
      "clearly": 4315,
      "allowed": 4316,
      "limit": 4317,
      "devices": 4318,
      "measurement": 4319,
      "doub": 4320,
      "indicated": 4321,
      "france": 4322,
      "holiday": 4323,
      "implementation": 4324,
      "details": 4325,
      "phenomen": 4326,
      "africa": 4327,
      "citiz": 4328,
      "%,": 4329,
      "28": 4330,
      "ae": 4331,
      "danger": 4332,
      "mur": 4333,
      "rats": 4334,
      "tent": 4335,
      "yun": 4336,
      "inhib": 4337,
      "replace": 4338,
      "endo": 4339,
      "aling": 4340,
      "cement": 4341,
      "sus": 4342,
      "adding": 4343,
      "amb": 4344,
      "accu": 4345,
      "plus": 4346,
      "thermal": 4347,
      "clim": 4348,
      "ards": 4349,
      "inding": 4350,
      "iveness": 4351,
      "gran": 4352,
      "logies": 4353,
      "flat": 4354,
      "anyone": 4355,
      "channel": 4356,
      "capt": 4357,
      "larger": 4358,
      "2006": 4359,
      "northern": 4360,
      "electr": 4361,
      "southern": 4362,
      "measuring": 4363,
      "drink": 4364,
      "organiz": 4365,
      "miles": 4366,
      "customer": 4367,
      "seemed": 4368,
      "tension": 4369,
      "girls": 4370,
      "panel": 4371,
      "agricultural": 4372,
      "bath": 4373,
      "db": 4374,
      "eu": 4375,
      "gone": 4376,
      "kids": 4377,
      "mult": 4378,
      "nations": 4379,
      "vul": 4380,
      "onto": 4381,
      "stars": 4382,
      "alo": 4383,
      "sets": 4384,
      "bell": 4385,
      "raw": 4386,
      "wealth": 4387,
      "wire": 4388,
      "fell": 4389,
      "acute": 4390,
      "tai": 4391,
      "dust": 4392,
      "clust": 4393,
      "discovered": 4394,
      "bled": 4395,
      "paralle": 4396,
      "cali": 4397,
      "solar": 4398,
      "letter": 4399,
      "german": 4400,
      "prior": 4401,
      "follows": 4402,
      "scen": 4403,
      "website": 4404,
      "measured": 4405,
      "critical": 4406,
      "freed": 4407,
      "determination": 4408,
      "manufacturing": 4409,
      "corporate": 4410,
      "candid": 4411,
      "celebr": 4412,
      "accuracy": 4413,
      "35": 4414,
      "cin": 4415,
      "eg": 4416,
      "ky": 4417,
      "mber": 4418,
      "nas": 4419,
      "rush": 4420,
      "send": 4421,
      "sides": 4422,
      "vict": 4423,
      "wid": 4424,
      "inspe": 4425,
      "repair": 4426,
      "stable": 4427,
      "isions": 4428,
      "itative": 4429,
      "chur": 4430,
      "memor": 4431,
      "ils": 4432,
      "susp": 4433,
      "context": 4434,
      "advis": 4435,
      "poem": 4436,
      "division": 4437,
      "export": 4438,
      "button": 4439,
      "notice": 4440,
      "pleas": 4441,
      "marri": 4442,
      "worked": 4443,
      "shell": 4444,
      "turning": 4445,
      "visual": 4446,
      "experts": 4447,
      "operating": 4448,
      "germany": 4449,
      "heads": 4450,
      "owner": 4451,
      "fluid": 4452,
      "americans": 4453,
      "easier": 4454,
      "oxy": 4455,
      "improvement": 4456,
      "express": 4457,
      "difficul": 4458,
      "detection": 4459,
      "quantity": 4460,
      "families": 4461,
      "thousands": 4462,
      "dimensional": 4463,
      "laser": 4464,
      "extremely": 4465,
      "temporary": 4466,
      "accurate": 4467,
      "border": 4468,
      "rhe": 4469,
      "sort": 4470,
      "zen": 4471,
      "insurance": 4472,
      "repe": 4473,
      "reven": 4474,
      "isn": 4475,
      "cher": 4476,
      "union": 4477,
      "liu": 4478,
      "commod": 4479,
      "kept": 4480,
      "excl": 4481,
      "tian": 4482,
      "click": 4483,
      "sym": 4484,
      "ishing": 4485,
      "married": 4486,
      "grain": 4487,
      "forecast": 4488,
      "talks": 4489,
      "restaur": 4490,
      "moral": 4491,
      "gery": 4492,
      "scene": 4493,
      "faces": 4494,
      "ministry": 4495,
      "polymer": 4496,
      "principles": 4497,
      "steps": 4498,
      "conduct": 4499,
      "appearance": 4500,
      "plicated": 4501,
      "pollution": 4502,
      "challeng": 4503,
      "houses": 4504,
      "preparation": 4505,
      "australia": 4506,
      "aid": 4507,
      "bird": 4508,
      "crow": 4509,
      "cash": 4510,
      "eper": 4511,
      "hill": 4512,
      "iar": 4513,
      "jes": 4514,
      "lun": 4515,
      "pil": 4516,
      "slo": 4517,
      "sight": 4518,
      "twent": 4519,
      "xiao": 4520,
      "ya": 4521,
      "zi": 4522,
      "inf": 4523,
      "redi": 4524,
      "ern": 4525,
      "atta": 4526,
      "rob": 4527,
      "deploy": 4528,
      "race": 4529,
      "amin": 4530,
      "feren": 4531,
      "neuro": 4532,
      "apple": 4533,
      "optical": 4534,
      "disci": 4535,
      "span": 4536,
      "spent": 4537,
      "council": 4538,
      "producing": 4539,
      "surpris": 4540,
      "tested": 4541,
      "mature": 4542,
      "2004": 4543,
      "consid": 4544,
      "opening": 4545,
      "healthy": 4546,
      "graphic": 4547,
      "depth": 4548,
      "burn": 4549,
      "rooms": 4550,
      "facilities": 4551,
      "divided": 4552,
      "interesting": 4553,
      "writer": 4554,
      "pictures": 4555,
      "infection": 4556,
      "demonstr": 4557,
      "suddenly": 4558,
      "appropriate": 4559,
      "quiet": 4560,
      "elimin": 4561,
      ".”": 4562,
      "aes": 4563,
      "aware": 4564,
      "cable": 4565,
      "cket": 4566,
      "catch": 4567,
      "gins": 4568,
      "lig": 4569,
      "mig": 4570,
      "sched": 4571,
      "react": 4572,
      "ata": 4573,
      "enge": 4574,
      "arms": 4575,
      "toms": 4576,
      "league": 4577,
      "selling": 4578,
      "raid": 4579,
      "weap": 4580,
      "promis": 4581,
      "polar": 4582,
      "shir": 4583,
      "quake": 4584,
      "appreci": 4585,
      "taste": 4586,
      "compens": 4587,
      "events": 4588,
      "partner": 4589,
      "finite": 4590,
      "surround": 4591,
      "regional": 4592,
      "airport": 4593,
      "stuff": 4594,
      "broken": 4595,
      "culti": 4596,
      "laws": 4597,
      "programs": 4598,
      "reduction": 4599,
      "reduced": 4600,
      "describes": 4601,
      "static": 4602,
      "released": 4603,
      "flood": 4604,
      "records": 4605,
      "defense": 4606,
      "constit": 4607,
      "teeth": 4608,
      "pieces": 4609,
      "touch": 4610,
      "consumption": 4611,
      "nutr": 4612,
      "independent": 4613,
      "saturday": 4614,
      "fashion": 4615,
      "ahead": 4616,
      "bly": 4617,
      "bun": 4618,
      "blog": 4619,
      "emotion": 4620,
      "jack": 4621,
      "tong": 4622,
      "tics": 4623,
      "vac": 4624,
      "intra": 4625,
      "republic": 4626,
      "metry": 4627,
      "coordin": 4628,
      "cel": 4629,
      "wered": 4630,
      "magaz": 4631,
      "goals": 4632,
      "sage": 4633,
      "aster": 4634,
      "foc": 4635,
      "surgery": 4636,
      "throughout": 4637,
      "examples": 4638,
      "importance": 4639,
      "smaller": 4640,
      "prime": 4641,
      "circul": 4642,
      "extraction": 4643,
      "collection": 4644,
      "reached": 4645,
      "benefit": 4646,
      "painting": 4647,
      "agreement": 4648,
      "invention": 4649,
      "acceler": 4650,
      "agreed": 4651,
      "sister": 4652,
      "marriage": 4653,
      "36": 4654,
      "density": 4655,
      "kid": 4656,
      "knew": 4657,
      "none": 4658,
      "tissue": 4659,
      "yi": 4660,
      "resolution": 4661,
      "encies": 4662,
      "ingredi": 4663,
      "arab": 4664,
      "arts": 4665,
      "arrange": 4666,
      "leaf": 4667,
      "selection": 4668,
      "defic": 4669,
      "rare": 4670,
      "raised": 4671,
      "suffic": 4672,
      "lia": 4673,
      "liber": 4674,
      "complicated": 4675,
      "expo": 4676,
      "ifying": 4677,
      "boat": 4678,
      "trading": 4679,
      "tradition": 4680,
      "prec": 4681,
      "assign": 4682,
      "speaking": 4683,
      "bling": 4684,
      "transmission": 4685,
      "controlling": 4686,
      "funds": 4687,
      "solved": 4688,
      "2000": 4689,
      "ships": 4690,
      "examination": 4691,
      "realize": 4692,
      "greatly": 4693,
      "helped": 4694,
      "equal": 4695,
      "orders": 4696,
      "fourth": 4697,
      "luck": 4698,
      "scope": 4699,
      "oxide": 4700,
      "mitted": 4701,
      "achieved": 4702,
      "policies": 4703,
      "returned": 4704,
      "prevention": 4705,
      "continuous": 4706,
      "television": 4707,
      "procedure": 4708,
      "tumor": 4709,
      "fabric": 4710,
      "library": 4711,
      "virtual": 4712,
      "cotton": 4713,
      "parallel": 4714,
      "70": 4715,
      "bour": 4716,
      "coffe": 4717,
      "tw": 4718,
      "zed": 4719,
      "throw": 4720,
      "input": 4721,
      "reality": 4722,
      "ony": 4723,
      "oration": 4724,
      "asy": 4725,
      "conver": 4726,
      "conserv": 4727,
      "conference": 4728,
      "abilities": 4729,
      "shr": 4730,
      "composed": 4731,
      "resc": 4732,
      "resin": 4733,
      "contents": 4734,
      "mostly": 4735,
      "fert": 4736,
      "technologies": 4737,
      "silic": 4738,
      "mechanical": 4739,
      "certainly": 4740,
      "concern": 4741,
      "remote": 4742,
      "schol": 4743,
      "windows": 4744,
      "landscape": 4745,
      "challenge": 4746,
      "sitting": 4747,
      "vehicle": 4748,
      "historical": 4749,
      "rubber": 4750,
      "concentration": 4751,
      "random": 4752,
      "david": 4753,
      "31": 4754,
      "daughter": 4755,
      "fal": 4756,
      "vast": 4757,
      "tomor": 4758,
      "assu": 4759,
      "entry": 4760,
      "coating": 4761,
      "superi": 4762,
      "sole": 4763,
      "ays": 4764,
      "abol": 4765,
      "absol": 4766,
      "lif": 4767,
      "liam": 4768,
      "doctor": 4769,
      "ops": 4770,
      "opin": 4771,
      "genetic": 4772,
      "structural": 4773,
      "norm": 4774,
      "virus": 4775,
      "membr": 4776,
      "waiting": 4777,
      "conclusions": 4778,
      "keeping": 4779,
      "silver": 4780,
      "successfully": 4781,
      "prison": 4782,
      "july": 4783,
      "indicate": 4784,
      "friday": 4785,
      "diabet": 4786,
      "affected": 4787,
      "documents": 4788,
      "differences": 4789,
      "familiar": 4790,
      "responsible": 4791,
      "chronic": 4792,
      "giant": 4793,
      "secretary": 4794,
      "camera": 4795,
      "philosophy": 4796,
      "audience": 4797,
      "symptoms": 4798,
      "freedom": 4799,
      "jesus": 4800,
      "coffee": 4801,
      "superior": 4802,
      "32": 4803,
      "34": 4804,
      "75": 4805,
      "bac": 4806,
      "cm": 4807,
      "eld": 4808,
      "fs": 4809,
      "gap": 4810,
      "laugh": 4811,
      "pit": 4812,
      "rit": 4813,
      "sate": 4814,
      "injection": 4815,
      "era": 4816,
      "stick": 4817,
      "isl": 4818,
      "asks": 4819,
      "metric": 4820,
      "ilo": 4821,
      "peter": 4822,
      "kets": 4823,
      "magn": 4824,
      "illust": 4825,
      "rupt": 4826,
      "izon": 4827,
      "track": 4828,
      "spar": 4829,
      "mono": 4830,
      "enger": 4831,
      "seek": 4832,
      "seeing": 4833,
      "xture": 4834,
      "otic": 4835,
      "drawing": 4836,
      "introduce": 4837,
      "balan": 4838,
      "advice": 4839,
      "pulse": 4840,
      "voir": 4841,
      "hardware": 4842,
      "experienced": 4843,
      "sugar": 4844,
      "synthesis": 4845,
      "interested": 4846,
      "existence": 4847,
      "strengthen": 4848,
      "integrated": 4849,
      "linked": 4850,
      "offered": 4851,
      "executive": 4852,
      "formula": 4853,
      "corresponding": 4854,
      "twenty": 4855,
      "tomorrow": 4856,
      "300": 4857,
      "45": 4858,
      "cab": 4859,
      "gm": 4860,
      "mart": 4861,
      "oth": 4862,
      "rou": 4863,
      "sad": 4864,
      "wants": 4865,
      "thir": 4866,
      "ancy": 4867,
      "entially": 4868,
      "seas": 4869,
      "beat": 4870,
      "hepat": 4871,
      "mot": 4872,
      "diet": 4873,
      "pled": 4874,
      "articles": 4875,
      "bow": 4876,
      "compare": 4877,
      "minute": 4878,
      "matically": 4879,
      "plays": 4880,
      "requires": 4881,
      "investors": 4882,
      "vessel": 4883,
      "applic": 4884,
      "statement": 4885,
      "gather": 4886,
      "pursu": 4887,
      "purpose": 4888,
      "happened": 4889,
      "salt": 4890,
      "educational": 4891,
      "analyzes": 4892,
      "supported": 4893,
      "reasonable": 4894,
      "facing": 4895,
      "radiation": 4896,
      "cataly": 4897,
      "conducted": 4898,
      "football": 4899,
      "artificial": 4900,
      "package": 4901,
      "destroy": 4902,
      "federal": 4903,
      "soldiers": 4904,
      "relatively": 4905,
      "ordinary": 4906,
      "tourism": 4907,
      "democr": 4908,
      "dollar": 4909,
      "script": 4910,
      "vibration": 4911,
      "instrument": 4912,
      "electrical": 4913,
      "considering": 4914,
      "nutrition": 4915,
      "precision": 4916,
      "bure": 4917,
      "bought": 4918,
      "hip": 4919,
      "june": 4920,
      "kar": 4921,
      "sources": 4922,
      "vice": 4923,
      "alumin": 4924,
      "iter": 4925,
      "cham": 4926,
      "chick": 4927,
      "semi": 4928,
      "mel": 4929,
      "bearing": 4930,
      "becoming": 4931,
      "forget": 4932,
      "height": 4933,
      "consequ": 4934,
      "propos": 4935,
      "abil": 4936,
      "liance": 4937,
      "lding": 4938,
      "ultr": 4939,
      "nest": 4940,
      "nego": 4941,
      "mentioned": 4942,
      "comment": 4943,
      "notes": 4944,
      "prefer": 4945,
      "faith": 4946,
      "gram": 4947,
      "genic": 4948,
      "flash": 4949,
      "estate": 4950,
      "curren": 4951,
      "england": 4952,
      "commission": 4953,
      "clothes": 4954,
      "signs": 4955,
      "thoughts": 4956,
      "identity": 4957,
      "dragon": 4958,
      "soul": 4959,
      "drill": 4960,
      "foods": 4961,
      "holding": 4962,
      "containing": 4963,
      "statistics": 4964,
      "resistant": 4965,
      "biological": 4966,
      "parent": 4967,
      "parameter": 4968,
      "remains": 4969,
      "separate": 4970,
      "gradually": 4971,
      "reservoir": 4972,
      "predict": 4973,
      "launched": 4974,
      "transportation": 4975,
      "copper": 4976,
      "configuration": 4977,
      "evolution": 4978,
      "january": 4979,
      "respectively": 4980,
      "church": 4981,
      "discipl": 4982,
      "sufficient": 4983,
      "membrane": 4984,
      "negoti": 4985,
      "05": 4986,
      "33": 4987,
      "dad": 4988,
      "pump": 4989,
      "anx": 4990,
      "enem": 4991,
      "enance": 4992,
      "isms": 4993,
      "iced": 4994,
      "dece": 4995,
      "coach": 4996,
      "loved": 4997,
      "conce": 4998,
      "whom": 4999,
      "unto": 5000,
      "poe": 5001,
      "lived": 5002,
      "ultra": 5003,
      "expl": 5004,
      "ries": 5005,
      "affair": 5006,
      "pregn": 5007,
      "gency": 5008,
      "hero": 5009,
      "treas": 5010,
      "solutions": 5011,
      "networks": 5012,
      "handle": 5013,
      "consists": 5014,
      "bigger": 5015,
      "secondary": 5016,
      "driving": 5017,
      "happen": 5018,
      "describe": 5019,
      "depends": 5020,
      "connected": 5021,
      "horse": 5022,
      "receive": 5023,
      "usual": 5024,
      "sexual": 5025,
      "continued": 5026,
      "reliability": 5027,
      "reviewed": 5028,
      "budget": 5029,
      "responsibility": 5030,
      "scheme": 5031,
      "convenient": 5032,
      "circumst": 5033,
      "stimul": 5034,
      "phenomenon": 5035,
      "focused": 5036,
      "22": 5037,
      "bay": 5038,
      "cad": 5039,
      "fusion": 5040,
      "gly": 5041,
      "gang": 5042,
      "hid": 5043,
      "ja": 5044,
      "jer": 5045,
      "lens": 5046,
      "oma": 5047,
      "tight": 5048,
      "tough": 5049,
      "ining": 5050,
      "retro": 5051,
      "itors": 5052,
      "italy": 5053,
      "leaving": 5054,
      "chel": 5055,
      "deci": 5056,
      "default": 5057,
      "los": 5058,
      "weather": 5059,
      "suffer": 5060,
      "conve": 5061,
      "proof": 5062,
      "whate": 5063,
      "abroad": 5064,
      "tile": 5065,
      "iff": 5066,
      "paul": 5067,
      "prince": 5068,
      "phones": 5069,
      "ache": 5070,
      "presence": 5071,
      "premi": 5072,
      "guess": 5073,
      "expert": 5074,
      "generated": 5075,
      "clock": 5076,
      "planet": 5077,
      "founded": 5078,
      "breed": 5079,
      "pray": 5080,
      "listed": 5081,
      "legisl": 5082,
      "winning": 5083,
      "organic": 5084,
      "tuesday": 5085,
      "expans": 5086,
      "distributed": 5087,
      "contrast": 5088,
      "suggested": 5089,
      "indeed": 5090,
      "filled": 5091,
      "slowly": 5092,
      "dreams": 5093,
      "controller": 5094,
      "academic": 5095,
      "plasma": 5096,
      "delivery": 5097,
      "consciousness": 5098,
      "absolute": 5099,
      "whatever": 5100,
      "az": 5101,
      "fare": 5102,
      "gri": 5103,
      "jia": 5104,
      "lum": 5105,
      "nia": 5106,
      "vacc": 5107,
      "wat": 5108,
      "wers": 5109,
      "inary": 5110,
      "ana": 5111,
      "ank": 5112,
      "remove": 5113,
      "stro": 5114,
      "alco": 5115,
      "org": 5116,
      "asian": 5117,
      "lock": 5118,
      "unless": 5119,
      "uries": 5120,
      "shift": 5121,
      "divers": 5122,
      "mathem": 5123,
      "options": 5124,
      "antic": 5125,
      "boss": 5126,
      "trig": 5127,
      "izer": 5128,
      "disco": 5129,
      "format": 5130,
      "pressed": 5131,
      "grid": 5132,
      "spending": 5133,
      "bert": 5134,
      "parties": 5135,
      "finance": 5136,
      "finish": 5137,
      "firstly": 5138,
      "trip": 5139,
      "crime": 5140,
      "classical": 5141,
      "classification": 5142,
      "attend": 5143,
      "driven": 5144,
      "analyzing": 5145,
      "holds": 5146,
      "walking": 5147,
      "suggests": 5148,
      "employment": 5149,
      "optimization": 5150,
      "cleaning": 5151,
      "accounting": 5152,
      "variable": 5153,
      "industries": 5154,
      "spokes": 5155,
      "imagine": 5156,
      "criminal": 5157,
      "molecular": 5158,
      "numerical": 5159,
      "recommend": 5160,
      "composite": 5161,
      "announced": 5162,
      "maximum": 5163,
      "attribut": 5164,
      "exactly": 5165,
      "employees": 5166,
      "atmosphere": 5167,
      "august": 5168,
      "bureau": 5169,
      "eli": 5170,
      "fric": 5171,
      "ku": 5172,
      "ril": 5173,
      "waves": 5174,
      "rep": 5175,
      "remark": 5176,
      "enhan": 5177,
      "icted": 5178,
      "declin": 5179,
      "belt": 5180,
      "cogn": 5181,
      "rad": 5182,
      "noon": 5183,
      "units": 5184,
      "diplo": 5185,
      "maint": 5186,
      "rix": 5187,
      "dual": 5188,
      "pace": 5189,
      "preser": 5190,
      "grant": 5191,
      "march": 5192,
      "fication": 5193,
      "blast": 5194,
      "spat": 5195,
      "interpret": 5196,
      "shoes": 5197,
      "relax": 5198,
      "guard": 5199,
      "transformation": 5200,
      "smart": 5201,
      "download": 5202,
      "settle": 5203,
      "cloth": 5204,
      "operative": 5205,
      "hypo": 5206,
      "realized": 5207,
      "mixture": 5208,
      "occas": 5209,
      "horizon": 5210,
      "failed": 5211,
      "golden": 5212,
      "figures": 5213,
      "shares": 5214,
      "concerned": 5215,
      "diagnostic": 5216,
      "reliable": 5217,
      "shopping": 5218,
      "eventually": 5219,
      "launch": 5220,
      "vehicles": 5221,
      "split": 5222,
      "purchase": 5223,
      "trouble": 5224,
      "festival": 5225,
      "satell": 5226,
      "mun": 5227,
      "wis": 5228,
      "zero": 5229,
      "oning": 5230,
      "oring": 5231,
      "seat": 5232,
      "secure": 5233,
      "depression": 5234,
      "wei": 5235,
      "confir": 5236,
      "moti": 5237,
      "pel": 5238,
      "abund": 5239,
      "nels": 5240,
      "hao": 5241,
      "homes": 5242,
      "rust": 5243,
      "inton": 5244,
      "otherwise": 5245,
      "serum": 5246,
      "spac": 5247,
      "partners": 5248,
      "flag": 5249,
      "grew": 5250,
      "laid": 5251,
      "hui": 5252,
      "surg": 5253,
      "fix": 5254,
      "evening": 5255,
      "views": 5256,
      "warning": 5257,
      "older": 5258,
      "attacks": 5259,
      "election": 5260,
      "carefully": 5261,
      "officer": 5262,
      "bene": 5263,
      "politics": 5264,
      "photograph": 5265,
      "calculated": 5266,
      "adopt": 5267,
      "patterns": 5268,
      "britain": 5269,
      "consumers": 5270,
      "fighting": 5271,
      "housing": 5272,
      "estimated": 5273,
      "farmers": 5274,
      "railway": 5275,
      "items": 5276,
      "comparison": 5277,
      "neighbor": 5278,
      "witness": 5279,
      "maintenance": 5280,
      ".,": 5281,
      "bam": 5282,
      "dinner": 5283,
      "ki": 5284,
      "km": 5285,
      "lou": 5286,
      "lights": 5287,
      "mia": 5288,
      "oking": 5289,
      "pile": 5290,
      "sar": 5291,
      "thurs": 5292,
      "thered": 5293,
      "reci": 5294,
      "stret": 5295,
      "toxic": 5296,
      "chrom": 5297,
      "beach": 5298,
      "loan": 5299,
      "confl": 5300,
      "usive": 5301,
      "pear": 5302,
      "lith": 5303,
      "aming": 5304,
      "perspective": 5305,
      "tag": 5306,
      "cloud": 5307,
      "symb": 5308,
      "willing": 5309,
      "portion": 5310,
      "itions": 5311,
      "brings": 5312,
      "interaction": 5313,
      "shel": 5314,
      "justice": 5315,
      "column": 5316,
      "analyses": 5317,
      "rows": 5318,
      "showing": 5319,
      "capability": 5320,
      "2002": 5321,
      "studying": 5322,
      "busy": 5323,
      "increases": 5324,
      "missing": 5325,
      "completed": 5326,
      "phosph": 5327,
      "passing": 5328,
      "happens": 5329,
      "sale": 5330,
      "braz": 5331,
      "muscle": 5332,
      "arent": 5333,
      "payment": 5334,
      "samples": 5335,
      "sorry": 5336,
      "clients": 5337,
      "frequently": 5338,
      "budd": 5339,
      "representative": 5340,
      "wedding": 5341,
      "administr": 5342,
      "believed": 5343,
      "machines": 5344,
      "valuable": 5345,
      "intelligence": 5346,
      "consumer": 5347,
      "conventional": 5348,
      "drinking": 5349,
      "slightly": 5350,
      "olympic": 5351,
      "intellect": 5352,
      "oxygen": 5353,
      "diabetes": 5354,
      "alcohol": 5355,
      "thursday": 5356,
      "symbol": 5357,
      "37": 5358,
      "indian": 5359,
      "thee": 5360,
      "anda": 5361,
      "arian": 5362,
      "rolling": 5363,
      "ili": 5364,
      "deliver": 5365,
      "bean": 5366,
      "loop": 5367,
      "lym": 5368,
      "heating": 5369,
      "wet": 5370,
      "suffe": 5371,
      "congress": 5372,
      "node": 5373,
      "abs": 5374,
      "performed": 5375,
      "tering": 5376,
      "neck": 5377,
      "shado": 5378,
      "approved": 5379,
      "outstanding": 5380,
      "worst": 5381,
      "bron": 5382,
      "bral": 5383,
      "marks": 5384,
      "corner": 5385,
      "ension": 5386,
      "sheet": 5387,
      "cade": 5388,
      "cycl": 5389,
      "bub": 5390,
      "colors": 5391,
      "talent": 5392,
      "trial": 5393,
      "operate": 5394,
      "controls": 5395,
      "nonlinear": 5396,
      "skill": 5397,
      "leads": 5398,
      "films": 5399,
      "risks": 5400,
      "humans": 5401,
      "topic": 5402,
      "supporting": 5403,
      "lux": 5404,
      "description": 5405,
      "majority": 5406,
      "authority": 5407,
      "closely": 5408,
      "optimal": 5409,
      "mountains": 5410,
      "modified": 5411,
      "royal": 5412,
      "...": 5413,
      "hundreds": 5414,
      "pretty": 5415,
      "empty": 5416,
      "institutions": 5417,
      "bacteria": 5418,
      "crystal": 5419,
      "religious": 5420,
      "guarantee": 5421,
      "consult": 5422,
      "false": 5423,
      "friction": 5424,
      "brazil": 5425,
      "cs": 5426,
      "feng": 5427,
      "ht": 5428,
      "jum": 5429,
      "rated": 5430,
      "rational": 5431,
      "sli": 5432,
      "ught": 5433,
      "zu": 5434,
      "zhu": 5435,
      "eric": 5436,
      "ald": 5437,
      "oral": 5438,
      "roof": 5439,
      "cha": 5440,
      "sep": 5441,
      "mexic": 5442,
      "iger": 5443,
      "rab": 5444,
      "gear": 5445,
      "peak": 5446,
      "pole": 5447,
      "ull": 5448,
      "resident": 5449,
      "quo": 5450,
      "dum": 5451,
      "oppos": 5452,
      "ours": 5453,
      "agents": 5454,
      "agues": 5455,
      "pak": 5456,
      "inevit": 5457,
      "blind": 5458,
      "spin": 5459,
      "spon": 5460,
      "mineral": 5461,
      "herit": 5462,
      "strugg": 5463,
      "providing": 5464,
      "forever": 5465,
      "finished": 5466,
      "valve": 5467,
      "couldn": 5468,
      "fundam": 5469,
      "matrix": 5470,
      "facts": 5471,
      "smile": 5472,
      "turns": 5473,
      "2011": 5474,
      "apparent": 5475,
      "equival": 5476,
      "runs": 5477,
      "mrs": 5478,
      "properly": 5479,
      "issued": 5480,
      "harm": 5481,
      "efficacy": 5482,
      "swim": 5483,
      "programming": 5484,
      "authorities": 5485,
      "storm": 5486,
      "faster": 5487,
      "subjects": 5488,
      "collap": 5489,
      "judge": 5490,
      "session": 5491,
      "extensive": 5492,
      "lady": 5493,
      "sharp": 5494,
      "minimum": 5495,
      "habit": 5496,
      "translation": 5497,
      "categor": 5498,
      "restaurant": 5499,
      "magazine": 5500,
      "hidden": 5501,
      "mathemat": 5502,
      "satellite": 5503,
      "intellectual": 5504,
      "39": 5505,
      "egy": 5506,
      "jian": 5507,
      "kne": 5508,
      "mation": 5509,
      "mate": 5510,
      "pages": 5511,
      "inse": 5512,
      "instruction": 5513,
      "oned": 5514,
      "onom": 5515,
      "alt": 5516,
      "alloy": 5517,
      "ingu": 5518,
      "ingly": 5519,
      "array": 5520,
      "seal": 5521,
      "decor": 5522,
      "imper": 5523,
      "nose": 5524,
      "moist": 5525,
      "lio": 5526,
      "febru": 5527,
      "compe": 5528,
      "dogs": 5529,
      "canada": 5530,
      "oph": 5531,
      "omas": 5532,
      "cream": 5533,
      "creates": 5534,
      "afgh": 5535,
      "elastic": 5536,
      "desk": 5537,
      "desire": 5538,
      "minor": 5539,
      "berg": 5540,
      "firms": 5541,
      "transform": 5542,
      "designs": 5543,
      "knows": 5544,
      "signals": 5545,
      "modeling": 5546,
      "identified": 5547,
      "identify": 5548,
      "hydr": 5549,
      "planned": 5550,
      "ios": 5551,
      "applying": 5552,
      "instant": 5553,
      "buildings": 5554,
      "ception": 5555,
      "friendly": 5556,
      "communications": 5557,
      "bond": 5558,
      "entertain": 5559,
      "reducing": 5560,
      "bai": 5561,
      "crack": 5562,
      "automatically": 5563,
      "commonly": 5564,
      "zhen": 5565,
      "starts": 5566,
      "walls": 5567,
      "marked": 5568,
      "spectrum": 5569,
      "tourist": 5570,
      "macro": 5571,
      "opportunities": 5572,
      "procedures": 5573,
      "campus": 5574,
      "ceremony": 5575,
      "arrived": 5576,
      "comfortable": 5577,
      "organizations": 5578,
      "rescue": 5579,
      "chicken": 5580,
      "decide": 5581,
      "spatial": 5582,
      "february": 5583,
      "cart": 5584,
      "ders": 5585,
      "gast": 5586,
      "hat": 5587,
      "hors": 5588,
      "kilo": 5589,
      "mud": 5590,
      "nd": 5591,
      "pm": 5592,
      "pill": 5593,
      "sport": 5594,
      "tg": 5595,
      "xy": 5596,
      "thou": 5597,
      "retail": 5598,
      "sting": 5599,
      "isation": 5600,
      "outer": 5601,
      "arrest": 5602,
      "chest": 5603,
      "meal": 5604,
      "wearing": 5605,
      "amed": 5606,
      "perman": 5607,
      "fel": 5608,
      "dium": 5609,
      "excess": 5610,
      "plc": 5611,
      "plug": 5612,
      "hael": 5613,
      "lled": 5614,
      "afraid": 5615,
      "iving": 5616,
      "moreover": 5617,
      "intense": 5618,
      "bless": 5619,
      "velocity": 5620,
      "curve": 5621,
      "afternoon": 5622,
      "caught": 5623,
      "treating": 5624,
      "196": 5625,
      "viet": 5626,
      "aircraft": 5627,
      "hydra": 5628,
      "stocks": 5629,
      "wake": 5630,
      "equation": 5631,
      "brea": 5632,
      "folk": 5633,
      "tooth": 5634,
      "links": 5635,
      "listing": 5636,
      "appeal": 5637,
      "driver": 5638,
      "harmon": 5639,
      "teams": 5640,
      "confidence": 5641,
      "aneous": 5642,
      "thinks": 5643,
      "physics": 5644,
      "magic": 5645,
      "bottle": 5646,
      "prepare": 5647,
      "smooth": 5648,
      "zzy": 5649,
      "explains": 5650,
      "individuals": 5651,
      "respect": 5652,
      "recognized": 5653,
      "innov": 5654,
      "seeds": 5655,
      "assets": 5656,
      "russian": 5657,
      "extension": 5658,
      "carrying": 5659,
      "victim": 5660,
      "alternative": 5661,
      "doubt": 5662,
      "inspection": 5663,
      "revenue": 5664,
      "discovery": 5665,
      "diction": 5666,
      "ec": 5667,
      "gall": 5668,
      "gender": 5669,
      "james": 5670,
      "lung": 5671,
      "mm": 5672,
      "pse": 5673,
      "pad": 5674,
      "pum": 5675,
      "sized": 5676,
      "tall": 5677,
      "wound": 5678,
      "err": 5679,
      "enzy": 5680,
      "stan": 5681,
      "arrang": 5682,
      "chu": 5683,
      "chun": 5684,
      "cos": 5685,
      "colo": 5686,
      "coding": 5687,
      "coefficient": 5688,
      "igno": 5689,
      "nove": 5690,
      "ida": 5691,
      "tears": 5692,
      "modu": 5693,
      "uters": 5694,
      "youth": 5695,
      "ulum": 5696,
      "shared": 5697,
      "pla": 5698,
      "holes": 5699,
      "tao": 5700,
      "tired": 5701,
      "tips": 5702,
      "worse": 5703,
      "phr": 5704,
      "marine": 5705,
      "logist": 5706,
      "logists": 5707,
      "grace": 5708,
      "basin": 5709,
      "guy": 5710,
      "reader": 5711,
      "fier": 5712,
      "2003": 5713,
      "signed": 5714,
      "michael": 5715,
      "breaking": 5716,
      "personality": 5717,
      "southeast": 5718,
      "barri": 5719,
      "allowing": 5720,
      "sensor": 5721,
      "fortun": 5722,
      "earthquake": 5723,
      "expressed": 5724,
      "indicates": 5725,
      "stories": 5726,
      "besides": 5727,
      "electricity": 5728,
      "detailed": 5729,
      "removed": 5730,
      "steady": 5731,
      "cards": 5732,
      "sequence": 5733,
      "quantitative": 5734,
      "claimed": 5735,
      "differenti": 5736,
      "orientation": 5737,
      "recognition": 5738,
      "psychological": 5739,
      "bags": 5740,
      "decreased": 5741,
      "emergency": 5742,
      "obviously": 5743,
      "agriculture": 5744,
      "branch": 5745,
      "flexible": 5746,
      "strategic": 5747,
      "advertising": 5748,
      "guests": 5749,
      "citizens": 5750,
      "constitution": 5751,
      "normally": 5752,
      "balanced": 5753,
      "fundamental": 5754,
      "99": 5755,
      "cers": 5756,
      "dal": 5757,
      "muse": 5758,
      "nes": 5759,
      "ored": 5760,
      "oting": 5761,
      "pas": 5762,
      "pian": 5763,
      "rd": 5764,
      "rough": 5765,
      "rhy": 5766,
      "sque": 5767,
      "vig": 5768,
      "thread": 5769,
      "inqu": 5770,
      "rev": 5771,
      "rew": 5772,
      "tomy": 5773,
      "icts": 5774,
      "icated": 5775,
      "asis": 5776,
      "asking": 5777,
      "chic": 5778,
      "sector": 5779,
      "welding": 5780,
      "soph": 5781,
      "idi": 5782,
      "mood": 5783,
      "fee": 5784,
      "ulic": 5785,
      "ulate": 5786,
      "urally": 5787,
      "acids": 5788,
      "kel": 5789,
      "extent": 5790,
      "plast": 5791,
      "april": 5792,
      "taught": 5793,
      "ager": 5794,
      "uded": 5795,
      "wool": 5796,
      "mary": 5797,
      "offering": 5798,
      "transition": 5799,
      "regulation": 5800,
      "puts": 5801,
      "classic": 5802,
      "listening": 5803,
      "vote": 5804,
      "decisions": 5805,
      "faced": 5806,
      "experiences": 5807,
      "synchron": 5808,
      "pale": 5809,
      "supervision": 5810,
      "colleagues": 5811,
      "recorded": 5812,
      "requirement": 5813,
      "definition": 5814,
      "battery": 5815,
      "concerns": 5816,
      "competitive": 5817,
      "accident": 5818,
      "troops": 5819,
      "literary": 5820,
      "adjustment": 5821,
      "korean": 5822,
      "immig": 5823,
      "immune": 5824,
      "commerce": 5825,
      "decrease": 5826,
      "dollars": 5827,
      "frank": 5828,
      "academy": 5829,
      "previously": 5830,
      "title": 5831,
      "compounds": 5832,
      "attempt": 5833,
      "finger": 5834,
      "mirror": 5835,
      "assessment": 5836,
      "sustainable": 5837,
      "criticism": 5838,
      "duty": 5839,
      "protocol": 5840,
      "distinct": 5841,
      "opinion": 5842,
      "chamber": 5843,
      "expansion": 5844,
      "pakistan": 5845,
      "afghan": 5846,
      "52": 5847,
      "800": 5848,
      "bread": 5849,
      "cp": 5850,
      "lap": 5851,
      "ome": 5852,
      "pne": 5853,
      "pti": 5854,
      "pink": 5855,
      "ras": 5856,
      "scar": 5857,
      "sick": 5858,
      "tone": 5859,
      "ule": 5860,
      "zhe": 5861,
      "reuters": 5862,
      "onal": 5863,
      "ordered": 5864,
      "toler": 5865,
      "roid": 5866,
      "rogen": 5867,
      "roots": 5868,
      "fornia": 5869,
      "sule": 5870,
      "convers": 5871,
      "protest": 5872,
      "prospect": 5873,
      "proceed": 5874,
      "prosper": 5875,
      "lift": 5876,
      "ults": 5877,
      "diame": 5878,
      "makers": 5879,
      "explan": 5880,
      "atest": 5881,
      "lla": 5882,
      "noted": 5883,
      "angry": 5884,
      "tray": 5885,
      "udes": 5886,
      "phic": 5887,
      "newly": 5888,
      "intensity": 5889,
      "precise": 5890,
      "brush": 5891,
      "mini": 5892,
      "parat": 5893,
      "paris": 5894,
      "greatest": 5895,
      "guid": 5896,
      "bush": 5897,
      "governments": 5898,
      "personnel": 5899,
      "specified": 5900,
      "mix": 5901,
      "profile": 5902,
      "glu": 5903,
      "passion": 5904,
      "organized": 5905,
      "particles": 5906,
      "autumn": 5907,
      "learned": 5908,
      "approxim": 5909,
      "computers": 5910,
      "silk": 5911,
      "loading": 5912,
      "belief": 5913,
      "weekend": 5914,
      "synthes": 5915,
      "sensit": 5916,
      "suggestions": 5917,
      "define": 5918,
      "watching": 5919,
      "variation": 5920,
      "accum": 5921,
      "incidence": 5922,
      "collabor": 5923,
      "birds": 5924,
      "committed": 5925,
      "explained": 5926,
      "songs": 5927,
      "mouse": 5928,
      "assemb": 5929,
      "aspect": 5930,
      "ecological": 5931,
      "institution": 5932,
      "favorite": 5933,
      "encourage": 5934,
      "california": 5935,
      "eggs": 5936,
      "challenges": 5937,
      "circulation": 5938,
      "ingredients": 5939,
      "fertil": 5940,
      "elder": 5941,
      "confirmed": 5942,
      "suffered": 5943,
      "museum": 5944,
      "diameter": 5945,
      "38": 5946,
      "bare": 5947,
      "dc": 5948,
      "eleg": 5949,
      "email": 5950,
      "fans": 5951,
      "kang": 5952,
      "mous": 5953,
      "pv": 5954,
      "pup": 5955,
      "sich": 5956,
      "tables": 5957,
      "reput": 5958,
      "stages": 5959,
      "alog": 5960,
      "escape": 5961,
      "illi": 5962,
      "deals": 5963,
      "cooking": 5964,
      "forum": 5965,
      "hearing": 5966,
      "vertical": 5967,
      "unte": 5968,
      "iran": 5969,
      "iring": 5970,
      "comed": 5971,
      "comments": 5972,
      "maker": 5973,
      "exists": 5974,
      "approv": 5975,
      "ighter": 5976,
      "emul": 5977,
      "porters": 5978,
      "auth": 5979,
      "disk": 5980,
      "evil": 5981,
      "ishment": 5982,
      "correlation": 5983,
      "basket": 5984,
      "shoot": 5985,
      "grey": 5986,
      "wouldn": 5987,
      "seeking": 5988,
      "volcan": 5989,
      "temple": 5990,
      "italian": 5991,
      "apping": 5992,
      "nerve": 5993,
      "advance": 5994,
      "fraction": 5995,
      "specif": 5996,
      "arsen": 5997,
      "respond": 5998,
      "circle": 5999,
      "refers": 6000,
      "distingu": 6001,
      "chemist": 6002,
      "principal": 6003,
      "zhong": 6004,
      "stopped": 6005,
      "employed": 6006,
      "eastern": 6007,
      "detect": 6008,
      "messages": 6009,
      "promotion": 6010,
      "massive": 6011,
      "separation": 6012,
      "amounts": 6013,
      "smoke": 6014,
      "modul": 6015,
      "displayed": 6016,
      "imaging": 6017,
      "exerc": 6018,
      "journey": 6019,
      "increasingly": 6020,
      "yeah": 6021,
      "participants": 6022,
      "believes": 6023,
      "brothers": 6024,
      "iraq": 6025,
      "residents": 6026,
      "infrastructure": 6027,
      "feasible": 6028,
      "surgical": 6029,
      "bamboo": 6030,
      "opposite": 6031,
      "fellow": 6032,
      "module": 6033,
      "sichuan": 6034,
      "600": 6035,
      "cig": 6036,
      "cution": 6037,
      "dil": 6038,
      "hr": 6039,
      "hiv": 6040,
      "lion": 6041,
      "lone": 6042,
      "pting": 6043,
      "sive": 6044,
      "uv": 6045,
      "wra": 6046,
      "alive": 6047,
      "isition": 6048,
      "icing": 6049,
      "ione": 6050,
      "leak": 6051,
      "chor": 6052,
      "ctu": 6053,
      "begins": 6054,
      "contemporary": 6055,
      "adhes": 6056,
      "soy": 6057,
      "mov": 6058,
      "fewer": 6059,
      "accompl": 6060,
      "keys": 6061,
      "appoint": 6062,
      "doctors": 6063,
      "tire": 6064,
      "embra": 6065,
      "acts": 6066,
      "compat": 6067,
      "iel": 6068,
      "upd": 6069,
      "disaster": 6070,
      "kingdom": 6071,
      "jet": 6072,
      "coron": 6073,
      "grad": 6074,
      "itely": 6075,
      "methyl": 6076,
      "overseas": 6077,
      "bug": 6078,
      "colum": 6079,
      "charged": 6080,
      "charges": 6081,
      "analysed": 6082,
      "transaction": 6083,
      "valley": 6084,
      "putting": 6085,
      "joined": 6086,
      "hello": 6087,
      "identification": 6088,
      "cute": 6089,
      "stomach": 6090,
      "breast": 6091,
      "ibm": 6092,
      "fract": 6093,
      "directory": 6094,
      "placement": 6095,
      "truly": 6096,
      "pull": 6097,
      "periph": 6098,
      "succeed": 6099,
      "facility": 6100,
      "confron": 6101,
      "strain": 6102,
      "score": 6103,
      "fuzzy": 6104,
      "depending": 6105,
      "layout": 6106,
      "expensive": 6107,
      "securities": 6108,
      "relationships": 6109,
      "fishing": 6110,
      "hydrogen": 6111,
      "relief": 6112,
      "filling": 6113,
      "graduate": 6114,
      "reserve": 6115,
      "streets": 6116,
      "collected": 6117,
      "boundary": 6118,
      "assem": 6119,
      "printing": 6120,
      "regulations": 6121,
      "dominant": 6122,
      "african": 6123,
      "consistent": 6124,
      "atomic": 6125,
      "gentle": 6126,
      "propag": 6127,
      "exhibition": 6128,
      "grown": 6129,
      "champion": 6130,
      "certificate": 6131,
      "width": 6132,
      "difficulty": 6133,
      "poetry": 6134,
      "affairs": 6135,
      "circumstances": 6136,
      "horses": 6137,
      "hydraulic": 6138,
      "guidance": 6139,
      "authors": 6140,
      "400": 6141,
      "aer": 6142,
      "dent": 6143,
      "fas": 6144,
      "fang": 6145,
      "flying": 6146,
      "gift": 6147,
      "jar": 6148,
      "jac": 6149,
      "kitch": 6150,
      "mn": 6151,
      "rant": 6152,
      "sq": 6153,
      "wol": 6154,
      "theless": 6155,
      "eno": 6156,
      "stake": 6157,
      "aria": 6158,
      "roles": 6159,
      "ctic": 6160,
      "sem": 6161,
      "segment": 6162,
      "meant": 6163,
      "rable": 6164,
      "unlike": 6165,
      "utility": 6166,
      "abstra": 6167,
      "terri": 6168,
      "terror": 6169,
      "complain": 6170,
      "diam": 6171,
      "diff": 6172,
      "exposed": 6173,
      "ride": 6174,
      "apparat": 6175,
      "tie": 6176,
      "tier": 6177,
      "embed": 6178,
      "boys": 6179,
      "bomb": 6180,
      "trace": 6181,
      "cents": 6182,
      "strange": 6183,
      "interior": 6184,
      "highway": 6185,
      "flor": 6186,
      "carc": 6187,
      "gue": 6188,
      "colour": 6189,
      "chocol": 6190,
      "processor": 6191,
      "visible": 6192,
      "singing": 6193,
      "closing": 6194,
      "ferment": 6195,
      "volunte": 6196,
      "venture": 6197,
      "supposed": 6198,
      "helping": 6199,
      "furnit": 6200,
      "universal": 6201,
      "universities": 6202,
      "customs": 6203,
      "metabol": 6204,
      "typically": 6205,
      "establishment": 6206,
      "physic": 6207,
      "furthermore": 6208,
      "1990": 6209,
      "situations": 6210,
      "calculate": 6211,
      "feedback": 6212,
      "judic": 6213,
      "quarters": 6214,
      "christmas": 6215,
      "exciting": 6216,
      "guangzhou": 6217,
      "millions": 6218,
      "extended": 6219,
      "narrow": 6220,
      "thickness": 6221,
      "intelligent": 6222,
      "strategies": 6223,
      "promise": 6224,
      "inflam": 6225,
      "fifth": 6226,
      "deposit": 6227,
      "victory": 6228,
      "ferences": 6229,
      "democratic": 6230,
      "remarkable": 6231,
      "interpretation": 6232,
      "html": 6233,
      "equivalent": 6234,
      "assembly": 6235,
      "42": 6236,
      "55": 6237,
      "64": 6238,
      "dna": 6239,
      "eing": 6240,
      "hd": 6241,
      "”.": 6242,
      "iner": 6243,
      "reject": 6244,
      "retri": 6245,
      "ativity": 6246,
      "oul": 6247,
      "assum": 6248,
      "sees": 6249,
      "secon": 6250,
      "dear": 6251,
      "degre": 6252,
      "decade": 6253,
      "cock": 6254,
      "igation": 6255,
      "sures": 6256,
      "conta": 6257,
      "imately": 6258,
      "som": 6259,
      "gel": 6260,
      "mom": 6261,
      "neut": 6262,
      "math": 6263,
      "plates": 6264,
      "haust": 6265,
      "quer": 6266,
      "thermo": 6267,
      "ruption": 6268,
      "saved": 6269,
      "fox": 6270,
      "discrim": 6271,
      "dishes": 6272,
      "creative": 6273,
      "deser": 6274,
      "shore": 6275,
      "causing": 6276,
      "relates": 6277,
      "curric": 6278,
      "underground": 6279,
      "surprise": 6280,
      "choo": 6281,
      "channels": 6282,
      "worldwide": 6283,
      "simp": 6284,
      "steam": 6285,
      "capsule": 6286,
      "singapo": 6287,
      "muno": 6288,
      "tember": 6289,
      "flows": 6290,
      "characterized": 6291,
      "blocks": 6292,
      "menu": 6293,
      "communicate": 6294,
      "burden": 6295,
      "practices": 6296,
      "holder": 6297,
      "feelings": 6298,
      "naturally": 6299,
      "falling": 6300,
      "returns": 6301,
      "axis": 6302,
      "plantation": 6303,
      "sentence": 6304,
      "managers": 6305,
      "heaven": 6306,
      "vitro": 6307,
      "covering": 6308,
      "incident": 6309,
      "artistic": 6310,
      "nano": 6311,
      "walked": 6312,
      "gained": 6313,
      "pacific": 6314,
      "rapidly": 6315,
      "originally": 6316,
      "cerebral": 6317,
      "birthday": 6318,
      "branches": 6319,
      "wonderful": 6320,
      "philosoph": 6321,
      "carrier": 6322,
      "nursing": 6323,
      "terminal": 6324,
      "revealed": 6325,
      "pharmaco": 6326,
      "candidates": 6327,
      "eliminate": 6328,
      "shirt": 6329,
      "compensation": 6330,
      "exposure": 6331,
      "route": 6332,
      "proposal": 6333,
      "currency": 6334,
      "enemy": 6335,
      "attributes": 6336,
      "occasion": 6337,
      "september": 6338,
      "mexico": 6339,
      "permanent": 6340,
      "chemistry": 6341,
      "apparatus": 6342,
      "furniture": 6343,
      "singapore": 6344,
      "95": 6345,
      "boun": 6346,
      "dun": 6347,
      "foun": 6348,
      "gno": 6349,
      "gence": 6350,
      "jim": 6351,
      "kim": 6352,
      "lamp": 6353,
      "ov": 6354,
      "ode": 6355,
      "vated": 6356,
      "xian": 6357,
      "intr": 6358,
      "inser": 6359,
      "insp": 6360,
      "sters": 6361,
      "orous": 6362,
      "islam": 6363,
      "andong": 6364,
      "entered": 6365,
      "losing": 6366,
      "ceut": 6367,
      "herent": 6368,
      "radar": 6369,
      "proli": 6370,
      "promin": 6371,
      "ador": 6372,
      "immuno": 6373,
      "uncertain": 6374,
      "usa": 6375,
      "aband": 6376,
      "abled": 6377,
      "amino": 6378,
      "neur": 6379,
      "shaf": 6380,
      "shield": 6381,
      "maps": 6382,
      "exhaust": 6383,
      "plent": 6384,
      "plum": 6385,
      "essence": 6386,
      "apor": 6387,
      "homo": 6388,
      "manner": 6389,
      "emper": 6390,
      "olic": 6391,
      "bob": 6392,
      "astron": 6393,
      "bry": 6394,
      "ateral": 6395,
      "myster": 6396,
      "acknow": 6397,
      "corn": 6398,
      "corp": 6399,
      "herself": 6400,
      "sheep": 6401,
      "cyto": 6402,
      "surge": 6403,
      "analysts": 6404,
      "resulting": 6405,
      "ceram": 6406,
      "designer": 6407,
      "funding": 6408,
      "knowing": 6409,
      "simult": 6410,
      "simulated": 6411,
      "stein": 6412,
      "generate": 6413,
      "northeast": 6414,
      "childhood": 6415,
      "microw": 6416,
      "technological": 6417,
      "attitude": 6418,
      "findings": 6419,
      "rises": 6420,
      "glad": 6421,
      "courses": 6422,
      "passenger": 6423,
      "milan": 6424,
      "furn": 6425,
      "autonom": 6426,
      "decades": 6427,
      "styles": 6428,
      "dedicated": 6429,
      "zheng": 6430,
      "supplies": 6431,
      "amazing": 6432,
      "detected": 6433,
      "visitors": 6434,
      "debate": 6435,
      "requests": 6436,
      "installed": 6437,
      "rigid": 6438,
      "cooling": 6439,
      "honor": 6440,
      "william": 6441,
      "survival": 6442,
      "briefly": 6443,
      "vegetables": 6444,
      "romantic": 6445,
      "utilization": 6446,
      "combine": 6447,
      "smell": 6448,
      "pharmaceut": 6449,
      "yunnan": 6450,
      "db2": 6451,
      "spokesman": 6452,
      "abundant": 6453,
      "residential": 6454,
      "kitchen": 6455,
      "%)": 6456,
      "48": 6457,
      "65": 6458,
      "aper": 6459,
      "binding": 6460,
      "duration": 6461,
      "ek": 6462,
      "gers": 6463,
      "gory": 6464,
      "gates": 6465,
      "ito": 6466,
      "jade": 6467,
      "pene": 6468,
      "swi": 6469,
      "sir": 6470,
      "scul": 6471,
      "tasks": 6472,
      "wage": 6473,
      "wings": 6474,
      "xia": 6475,
      "restrict": 6476,
      "represents": 6477,
      "stiff": 6478,
      "isure": 6479,
      "artery": 6480,
      "tower": 6481,
      "tobac": 6482,
      "leisure": 6483,
      "rod": 6484,
      "rocks": 6485,
      "robot": 6486,
      "entre": 6487,
      "vement": 6488,
      "vector": 6489,
      "seism": 6490,
      "ads": 6491,
      "idal": 6492,
      "modes": 6493,
      "liz": 6494,
      "lian": 6495,
      "likes": 6496,
      "neither": 6497,
      "acle": 6498,
      "illa": 6499,
      "holy": 6500,
      "mani": 6501,
      "worthy": 6502,
      "authen": 6503,
      "disorder": 6504,
      "grat": 6505,
      "desert": 6506,
      "gravity": 6507,
      "partial": 6508,
      "productive": 6509,
      "provin": 6510,
      "buying": 6511,
      "guo": 6512,
      "ultimately": 6513,
      "processed": 6514,
      "designing": 6515,
      "2001": 6516,
      "volat": 6517,
      "mortg": 6518,
      "sediment": 6519,
      "cheese": 6520,
      "fluor": 6521,
      "largely": 6522,
      "advoc": 6523,
      "businesses": 6524,
      "drome": 6525,
      "dropped": 6526,
      "reporting": 6527,
      "holders": 6528,
      "environments": 6529,
      "distur": 6530,
      "cracy": 6531,
      "loads": 6532,
      "borrow": 6533,
      "younger": 6534,
      "possibility": 6535,
      "influen": 6536,
      "zeal": 6537,
      "interests": 6538,
      "extract": 6539,
      "targets": 6540,
      "profession": 6541,
      "falls": 6542,
      "connections": 6543,
      "recording": 6544,
      "juice": 6545,
      "biom": 6546,
      "philip": 6547,
      "sections": 6548,
      "involving": 6549,
      "focuses": 6550,
      "inoma": 6551,
      "achievement": 6552,
      "reserves": 6553,
      "observation": 6554,
      "powers": 6555,
      "hearts": 6556,
      "spiritual": 6557,
      "christian": 6558,
      "laboratory": 6559,
      "dimension": 6560,
      "empire": 6561,
      "category": 6562,
      "decline": 6563,
      "chairman": 6564,
      "scanning": 6565,
      "compression": 6566,
      "vascular": 6567,
      "dangerous": 6568,
      "cluster": 6569,
      "aesthetic": 6570,
      "vacu": 6571,
      "anxiety": 6572,
      "concepts": 6573,
      "chelsea": 6574,
      "stroke": 6575,
      "luxury": 6576,
      "apparently": 6577,
      "arranged": 6578,
      "pneum": 6579,
      "approval": 6580,
      "cigare": 6581,
      "chocolate": 6582,
      "seconds": 6583,
      "87": 6584,
      "aqu": 6585,
      "bis": 6586,
      "bits": 6587,
      "brow": 6588,
      "cim": 6589,
      "dp": 6590,
      "gged": 6591,
      "ghost": 6592,
      "jam": 6593,
      "lene": 6594,
      "mand": 6595,
      "nick": 6596,
      "rance": 6597,
      "tically": 6598,
      "yao": 6599,
      "intest": 6600,
      "theli": 6601,
      "renew": 6602,
      "remind": 6603,
      "stack": 6604,
      "orth": 6605,
      "isa": 6606,
      "arbit": 6607,
      "lean": 6608,
      "chong": 6609,
      "bels": 6610,
      "nomin": 6611,
      "sodium": 6612,
      "geor": 6613,
      "telling": 6614,
      "usage": 6615,
      "peut": 6616,
      "ament": 6617,
      "fet": 6618,
      "shed": 6619,
      "haven": 6620,
      "clou": 6621,
      "clar": 6622,
      "boil": 6623,
      "aching": 6624,
      "afford": 6625,
      "servers": 6626,
      "brilli": 6627,
      "spray": 6628,
      "particle": 6629,
      "berry": 6630,
      "cath": 6631,
      "produces": 6632,
      "reless": 6633,
      "engage": 6634,
      "engaged": 6635,
      "effectiveness": 6636,
      "calci": 6637,
      "chosen": 6638,
      "analytical": 6639,
      "trem": 6640,
      "searching": 6641,
      "aked": 6642,
      "solving": 6643,
      "readers": 6644,
      "crash": 6645,
      "sett": 6646,
      "uniform": 6647,
      "strip": 6648,
      "examined": 6649,
      "equity": 6650,
      "soup": 6651,
      "legend": 6652,
      "athlet": 6653,
      "lawy": 6654,
      "careful": 6655,
      "harry": 6656,
      "harmony": 6657,
      "computing": 6658,
      "divor": 6659,
      "loaded": 6660,
      "coupling": 6661,
      "scopic": 6662,
      "container": 6663,
      "influences": 6664,
      "synthetic": 6665,
      "stronger": 6666,
      "fortune": 6667,
      "forcement": 6668,
      "criter": 6669,
      "tells": 6670,
      "taxes": 6671,
      "detecting": 6672,
      "patho": 6673,
      "accounts": 6674,
      "vitamin": 6675,
      "feeding": 6676,
      "execution": 6677,
      "zzle": 6678,
      "differential": 6679,
      "broadcast": 6680,
      "participate": 6681,
      "occurred": 6682,
      "architect": 6683,
      "psychology": 6684,
      "infected": 6685,
      "therapeut": 6686,
      "numerous": 6687,
      "license": 6688,
      "genesis": 6689,
      "champions": 6690,
      "honest": 6691,
      "vulner": 6692,
      "scenar": 6693,
      "repeated": 6694,
      "lunch": 6695,
      "surprised": 6696,
      "schedule": 6697,
      "emotional": 6698,
      "conservation": 6699,
      "scholars": 6700,
      "martin": 6701,
      "aluminum": 6702,
      "horizontal": 6703,
      "conflict": 6704,
      "mathematical": 6705,
      "entertainment": 6706,
      "explanation": 6707,
      "synthesized": 6708,
      "reputation": 6709,
      "arsenal": 6710,
      "carcinoma": 6711,
      "degrees": 6712,
      "penetr": 6713,
      "seismic": 6714,
      "brilliant": 6715,
      "3d": 6716,
      "46": 6717,
      "47": 6718,
      "51": 6719,
      "86": 6720,
      "bou": 6721,
      "bent": 6722,
      "bang": 6723,
      "cend": 6724,
      "hence": 6725,
      "jump": 6726,
      "mam": 6727,
      "nis": 6728,
      "oo": 6729,
      "pto": 6730,
      "qin": 6731,
      "slip": 6732,
      "voc": 6733,
      "zhao": 6734,
      "inch": 6735,
      "theories": 6736,
      "recess": 6737,
      "recru": 6738,
      "reply": 6739,
      "reverse": 6740,
      "stabil": 6741,
      "alex": 6742,
      "alleg": 6743,
      "sey": 6744,
      "meta": 6745,
      "dele": 6746,
      "bered": 6747,
      "igue": 6748,
      "suic": 6749,
      "contest": 6750,
      "constra": 6751,
      "nodes": 6752,
      "unable": 6753,
      "mold": 6754,
      "lime": 6755,
      "shif": 6756,
      "shandong": 6757,
      "reson": 6758,
      "api": 6759,
      "hopes": 6760,
      "doors": 6761,
      "opens": 6762,
      "ourselves": 6763,
      "clinton": 6764,
      "anten": 6765,
      "angular": 6766,
      "iest": 6767,
      "hism": 6768,
      "dish": 6769,
      "displacement": 6770,
      "oblig": 6771,
      "pressing": 6772,
      "prescri": 6773,
      "marry": 6774,
      "blade": 6775,
      "shear": 6776,
      "delta": 6777,
      "regime": 6778,
      "iously": 6779,
      "icked": 6780,
      "solvent": 6781,
      "lesson": 6782,
      "everywhere": 6783,
      "capable": 6784,
      "clothing": 6785,
      "letters": 6786,
      "universe": 6787,
      "facebook": 6788,
      "warming": 6789,
      "supports": 6790,
      "stores": 6791,
      "breath": 6792,
      "draft": 6793,
      "accordance": 6794,
      "prize": 6795,
      "fracture": 6796,
      "protective": 6797,
      "bloom": 6798,
      "scat": 6799,
      "dried": 6800,
      "positions": 6801,
      "spain": 6802,
      "continues": 6803,
      "muscles": 6804,
      "reduces": 6805,
      "confident": 6806,
      "silence": 6807,
      "aims": 6808,
      "scores": 6809,
      "mechanisms": 6810,
      "programme": 6811,
      "metro": 6812,
      "strongly": 6813,
      "politic": 6814,
      "nearby": 6815,
      "photos": 6816,
      "sampling": 6817,
      "diagram": 6818,
      "calculating": 6819,
      "bott": 6820,
      "dynamics": 6821,
      "killing": 6822,
      "holly": 6823,
      "crude": 6824,
      "deeply": 6825,
      "demands": 6826,
      "involves": 6827,
      "sounds": 6828,
      "xiang": 6829,
      "implemented": 6830,
      "separated": 6831,
      "spoke": 6832,
      "stainless": 6833,
      "liverpool": 6834,
      "nitrogen": 6835,
      "seriously": 6836,
      "invas": 6837,
      "invited": 6838,
      "acquisition": 6839,
      "substanti": 6840,
      "fabr": 6841,
      "guangdong": 6842,
      "hurt": 6843,
      "tunnel": 6844,
      "violence": 6845,
      "fingers": 6846,
      "tiny": 6847,
      "routine": 6848,
      "emphasis": 6849,
      "capture": 6850,
      "poems": 6851,
      "crowd": 6852,
      "weapon": 6853,
      "weapons": 6854,
      "twice": 6855,
      "destroyed": 6856,
      "diversity": 6857,
      "enhanced": 6858,
      "wisdom": 6859,
      "struggle": 6860,
      "egypt": 6861,
      "piano": 6862,
      "elegant": 6863,
      "coronary": 6864,
      "emperor": 6865,
      "tobacco": 6866,
      "54": 6867,
      "aids": 6868,
      "bum": 6869,
      "cn": 6870,
      "dor": 6871,
      "damp": 6872,
      "ets": 6873,
      "ease": 6874,
      "fis": 6875,
      "gic": 6876,
      "jacks": 6877,
      "kir": 6878,
      "lac": 6879,
      "native": 6880,
      "tab": 6881,
      "uci": 6882,
      "viv": 6883,
      "xu": 6884,
      "thed": 6885,
      "theat": 6886,
      "reno": 6887,
      "restr": 6888,
      "onia": 6889,
      "enor": 6890,
      "enrich": 6891,
      "sted": 6892,
      "eds": 6893,
      "editor": 6894,
      "tober": 6895,
      "ita": 6896,
      "ica": 6897,
      "asset": 6898,
      "leather": 6899,
      "robo": 6900,
      "seman": 6901,
      "melt": 6902,
      "ilit": 6903,
      "delive": 6904,
      "beer": 6905,
      "heter": 6906,
      "moves": 6907,
      "motions": 6908,
      "usal": 6909,
      "pover": 6910,
      "sharing": 6911,
      "exceed": 6912,
      "illness": 6913,
      "query": 6914,
      "wasn": 6915,
      "manual": 6916,
      "acting": 6917,
      "butter": 6918,
      "bold": 6919,
      "compact": 6920,
      "update": 6921,
      "proud": 6922,
      "ounds": 6923,
      "gras": 6924,
      "myth": 6925,
      "margin": 6926,
      "estimate": 6927,
      "cake": 6928,
      "oked": 6929,
      "shoulder": 6930,
      "valent": 6931,
      "matching": 6932,
      "submit": 6933,
      "captain": 6934,
      "calling": 6935,
      "handed": 6936,
      "handling": 6937,
      "researched": 6938,
      "mortal": 6939,
      "strike": 6940,
      "breaks": 6941,
      "gathered": 6942,
      "legs": 6943,
      "pulled": 6944,
      "burst": 6945,
      "dense": 6946,
      "syndrome": 6947,
      "phases": 6948,
      "connect": 6949,
      "1998": 6950,
      "defence": 6951,
      "equipments": 6952,
      "frequent": 6953,
      "managing": 6954,
      "screw": 6955,
      "kernel": 6956,
      "chemicals": 6957,
      "watched": 6958,
      "variables": 6959,
      "remained": 6960,
      "losses": 6961,
      "civilization": 6962,
      "claims": 6963,
      "accepted": 6964,
      "tank": 6965,
      "dancing": 6966,
      "fitting": 6967,
      "nutri": 6968,
      "persist": 6969,
      "constructed": 6970,
      "installation": 6971,
      "historic": 6972,
      "regarded": 6973,
      "leadership": 6974,
      "recommended": 6975,
      "registered": 6976,
      "belongs": 6977,
      "attribute": 6978,
      "flavor": 6979,
      "isolated": 6980,
      "pleasure": 6981,
      "schedul": 6982,
      "arrangement": 6983,
      "silicon": 6984,
      "ultrason": 6985,
      "december": 6986,
      "exploration": 6987,
      "pregnancy": 6988,
      "premier": 6989,
      "legislation": 6990,
      "waters": 6991,
      "bronze": 6992,
      "inevitable": 6993,
      "categories": 6994,
      "november": 6995,
      "gluco": 6996,
      "sensitivity": 6997,
      "movies": 6998,
      "peripheral": 6999,
      "choosing": 7000,
      "plenty": 7001,
      "pharmaceutical": 7002,
      "delivered": 7003,
      "01": 7004,
      "88": 7005,
      "egg": 7006,
      "fon": 7007,
      "gb": 7008,
      "gam": 7009,
      "hs": 7010,
      "ix": 7011,
      "kn": 7012,
      "kat": 7013,
      "kit": 7014,
      "kai": 7015,
      "lav": 7016,
      "mt": 7017,
      "mits": 7018,
      "nie": 7019,
      "pitation": 7020,
      "pione": 7021,
      "ture": 7022,
      "twin": 7023,
      "ux": 7024,
      "vs": 7025,
      "yar": 7026,
      "thomas": 7027,
      "anth": 7028,
      "reward": 7029,
      "replaced": 7030,
      "ono": 7031,
      "enable": 7032,
      "enlight": 7033,
      "oured": 7034,
      "robert": 7035,
      "entrance": 7036,
      "deformation": 7037,
      "degrad": 7038,
      "cope": 7039,
      "covers": 7040,
      "loans": 7041,
      "loose": 7042,
      "igen": 7043,
      "weigh": 7044,
      "proposes": 7045,
      "adverse": 7046,
      "impossible": 7047,
      "idents": 7048,
      "moments": 7049,
      "wireless": 7050,
      "ams": 7051,
      "terior": 7052,
      "shine": 7053,
      "sheng": 7054,
      "pler": 7055,
      "essentially": 7056,
      "quet": 7057,
      "aps": 7058,
      "tip": 7059,
      "opposition": 7060,
      "aggress": 7061,
      "oles": 7062,
      "porter": 7063,
      "angers": 7064,
      "trick": 7065,
      "aux": 7066,
      "indones": 7067,
      "answers": 7068,
      "els": 7069,
      "fiction": 7070,
      "logistics": 7071,
      "blan": 7072,
      "developers": 7073,
      "understood": 7074,
      "guys": 7075,
      "chose": 7076,
      "transformed": 7077,
      "served": 7078,
      "subs": 7079,
      "stands": 7080,
      "patch": 7081,
      "1980": 7082,
      "shipping": 7083,
      "ski": 7084,
      "rank": 7085,
      "fluctu": 7086,
      "governance": 7087,
      "helpful": 7088,
      "broke": 7089,
      "equally": 7090,
      "equations": 7091,
      "persons": 7092,
      "october": 7093,
      "sciences": 7094,
      "friendship": 7095,
      "drivers": 7096,
      "burg": 7097,
      "refu": 7098,
      "harvest": 7099,
      "ampli": 7100,
      "facilit": 7101,
      "engineer": 7102,
      "damaged": 7103,
      "lateral": 7104,
      "mount": 7105,
      "nucle": 7106,
      "removal": 7107,
      "artists": 7108,
      "algorithms": 7109,
      "physi": 7110,
      "populations": 7111,
      "consideration": 7112,
      "angel": 7113,
      "injuries": 7114,
      "isticated": 7115,
      "corporation": 7116,
      "regularly": 7117,
      "xinhua": 7118,
      "galax": 7119,
      "correctly": 7120,
      "contribution": 7121,
      "ethyl": 7122,
      "summary": 7123,
      "manufacturer": 7124,
      "apartment": 7125,
      "adaptive": 7126,
      "combust": 7127,
      "infrared": 7128,
      "feasibility": 7129,
      "reinforced": 7130,
      "priority": 7131,
      "attach": 7132,
      "promised": 7133,
      "consequences": 7134,
      "discipline": 7135,
      "retrospective": 7136,
      "heritage": 7137,
      "innovative": 7138,
      "passage": 7139,
      "rhyth": 7140,
      "sophisticated": 7141,
      "microwave": 7142,
      "mortgage": 7143,
      "george": 7144,
      "therapeutic": 7145,
      ",'": 7146,
      "56": 7147,
      "bn": 7148,
      "cis": 7149,
      "dd": 7150,
      "ee": 7151,
      "ecli": 7152,
      "fts": 7153,
      "gus": 7154,
      "kine": 7155,
      "mers": 7156,
      "mild": 7157,
      "mask": 7158,
      "rha": 7159,
      "rating": 7160,
      "tally": 7161,
      "wl": 7162,
      "thal": 7163,
      "infer": 7164,
      "ano": 7165,
      "reck": 7166,
      "reconstruction": 7167,
      "enjo": 7168,
      "stir": 7169,
      "alty": 7170,
      "orange": 7171,
      "islands": 7172,
      "aro": 7173,
      "arter": 7174,
      "armed": 7175,
      "toile": 7176,
      "icks": 7177,
      "aspir": 7178,
      "chro": 7179,
      "chart": 7180,
      "deput": 7181,
      "deeper": 7182,
      "forth": 7183,
      "igra": 7184,
      "prose": 7185,
      "adult": 7186,
      "adds": 7187,
      "poison": 7188,
      "abnormal": 7189,
      "liby": 7190,
      "lips": 7191,
      "ami": 7192,
      "acou": 7193,
      "accommod": 7194,
      "keeper": 7195,
      "dose": 7196,
      "clay": 7197,
      "sau": 7198,
      "noticed": 7199,
      "boot": 7200,
      "comparing": 7201,
      "earning": 7202,
      "ups": 7203,
      "wned": 7204,
      "answered": 7205,
      "preced": 7206,
      "grinding": 7207,
      "ishes": 7208,
      "corro": 7209,
      "enses": 7210,
      "fles": 7211,
      "flame": 7212,
      "counsel": 7213,
      "shooting": 7214,
      "engers": 7215,
      "calm": 7216,
      "delicate": 7217,
      "transmit": 7218,
      "matches": 7219,
      "objectives": 7220,
      "patent": 7221,
      "structive": 7222,
      "closer": 7223,
      "plot": 7224,
      "hybrid": 7225,
      "insist": 7226,
      "virgin": 7227,
      "governor": 7228,
      "gym": 7229,
      "supplement": 7230,
      "stored": 7231,
      "cheap": 7232,
      "drain": 7233,
      "drawn": 7234,
      "studio": 7235,
      "pride": 7236,
      "mixing": 7237,
      "tonight": 7238,
      "household": 7239,
      "enery": 7240,
      "bonds": 7241,
      "specialized": 7242,
      "confuci": 7243,
      "contained": 7244,
      "swing": 7245,
      "influenced": 7246,
      "tendency": 7247,
      "dependent": 7248,
      "bitter": 7249,
      "layers": 7250,
      "recover": 7251,
      "combining": 7252,
      "temperatures": 7253,
      "richard": 7254,
      "supplier": 7255,
      "receiving": 7256,
      "placing": 7257,
      "integrity": 7258,
      "approaches": 7259,
      "spectro": 7260,
      "definitely": 7261,
      "deaths": 7262,
      "continuously": 7263,
      "removing": 7264,
      "complexity": 7265,
      "rolls": 7266,
      "achievements": 7267,
      "trends": 7268,
      "excited": 7269,
      "printed": 7270,
      "satisfied": 7271,
      "humid": 7272,
      "latin": 7273,
      "attract": 7274,
      "preparing": 7275,
      "picked": 7276,
      "exception": 7277,
      "declared": 7278,
      "instruments": 7279,
      "absorption": 7280,
      "oxidation": 7281,
      "employee": 7282,
      "newspapers": 7283,
      "audit": 7284,
      "difficulties": 7285,
      "slope": 7286,
      "reactor": 7287,
      "applicable": 7288,
      "gathering": 7289,
      "pursue": 7290,
      "absolutely": 7291,
      "spaces": 7292,
      "shadow": 7293,
      "chicago": 7294,
      "abstract": 7295,
      "contacts": 7296,
      "simpli": 7297,
      "shaft": 7298,
      "vacuum": 7299,
      "clouds": 7300,
      "divorce": 7301,
      "hollywood": 7302,
      "44": 7303,
      "59": 7304,
      "bage": 7305,
      "batch": 7306,
      "dm": 7307,
      "dir": 7308,
      "fying": 7309,
      "gau": 7310,
      "gently": 7311,
      "hp": 7312,
      "kni": 7313,
      "mould": 7314,
      "mile": 7315,
      "osc": 7316,
      "pine": 7317,
      "tiger": 7318,
      "vy": 7319,
      "ww": 7320,
      "yard": 7321,
      "zer": 7322,
      "zinc": 7323,
      "anes": 7324,
      "anne": 7325,
      "refin": 7326,
      "enthus": 7327,
      "ari": 7328,
      "icious": 7329,
      "chat": 7330,
      "veter": 7331,
      "losis": 7332,
      "conversion": 7333,
      "propose": 7334,
      "proportion": 7335,
      "aded": 7336,
      "unknown": 7337,
      "uted": 7338,
      "pep": 7339,
      "poster": 7340,
      "amid": 7341,
      "fees": 7342,
      "acup": 7343,
      "acry": 7344,
      "accompan": 7345,
      "rib": 7346,
      "rivers": 7347,
      "illed": 7348,
      "appointed": 7349,
      "hoo": 7350,
      "hoping": 7351,
      "canal": 7352,
      "aggre": 7353,
      "boom": 7354,
      "deriv": 7355,
      "discover": 7356,
      "kings": 7357,
      "gry": 7358,
      "posit": 7359,
      "blame": 7360,
      "corruption": 7361,
      "strat": 7362,
      "interactive": 7363,
      "highlight": 7364,
      "overcome": 7365,
      "epi": 7366,
      "ultimate": 7367,
      "hub": 7368,
      "welling": 7369,
      "mato": 7370,
      "solu": 7371,
      "backed": 7372,
      "lessons": 7373,
      "capsul": 7374,
      "operator": 7375,
      "planes": 7376,
      "incredi": 7377,
      "examine": 7378,
      "lasting": 7379,
      "checking": 7380,
      "queen": 7381,
      "gling": 7382,
      "password": 7383,
      "graphical": 7384,
      "voted": 7385,
      "burning": 7386,
      "circles": 7387,
      "refused": 7388,
      "offices": 7389,
      "officers": 7390,
      "wheat": 7391,
      "couples": 7392,
      "periods": 7393,
      "adequ": 7394,
      "clinic": 7395,
      "moderate": 7396,
      "languages": 7397,
      "explosion": 7398,
      "hormone": 7399,
      "integrate": 7400,
      "1995": 7401,
      "greece": 7402,
      "cattle": 7403,
      "winds": 7404,
      "reaching": 7405,
      "managed": 7406,
      "bringing": 7407,
      "spoken": 7408,
      "smoking": 7409,
      "perfectly": 7410,
      "prediction": 7411,
      "fatigue": 7412,
      "tanks": 7413,
      "electrode": 7414,
      "neglect": 7415,
      "precipitation": 7416,
      "chains": 7417,
      "democracy": 7418,
      "estimation": 7419,
      "estimates": 7420,
      "expectations": 7421,
      "entirely": 7422,
      "ethnic": 7423,
      "settings": 7424,
      "habits": 7425,
      "issions": 7426,
      "advertise": 7427,
      "religion": 7428,
      "bicy": 7429,
      "sacchar": 7430,
      "defeat": 7431,
      "defects": 7432,
      "guarante": 7433,
      "inflation": 7434,
      "citizen": 7435,
      "commodity": 7436,
      "demonstrated": 7437,
      "cultivation": 7438,
      "assume": 7439,
      "drilling": 7440,
      "organs": 7441,
      "stretch": 7442,
      "bubble": 7443,
      "breathing": 7444,
      "prosperity": 7445,
      "approximately": 7446,
      "basketball": 7447,
      "specifically": 7448,
      "diamond": 7449,
      "judicial": 7450,
      "curriculum": 7451,
      "sculpt": 7452,
      "entrepre": 7453,
      "calcium": 7454,
      "poverty": 7455,
      "knife": 7456,
      "enthusi": 7457,
      "accompanied": 7458,
      "($": 7459,
      "()": 7460,
      "1000": 7461,
      "aint": 7462,
      "bp": 7463,
      "cine": 7464,
      "drun": 7465,
      "fant": 7466,
      "gad": 7467,
      "gul": 7468,
      "ik": 7469,
      "ience": 7470,
      "mour": 7471,
      "nesday": 7472,
      "pha": 7473,
      "rh": 7474,
      "sd": 7475,
      "sna": 7476,
      "twi": 7477,
      "tort": 7478,
      "uma": 7479,
      "vm": 7480,
      "vend": 7481,
      "yin": 7482,
      "yong": 7483,
      "infect": 7484,
      "thening": 7485,
      "anium": 7486,
      "revers": 7487,
      "resem": 7488,
      "eration": 7489,
      "encoun": 7490,
      "stair": 7491,
      "allocation": 7492,
      "ischem": 7493,
      "topo": 7494,
      "icip": 7495,
      "semin": 7496,
      "devi": 7497,
      "defect": 7498,
      "beth": 7499,
      "beans": 7500,
      "ceiling": 7501,
      "hem": 7502,
      "rays": 7503,
      "raising": 7504,
      "progno": 7505,
      "ading": 7506,
      "admitted": 7507,
      "imped": 7508,
      "nobody": 7509,
      "soc": 7510,
      "tels": 7511,
      "uncle": 7512,
      "irrig": 7513,
      "polish": 7514,
      "performing": 7515,
      "neural": 7516,
      "urgent": 7517,
      "diale": 7518,
      "quit": 7519,
      "hob": 7520,
      "dozen": 7521,
      "actress": 7522,
      "rud": 7523,
      "ola": 7524,
      "oline": 7525,
      "umes": 7526,
      "focal": 7527,
      "izhou": 7528,
      "disclo": 7529,
      "intent": 7530,
      "assium": 7531,
      "jewel": 7532,
      "centers": 7533,
      "grams": 7534,
      "shock": 7535,
      "paraly": 7536,
      "struck": 7537,
      "cyte": 7538,
      "cytes": 7539,
      "eping": 7540,
      "label": 7541,
      "guan": 7542,
      "analyst": 7543,
      "resulted": 7544,
      "regress": 7545,
      "controvers": 7546,
      "subsequ": 7547,
      "turb": 7548,
      "trials": 7549,
      "generations": 7550,
      "economist": 7551,
      "otes": 7552,
      "morpho": 7553,
      "elected": 7554,
      "realization": 7555,
      "imported": 7556,
      "wax": 7557,
      "queue": 7558,
      "drag": 7559,
      "lists": 7560,
      "profound": 7561,
      "finds": 7562,
      "protected": 7563,
      "potassium": 7564,
      "locations": 7565,
      "conditioning": 7566,
      "concluded": 7567,
      "lotus": 7568,
      "namely": 7569,
      "scow": 7570,
      "scored": 7571,
      "scopy": 7572,
      "paying": 7573,
      "swed": 7574,
      "palm": 7575,
      "trained": 7576,
      "productivity": 7577,
      "measurements": 7578,
      "roads": 7579,
      "zhi": 7580,
      "hungry": 7581,
      "boards": 7582,
      "specification": 7583,
      "animation": 7584,
      "selecting": 7585,
      "constitute": 7586,
      "digest": 7587,
      "optimum": 7588,
      "determining": 7589,
      "pathy": 7590,
      "crucial": 7591,
      "frustr": 7592,
      "primarily": 7593,
      "bulk": 7594,
      "popularity": 7595,
      "artist": 7596,
      "geological": 7597,
      "affects": 7598,
      "judgment": 7599,
      "graduates": 7600,
      "stressed": 7601,
      "representation": 7602,
      "wednesday": 7603,
      "plicit": 7604,
      "contribute": 7605,
      "crops": 7606,
      "girlfriend": 7607,
      "acquired": 7608,
      "speaker": 7609,
      "copies": 7610,
      "arguments": 7611,
      "demonstrate": 7612,
      "guidelines": 7613,
      "mistake": 7614,
      "beams": 7615,
      "insulin": 7616,
      "coastal": 7617,
      "qualified": 7618,
      "vegetable": 7619,
      "expanding": 7620,
      "henry": 7621,
      "alkali": 7622,
      "rushed": 7623,
      "spanish": 7624,
      "awareness": 7625,
      "migration": 7626,
      "tongue": 7627,
      "spark": 7628,
      "motive": 7629,
      "vessels": 7630,
      "treasure": 7631,
      "breeding": 7632,
      "vaccine": 7633,
      "declined": 7634,
      "cognitive": 7635,
      "settlement": 7636,
      "neighborhood": 7637,
      "lympho": 7638,
      "instructions": 7639,
      "imperial": 7640,
      "enzyme": 7641,
      "exercises": 7642,
      "lonely": 7643,
      "adhesive": 7644,
      "volunteers": 7645,
      "inspired": 7646,
      "prolifer": 7647,
      "zealand": 7648,
      "vulnerable": 7649,
      "suicide": 7650,
      "jackson": 7651,
      "49": 7652,
      "57": 7653,
      "77": 7654,
      "flies": 7655,
      "gut": 7656,
      "gian": 7657,
      "hut": 7658,
      "hide": 7659,
      "jie": 7660,
      "juni": 7661,
      "kins": 7662,
      "mates": 7663,
      "pap": 7664,
      "pour": 7665,
      "rings": 7666,
      "sending": 7667,
      "sizes": 7668,
      "tb": 7669,
      "vor": 7670,
      "vital": 7671,
      "xx": 7672,
      "zard": 7673,
      "inform": 7674,
      "endu": 7675,
      "stag": 7676,
      "starch": 7677,
      "alarm": 7678,
      "iser": 7679,
      "asi": 7680,
      "chester": 7681,
      "metr": 7682,
      "deleg": 7683,
      "cow": 7684,
      "loves": 7685,
      "lowest": 7686,
      "locked": 7687,
      "cepti": 7688,
      "prolong": 7689,
      "adian": 7690,
      "adata": 7691,
      "imer": 7692,
      "teles": 7693,
      "unlikely": 7694,
      "unexpected": 7695,
      "moscow": 7696,
      "ares": 7697,
      "liang": 7698,
      "amine": 7699,
      "territ": 7700,
      "neo": 7701,
      "plication": 7702,
      "tide": 7703,
      "outcome": 7704,
      "outdoor": 7705,
      "duct": 7706,
      "ller": 7707,
      "oppon": 7708,
      "actor": 7709,
      "agu": 7710,
      "clam": 7711,
      "earn": 7712,
      "disper": 7713,
      "disput": 7714,
      "portfo": 7715,
      "elite": 7716,
      "elabor": 7717,
      "spects": 7718,
      "bleed": 7719,
      "pleased": 7720,
      "woven": 7721,
      "logically": 7722,
      "spare": 7723,
      "partition": 7724,
      "workshop": 7725,
      "flour": 7726,
      "basically": 7727,
      "shots": 7728,
      "ptic": 7729,
      "sulfur": 7730,
      "sons": 7731,
      "funny": 7732,
      "visited": 7733,
      "visiting": 7734,
      "generating": 7735,
      "generator": 7736,
      "opera": 7737,
      "operational": 7738,
      "wards": 7739,
      "economies": 7740,
      "merits": 7741,
      "banking": 7742,
      "classroom": 7743,
      "flux": 7744,
      "linking": 7745,
      "tons": 7746,
      "scenery": 7747,
      "nevertheless": 7748,
      "buried": 7749,
      "muslim": 7750,
      "bao": 7751,
      "petrole": 7752,
      "limits": 7753,
      "gotten": 7754,
      "possibly": 7755,
      "metall": 7756,
      "metap": 7757,
      "strengthening": 7758,
      "casting": 7759,
      "1997": 7760,
      "axial": 7761,
      "scientist": 7762,
      "greek": 7763,
      "wooden": 7764,
      "labour": 7765,
      "equipped": 7766,
      "squad": 7767,
      "writers": 7768,
      "roller": 7769,
      "rolled": 7770,
      "boxes": 7771,
      "ruled": 7772,
      "commands": 7773,
      "quantum": 7774,
      "precious": 7775,
      "novels": 7776,
      "satisfact": 7777,
      "satisfy": 7778,
      "modification": 7779,
      "clubs": 7780,
      "attracted": 7781,
      "missile": 7782,
      "machinery": 7783,
      "assistant": 7784,
      "attempts": 7785,
      "mutual": 7786,
      "frozen": 7787,
      "shortage": 7788,
      "convention": 7789,
      "absorb": 7790,
      "constantly": 7791,
      "pleasant": 7792,
      "tianjin": 7793,
      "robust": 7794,
      "deployment": 7795,
      "appreciate": 7796,
      "surrounding": 7797,
      "kidney": 7798,
      "deficit": 7799,
      "lucky": 7800,
      "thirty": 7801,
      "catalyst": 7802,
      "suffering": 7803,
      "trigger": 7804,
      "phosphor": 7805,
      "moisture": 7806,
      "tourists": 7807,
      "dictionary": 7808,
      "errors": 7809,
      "fierce": 7810,
      "afghanistan": 7811,
      "founder": 7812,
      "acknowled": 7813,
      "furnace": 7814,
      "volatile": 7815,
      "thelial": 7816,
      "antenna": 7817,
      "enormous": 7818,
      "refuge": 7819,
      "corrosion": 7820,
      "oscill": 7821,
      "territory": 7822,
      "petroleum": 7823,
      ");": 7824,
      "53": 7825,
      "bilities": 7826,
      "backs": 7827,
      "cence": 7828,
      "din": 7829,
      "echo": 7830,
      "fate": 7831,
      "hay": 7832,
      "hier": 7833,
      "knit": 7834,
      "lf": 7835,
      "loud": 7836,
      "meng": 7837,
      "phe": 7838,
      "pist": 7839,
      "pical": 7840,
      "pip": 7841,
      "pitch": 7842,
      "sour": 7843,
      "tation": 7844,
      "tut": 7845,
      "till": 7846,
      "vate": 7847,
      "vical": 7848,
      "zon": 7849,
      "zes": 7850,
      "invo": 7851,
      "inspir": 7852,
      "theme": 7853,
      "rec": 7854,
      "references": 7855,
      "atically": 7856,
      "encry": 7857,
      "ston": 7858,
      "stations": 7859,
      "stamp": 7860,
      "align": 7861,
      "alert": 7862,
      "tomb": 7863,
      "iti": 7864,
      "itarian": 7865,
      "icting": 7866,
      "asound": 7867,
      "aside": 7868,
      "chop": 7869,
      "mei": 7870,
      "begun": 7871,
      "hex": 7872,
      "hemo": 7873,
      "convin": 7874,
      "prohib": 7875,
      "adium": 7876,
      "tetra": 7877,
      "liked": 7878,
      "perme": 7879,
      "perce": 7880,
      "persu": 7881,
      "dioxide": 7882,
      "plating": 7883,
      "ria": 7884,
      "aller": 7885,
      "quad": 7886,
      "mann": 7887,
      "duck": 7888,
      "cant": 7889,
      "erson": 7890,
      "worn": 7891,
      "worried": 7892,
      "emission": 7893,
      "agers": 7894,
      "ifies": 7895,
      "ifier": 7896,
      "complet": 7897,
      "comprises": 7898,
      "omy": 7899,
      "tran": 7900,
      "ause": 7901,
      "trait": 7902,
      "php": 7903,
      "prefect": 7904,
      "specim": 7905,
      "brick": 7906,
      "ials": 7907,
      "whenever": 7908,
      "grab": 7909,
      "grave": 7910,
      "spur": 7911,
      "miner": 7912,
      "worker": 7913,
      "interference": 7914,
      "parliam": 7915,
      "cycles": 7916,
      "tained": 7917,
      "epic": 7918,
      "avo": 7919,
      "charles": 7920,
      "chances": 7921,
      "clever": 7922,
      "cervical": 7923,
      "designers": 7924,
      "fired": 7925,
      "lifetime": 7926,
      "smith": 7927,
      "capabilities": 7928,
      "donald": 7929,
      "jose": 7930,
      "operators": 7931,
      "identifying": 7932,
      "economics": 7933,
      "template": 7934,
      "viewed": 7935,
      "wars": 7936,
      "statements": 7937,
      "lighting": 7938,
      "owners": 7939,
      "publishing": 7940,
      "lined": 7941,
      "mira": 7942,
      "directed": 7943,
      "----": 7944,
      "secondly": 7945,
      "treatments": 7946,
      "pulling": 7947,
      "potentially": 7948,
      "purposes": 7949,
      "locally": 7950,
      "refrig": 7951,
      "grounds": 7952,
      "aimed": 7953,
      "aneously": 7954,
      "automobile": 7955,
      "websites": 7956,
      "statist": 7957,
      "thorough": 7958,
      "metadata": 7959,
      "microsoft": 7960,
      "improvements": 7961,
      "percentage": 7962,
      "expense": 7963,
      "sliding": 7964,
      "sensors": 7965,
      "specifications": 7966,
      "financing": 7967,
      "digit": 7968,
      "reaches": 7969,
      "towns": 7970,
      "meets": 7971,
      "promoting": 7972,
      "sixth": 7973,
      "focusing": 7974,
      "heavily": 7975,
      "breakthrough": 7976,
      "coverage": 7977,
      "buyer": 7978,
      "packed": 7979,
      "meetings": 7980,
      "departments": 7981,
      "bride": 7982,
      "paintings": 7983,
      "injured": 7984,
      "recognize": 7985,
      "participation": 7986,
      "thyroid": 7987,
      "packing": 7988,
      "painful": 7989,
      "circuits": 7990,
      "regardless": 7991,
      "enjoyed": 7992,
      "substance": 7993,
      "courage": 7994,
      "argument": 7995,
      "immediate": 7996,
      "pushing": 7997,
      "contributions": 7998,
      "nickel": 7999,
      "cameras": 8000,
      "switching": 8001,
      "awards": 8002,
      "audio": 8003,
      "madrid": 8004,
      "flexibility": 8005,
      "severely": 8006,
      "violent": 8007,
      "1970": 8008,
      "routing": 8009,
      "shorter": 8010,
      "summarized": 8011,
      "cardio": 8012,
      "sacri": 8013,
      "navigation": 8014,
      "drinks": 8015,
      "bolt": 8016,
      "chloride": 8017,
      "deposits": 8018,
      "suscepti": 8019,
      "captured": 8020,
      "nasa": 8021,
      "memories": 8022,
      "pillow": 8023,
      "attached": 8024,
      "coordinate": 8025,
      "municip": 8026,
      "chromato": 8027,
      "swimming": 8028,
      "barrier": 8029,
      "neutral": 8030,
      "prominent": 8031,
      "criteria": 8032,
      "robots": 8033,
      "yarn": 8034,
      "combustion": 8035,
      "acupun": 8036,
      "prognosis": 8037,
      "',": 8038,
      "43": 8039,
      "83": 8040,
      "affe": 8041,
      "aero": 8042,
      "bod": 8043,
      "bible": 8044,
      "bbc": 8045,
      "cen": 8046,
      "dating": 8047,
      "gif": 8048,
      "hed": 8049,
      "hate": 8050,
      "hills": 8051,
      "jane": 8052,
      "liness": 8053,
      "mum": 8054,
      "oy": 8055,
      "ole": 8056,
      "pend": 8057,
      "rt": 8058,
      "rus": 8059,
      "rous": 8060,
      "rick": 8061,
      "sap": 8062,
      "schem": 8063,
      "tsu": 8064,
      "tte": 8065,
      "tap": 8066,
      "tack": 8067,
      "ui": 8068,
      "vapor": 8069,
      "inn": 8070,
      "inherent": 8071,
      "rey": 8072,
      "resu": 8073,
      "recept": 8074,
      "retire": 8075,
      "stam": 8076,
      "stones": 8077,
      "isite": 8078,
      "totally": 8079,
      "icul": 8080,
      "icular": 8081,
      "ros": 8082,
      "ented": 8083,
      "seats": 8084,
      "merely": 8085,
      "ilation": 8086,
      "lysis": 8087,
      "hemor": 8088,
      "igan": 8089,
      "confirm": 8090,
      "console": 8091,
      "admit": 8092,
      "sovere": 8093,
      "iders": 8094,
      "verte": 8095,
      "unity": 8096,
      "irregular": 8097,
      "peas": 8098,
      "powered": 8099,
      "liances": 8100,
      "shak": 8101,
      "diverse": 8102,
      "resign": 8103,
      "max": 8104,
      "rip": 8105,
      "rium": 8106,
      "essay": 8107,
      "tape": 8108,
      "manip": 8109,
      "tibet": 8110,
      "acted": 8111,
      "agen": 8112,
      "fool": 8113,
      "izations": 8114,
      "earned": 8115,
      "tracking": 8116,
      "disappeared": 8117,
      "phan": 8118,
      "creativity": 8119,
      "somewhat": 8120,
      "intended": 8121,
      "myo": 8122,
      "nowad": 8123,
      "wore": 8124,
      "blend": 8125,
      "coring": 8126,
      "correction": 8127,
      "gray": 8128,
      "iah": 8129,
      "mongo": 8130,
      "interpre": 8131,
      "flights": 8132,
      "counting": 8133,
      "curves": 8134,
      "underlying": 8135,
      "analyse": 8136,
      "mainland": 8137,
      "patri": 8138,
      "trium": 8139,
      "lifestyle": 8140,
      "everyday": 8141,
      "everybody": 8142,
      "helic": 8143,
      "handsome": 8144,
      "tennis": 8145,
      "pute": 8146,
      "morgan": 8147,
      "ventric": 8148,
      "20th": 8149,
      "varie": 8150,
      "missed": 8151,
      "apped": 8152,
      "summit": 8153,
      "nerv": 8154,
      "dramatic": 8155,
      "filtr": 8156,
      "farmer": 8157,
      "cules": 8158,
      "additive": 8159,
      "grows": 8160,
      "fraud": 8161,
      "profits": 8162,
      "glut": 8163,
      "countryside": 8164,
      "passengers": 8165,
      "drops": 8166,
      "winners": 8167,
      "potato": 8168,
      "purple": 8169,
      "communities": 8170,
      "antibi": 8171,
      "monthly": 8172,
      "ticket": 8173,
      "benz": 8174,
      "bench": 8175,
      "aiming": 8176,
      "princess": 8177,
      "lingu": 8178,
      "payments": 8179,
      "automation": 8180,
      "metres": 8181,
      "generalized": 8182,
      "palest": 8183,
      "texture": 8184,
      "dedu": 8185,
      "southwest": 8186,
      "floating": 8187,
      "fallen": 8188,
      "castle": 8189,
      "1993": 8190,
      "biology": 8191,
      "woods": 8192,
      "necessarily": 8193,
      "electronics": 8194,
      "crust": 8195,
      "fruits": 8196,
      "variations": 8197,
      "fairy": 8198,
      "talked": 8199,
      "hammer": 8200,
      "destination": 8201,
      "chapters": 8202,
      "hospitals": 8203,
      "occurs": 8204,
      "diesel": 8205,
      "constructing": 8206,
      "emerged": 8207,
      "rehabil": 8208,
      "regarding": 8209,
      "weakness": 8210,
      "latter": 8211,
      "blowing": 8212,
      "assistance": 8213,
      "carries": 8214,
      "announcement": 8215,
      "wastewater": 8216,
      "registration": 8217,
      "schema": 8218,
      "valued": 8219,
      "prophe": 8220,
      "initiative": 8221,
      "delayed": 8222,
      "navy": 8223,
      "revolutionary": 8224,
      "honey": 8225,
      "cooked": 8226,
      "shenzhen": 8227,
      "murder": 8228,
      "alogue": 8229,
      "taiwan": 8230,
      "suspended": 8231,
      "ownership": 8232,
      "assigned": 8233,
      "cabine": 8234,
      "hepatitis": 8235,
      "stimulus": 8236,
      "radical": 8237,
      "louis": 8238,
      "toxicity": 8239,
      "pearl": 8240,
      "rabbit": 8241,
      "harmful": 8242,
      "gastric": 8243,
      "harmonious": 8244,
      "colored": 8245,
      "squee": 8246,
      "fertilizer": 8247,
      "leakage": 8248,
      "columns": 8249,
      "sql": 8250,
      "ceramic": 8251,
      "disturb": 8252,
      "tremend": 8253,
      "recession": 8254,
      "glucose": 8255,
      "deputy": 8256,
      "posterior": 8257,
      "irrigation": 8258,
      "controversial": 8259,
      "satisfaction": 8260,
      "parliament": 8261,
      "sovereign": 8262,
      ".'": 8263,
      "150": 8264,
      "67": 8265,
      "89": 8266,
      "91": 8267,
      "bind": 8268,
      "cured": 8269,
      "dates": 8270,
      "dict": 8271,
      "hplc": 8272,
      "iation": 8273,
      "jur": 8274,
      "kou": 8275,
      "lily": 8276,
      "ng": 8277,
      "oct": 8278,
      "ores": 8279,
      "pent": 8280,
      "qa": 8281,
      "sla": 8282,
      "vio": 8283,
      "wides": 8284,
      "iny": 8285,
      "incent": 8286,
      "inations": 8287,
      "reo": 8288,
      "recur": 8289,
      "resolved": 8290,
      "enables": 8291,
      "stup": 8292,
      "oro": 8293,
      "editing": 8294,
      "ardi": 8295,
      "toy": 8296,
      "lei": 8297,
      "lester": 8298,
      "rol": 8299,
      "rocket": 8300,
      "seam": 8301,
      "ilib": 8302,
      "cob": 8303,
      "coated": 8304,
      "cooperative": 8305,
      "forty": 8306,
      "hey": 8307,
      "heated": 8308,
      "supre": 8309,
      "conform": 8310,
      "adults": 8311,
      "impression": 8312,
      "soviet": 8313,
      "tect": 8314,
      "verified": 8315,
      "utter": 8316,
      "ammon": 8317,
      "sher": 8318,
      "shire": 8319,
      "mapping": 8320,
      "pledge": 8321,
      "rival": 8322,
      "apps": 8323,
      "bye": 8324,
      "hop": 8325,
      "hoped": 8326,
      "dot": 8327,
      "tags": 8328,
      "canadian": 8329,
      "emissions": 8330,
      "agend": 8331,
      "paired": 8332,
      "boast": 8333,
      "astro": 8334,
      "omer": 8335,
      "fog": 8336,
      "foss": 8337,
      "dispos": 8338,
      "dispute": 8339,
      "pron": 8340,
      "prone": 8341,
      "aches": 8342,
      "portal": 8343,
      "spell": 8344,
      "marx": 8345,
      "logging": 8346,
      "grades": 8347,
      "graft": 8348,
      "systematic": 8349,
      "interval": 8350,
      "intermedi": 8351,
      "berlin": 8352,
      "cao": 8353,
      "caution": 8354,
      "producer": 8355,
      "relatives": 8356,
      "cylin": 8357,
      "engines": 8358,
      "guil": 8359,
      "medication": 8360,
      "colon": 8361,
      "surfaces": 8362,
      "charity": 8363,
      "delight": 8364,
      "shouldn": 8365,
      "versions": 8366,
      "serves": 8367,
      "subscri": 8368,
      "vised": 8369,
      "economists": 8370,
      "otics": 8371,
      "malaria": 8372,
      "stuck": 8373,
      "cule": 8374,
      "governing": 8375,
      "headed": 8376,
      "classified": 8377,
      "waist": 8378,
      "appliances": 8379,
      "equilib": 8380,
      "functionality": 8381,
      "specially": 8382,
      "complement": 8383,
      "humanity": 8384,
      "glac": 8385,
      "passes": 8386,
      "eleph": 8387,
      "purity": 8388,
      "pursuit": 8389,
      "topics": 8390,
      "salary": 8391,
      "bonding": 8392,
      "tickets": 8393,
      "refuse": 8394,
      "reflection": 8395,
      "officially": 8396,
      "entering": 8397,
      "distra": 8398,
      "advances": 8399,
      "movements": 8400,
      "silent": 8401,
      "tuber": 8402,
      "borne": 8403,
      "minds": 8404,
      "jiu": 8405,
      "boost": 8406,
      "alongside": 8407,
      "existed": 8408,
      "connecting": 8409,
      "mothers": 8410,
      "bike": 8411,
      "defend": 8412,
      "sentiment": 8413,
      "evaluated": 8414,
      "defining": 8415,
      "constitu": 8416,
      "batter": 8417,
      "concerning": 8418,
      "questionna": 8419,
      "cruel": 8420,
      "promoted": 8421,
      "availability": 8422,
      "ville": 8423,
      "checked": 8424,
      "reviews": 8425,
      "telephone": 8426,
      "dealing": 8427,
      "tactics": 8428,
      "liquor": 8429,
      "metals": 8430,
      "collective": 8431,
      "transferred": 8432,
      "fatty": 8433,
      "glasses": 8434,
      "stayed": 8435,
      "staying": 8436,
      "gains": 8437,
      "babies": 8438,
      "drying": 8439,
      "cros": 8440,
      "electromagnetic": 8441,
      "invented": 8442,
      "crimes": 8443,
      "excuse": 8444,
      "reflects": 8445,
      "reflected": 8446,
      "dynasties": 8447,
      "substit": 8448,
      "substances": 8449,
      "executed": 8450,
      "pushed": 8451,
      "contributed": 8452,
      "molecules": 8453,
      "sinus": 8454,
      "missions": 8455,
      "hypertension": 8456,
      "dressed": 8457,
      "nurse": 8458,
      "saturated": 8459,
      "journalists": 8460,
      "manufacturers": 8461,
      "olympics": 8462,
      "replacement": 8463,
      "climbing": 8464,
      "calibr": 8465,
      "candidate": 8466,
      "suspension": 8467,
      "pilot": 8468,
      "infant": 8469,
      "promising": 8470,
      "scholar": 8471,
      "premium": 8472,
      "anticip": 8473,
      "beneath": 8474,
      "administrative": 8475,
      "lymph": 8476,
      "jumped": 8477,
      "slide": 8478,
      "collapse": 8479,
      "pillar": 8480,
      "arrested": 8481,
      "zhejiang": 8482,
      "appointment": 8483,
      "wolf": 8484,
      "embedded": 8485,
      "florida": 8486,
      "rejected": 8487,
      "professionals": 8488,
      "intestinal": 8489,
      "settled": 8490,
      "restricted": 8491,
      "ultrasonic": 8492,
      "degradation": 8493,
      "indonesia": 8494,
      "retrospectively": 8495,
      "toilet": 8496,
      "encountered": 8497,
      "dialect": 8498,
      "regression": 8499,
      "junior": 8500,
      "portfolio": 8501,
      "hierarch": 8502,
      "acupuncture": 8503,
      "nowadays": 8504,
      "widespread": 8505,
      "equilibrium": 8506,
      "'.": 8507,
      "2nd": 8508,
      "41": 8509,
      "85": 8510,
      ":\"": 8511,
      "ckets": 8512,
      "cache": 8513,
      "emotions": 8514,
      "fc": 8515,
      "gig": 8516,
      "gum": 8517,
      "gong": 8518,
      "gments": 8519,
      "ggling": 8520,
      "hil": 8521,
      "hack": 8522,
      "hired": 8523,
      "hiding": 8524,
      "iver": 8525,
      "iphone": 8526,
      "jen": 8527,
      "kun": 8528,
      "len": 8529,
      "lact": 8530,
      "nap": 8531,
      "oste": 8532,
      "pd": 8533,
      "pand": 8534,
      "pens": 8535,
      "rine": 8536,
      "rative": 8537,
      "rmb": 8538,
      "sab": 8539,
      "sought": 8540,
      "sword": 8541,
      "tate": 8542,
      "uke": 8543,
      "vary": 8544,
      "wider": 8545,
      "yue": 8546,
      "ini": 8547,
      "inian": 8548,
      "anom": 8549,
      "retain": 8550,
      "reactive": 8551,
      "represented": 8552,
      "returning": 8553,
      "erup": 8554,
      "atl": 8555,
      "enforcement": 8556,
      "ala": 8557,
      "allo": 8558,
      "alter": 8559,
      "alliance": 8560,
      "eda": 8561,
      "edit": 8562,
      "ander": 8563,
      "arc": 8564,
      "itched": 8565,
      "chant": 8566,
      "sewage": 8567,
      "melo": 8568,
      "beef": 8569,
      "loving": 8570,
      "ceo": 8571,
      "rac": 8572,
      "adam": 8573,
      "impress": 8574,
      "idu": 8575,
      "whis": 8576,
      "unfortun": 8577,
      "arer": 8578,
      "abra": 8579,
      "abdomin": 8580,
      "liest": 8581,
      "ambit": 8582,
      "fears": 8583,
      "uls": 8584,
      "urged": 8585,
      "shun": 8586,
      "shout": 8587,
      "acking": 8588,
      "dip": 8589,
      "distill": 8590,
      "resort": 8591,
      "exports": 8592,
      "plications": 8593,
      "rio": 8594,
      "quasi": 8595,
      "odes": 8596,
      "hotels": 8597,
      "cia": 8598,
      "emit": 8599,
      "agencies": 8600,
      "sav": 8601,
      "porous": 8602,
      "compass": 8603,
      "trauma": 8604,
      "disappear": 8605,
      "discharge": 8606,
      "pher": 8607,
      "somewhere": 8608,
      "intention": 8609,
      "thereby": 8610,
      "serial": 8611,
      "fake": 8612,
      "mars": 8613,
      "marking": 8614,
      "strand": 8615,
      "spons": 8616,
      "intervent": 8617,
      "anywhere": 8618,
      "overnight": 8619,
      "developer": 8620,
      "develops": 8621,
      "buck": 8622,
      "choices": 8623,
      "charging": 8624,
      "chants": 8625,
      "substrate": 8626,
      "turbul": 8627,
      "simul": 8628,
      "steep": 8629,
      "crush": 8630,
      "needle": 8631,
      "dont": 8632,
      "joe": 8633,
      "singer": 8634,
      "volunt": 8635,
      "otro": 8636,
      "hyde": 8637,
      "virtu": 8638,
      "lightning": 8639,
      "rants": 8640,
      "publish": 8641,
      "writes": 8642,
      "kindness": 8643,
      "lining": 8644,
      "drama": 8645,
      "nami": 8646,
      "specify": 8647,
      "condens": 8648,
      "protecting": 8649,
      "glory": 8650,
      "drought": 8651,
      "winner": 8652,
      "ordination": 8653,
      "brains": 8654,
      "hardly": 8655,
      "hardness": 8656,
      "senate": 8657,
      "bones": 8658,
      "locate": 8659,
      "circular": 8660,
      "sunshine": 8661,
      "midfield": 8662,
      "musical": 8663,
      "reasoning": 8664,
      "activated": 8665,
      "keeps": 8666,
      "divide": 8667,
      "coupled": 8668,
      "scott": 8669,
      "containers": 8670,
      "walks": 8671,
      "tender": 8672,
      "polymor": 8673,
      "polysacchar": 8674,
      "engineers": 8675,
      "sensing": 8676,
      "ginger": 8677,
      "torn": 8678,
      "1994": 8679,
      "1999": 8680,
      "amazon": 8681,
      "preventing": 8682,
      "hollow": 8683,
      "masses": 8684,
      "fairly": 8685,
      "adopts": 8686,
      "implementing": 8687,
      "similarly": 8688,
      "spots": 8689,
      "affecting": 8690,
      "conception": 8691,
      "penalty": 8692,
      "eaten": 8693,
      "adjusted": 8694,
      "directions": 8695,
      "acceptable": 8696,
      "acceptance": 8697,
      "countermeasures": 8698,
      "sandy": 8699,
      "fitness": 8700,
      "medicines": 8701,
      "geneous": 8702,
      "johnson": 8703,
      "satisfactory": 8704,
      "wishes": 8705,
      "ridge": 8706,
      "dominated": 8707,
      "picking": 8708,
      "peaceful": 8709,
      "reveals": 8710,
      "atoms": 8711,
      "textile": 8712,
      "ttp": 8713,
      "argue": 8714,
      "formulas": 8715,
      "molecule": 8716,
      "mistakes": 8717,
      "punishment": 8718,
      "licens": 8719,
      "awarded": 8720,
      "insulation": 8721,
      "survive": 8722,
      "comparative": 8723,
      "expanded": 8724,
      "pigs": 8725,
      "neighbour": 8726,
      "sperm": 8727,
      "chips": 8728,
      "repeat": 8729,
      "accelerate": 8730,
      "ingredient": 8731,
      "liberal": 8732,
      "lifted": 8733,
      "bowl": 8734,
      "aluminium": 8735,
      "convey": 8736,
      "prayer": 8737,
      "replied": 8738,
      "beneficial": 8739,
      "absence": 8740,
      "insects": 8741,
      "victims": 8742,
      "ignored": 8743,
      "conversation": 8744,
      "precisely": 8745,
      "elderly": 8746,
      "wrapped": 8747,
      "uncertainty": 8748,
      "aperture": 8749,
      "influenza": 8750,
      "chongqing": 8751,
      "fiscal": 8752,
      "semantic": 8753,
      "hetero": 8754,
      "eclipse": 8755,
      "acoustic": 8756,
      "bicycle": 8757,
      "fantasy": 8758,
      "stairs": 8759,
      "proliferation": 8760,
      "bleeding": 8761,
      "tutor": 8762,
      "prefecture": 8763,
      "refriger": 8764,
      "municipal": 8765,
      "hemorrha": 8766,
      "myocardi": 8767,
      "helicop": 8768,
      "varieties": 8769,
      "nervous": 8770,
      "cylinder": 8771,
      "250": 8772,
      "3rd": 8773,
      "66": 8774,
      "aa": 8775,
      "aus": 8776,
      "bm": 8777,
      "bust": 8778,
      "cous": 8779,
      "ctomy": 8780,
      "dul": 8781,
      "dys": 8782,
      "dash": 8783,
      "ethan": 8784,
      "eager": 8785,
      "fen": 8786,
      "fted": 8787,
      "gation": 8788,
      "gps": 8789,
      "gross": 8790,
      "jon": 8791,
      "juan": 8792,
      "jah": 8793,
      "kiss": 8794,
      "mall": 8795,
      "pg": 8796,
      "pier": 8797,
      "pines": 8798,
      "riding": 8799,
      "ske": 8800,
      "sang": 8801,
      "sip": 8802,
      "scr": 8803,
      "twel": 8804,
      "ulose": 8805,
      "vard": 8806,
      "wins": 8807,
      "xuan": 8808,
      "thum": 8809,
      "infr": 8810,
      "ante": 8811,
      "anchor": 8812,
      "resh": 8813,
      "recall": 8814,
      "reactions": 8815,
      "resolve": 8816,
      "recycl": 8817,
      "reproductive": 8818,
      "ende": 8819,
      "enment": 8820,
      "envelo": 8821,
      "sten": 8822,
      "stun": 8823,
      "stated": 8824,
      "alan": 8825,
      "edition": 8826,
      "arctic": 8827,
      "tox": 8828,
      "itar": 8829,
      "itudes": 8830,
      "icon": 8831,
      "asth": 8832,
      "asph": 8833,
      "chim": 8834,
      "chri": 8835,
      "mete": 8836,
      "melan": 8837,
      "deem": 8838,
      "destructive": 8839,
      "coin": 8840,
      "lyn": 8841,
      "hell": 8842,
      "healing": 8843,
      "rage": 8844,
      "suspect": 8845,
      "consolid": 8846,
      "probe": 8847,
      "adi": 8848,
      "admir": 8849,
      "geting": 8850,
      "mos": 8851,
      "uter": 8852,
      "irical": 8853,
      "pets": 8854,
      "pod": 8855,
      "poet": 8856,
      "pocket": 8857,
      "abras": 8858,
      "liability": 8859,
      "perfusion": 8860,
      "perception": 8861,
      "fem": 8862,
      "feather": 8863,
      "uri": 8864,
      "shallow": 8865,
      "accompany": 8866,
      "differ": 8867,
      "exchanges": 8868,
      "dop": 8869,
      "llen": 8870,
      "opath": 8871,
      "cler": 8872,
      "artz": 8873,
      "renal": 8874,
      "bore": 8875,
      "elf": 8876,
      "specul": 8877,
      "jean": 8878,
      "grim": 8879,
      "desired": 8880,
      "centuries": 8881,
      "correlated": 8882,
      "cortex": 8883,
      "monary": 8884,
      "bases": 8885,
      "parad": 8886,
      "parti": 8887,
      "ptions": 8888,
      "cathe": 8889,
      "reland": 8890,
      "okay": 8891,
      "epide": 8892,
      "aved": 8893,
      "lace": 8894,
      "underwater": 8895,
      "guiding": 8896,
      "surplus": 8897,
      "mayor": 8898,
      "transcri": 8899,
      "transparent": 8900,
      "transplantation": 8901,
      "servant": 8902,
      "tale": 8903,
      "mats": 8904,
      "matters": 8905,
      "visions": 8906,
      "viscos": 8907,
      "smiling": 8908,
      "muco": 8909,
      "signing": 8910,
      "economical": 8911,
      "investments": 8912,
      "whereas": 8913,
      "rectangular": 8914,
      "males": 8915,
      "viral": 8916,
      "cried": 8917,
      "suppose": 8918,
      "skir": 8919,
      "ranked": 8920,
      "personally": 8921,
      "gao": 8922,
      "praise": 8923,
      "instances": 8924,
      "legally": 8925,
      "bedroom": 8926,
      "truck": 8927,
      "cultures": 8928,
      "responses": 8929,
      "barrel": 8930,
      "facial": 8931,
      "deterior": 8932,
      "luo": 8933,
      "lubr": 8934,
      "confess": 8935,
      "posted": 8936,
      "straw": 8937,
      "influential": 8938,
      "expects": 8939,
      "minded": 8940,
      "socialist": 8941,
      "palace": 8942,
      "expenses": 8943,
      "extracted": 8944,
      "establishing": 8945,
      "presidential": 8946,
      "achieving": 8947,
      "stepped": 8948,
      "drum": 8949,
      "gasoline": 8950,
      "magne": 8951,
      "fails": 8952,
      "planted": 8953,
      "modernization": 8954,
      "probability": 8955,
      "bridges": 8956,
      "winding": 8957,
      "screening": 8958,
      "fathers": 8959,
      "ogonal": 8960,
      "subjective": 8961,
      "vitation": 8962,
      "continuing": 8963,
      "remaining": 8964,
      "reportedly": 8965,
      "collision": 8966,
      "representatives": 8967,
      "peninsul": 8968,
      "fatal": 8969,
      "villages": 8970,
      "theorem": 8971,
      "brands": 8972,
      "efficiently": 8973,
      "thesia": 8974,
      "decreases": 8975,
      "tricks": 8976,
      "emerging": 8977,
      "packet": 8978,
      "favour": 8979,
      "gardens": 8980,
      "guns": 8981,
      "maintained": 8982,
      "texas": 8983,
      "attractive": 8984,
      "yoga": 8985,
      "evolved": 8986,
      "sleeping": 8987,
      "arrival": 8988,
      "elsewhere": 8989,
      "carriage": 8990,
      "nurses": 8991,
      "improves": 8992,
      "register": 8993,
      "documentation": 8994,
      "troubles": 8995,
      "australian": 8996,
      "sustained": 8997,
      "crystals": 8998,
      "convenience": 8999,
      "referred": 9000,
      "thrown": 9001,
      "certificates": 9002,
      "occupied": 9003,
      "distinctive": 9004,
      "bilateral": 9005,
      "ambass": 9006,
      "bathroom": 9007,
      "rhea": 9008,
      "challenging": 9009,
      "shirts": 9010,
      "surrounded": 9011,
      "vacation": 9012,
      "deficiency": 9013,
      "fertility": 9014,
      "ultrasound": 9015,
      "preferred": 9016,
      "predictable": 9017,
      "exploring": 9018,
      "pregnant": 9019,
      "recommendations": 9020,
      "diplomatic": 9021,
      "quoted": 9022,
      "knee": 9023,
      "desktop": 9024,
      "excessive": 9025,
      "blessed": 9026,
      "pumps": 9027,
      "phrase": 9028,
      "assemble": 9029,
      "championship": 9030,
      "terrible": 9031,
      "inflammation": 9032,
      "discrimination": 9033,
      "provinces": 9034,
      "pneumonia": 9035,
      "orthogonal": 9036,
      "athletes": 9037,
      "substantial": 9038,
      "fabrics": 9039,
      "nutrient": 9040,
      "enlightenment": 9041,
      "galaxy": 9042,
      "confucian": 9043,
      "ribbon": 9044,
      "soluble": 9045,
      "adequate": 9046,
      "drunk": 9047,
      "infectious": 9048,
      "subsequent": 9049,
      "minerals": 9050,
      "tsunami": 9051,
      "triumph": 9052,
      "rehabilitation": 9053,
      "cabinet": 9054,
      "stupid": 9055,
      "agenda": 9056,
      "fossil": 9057,
      "pronoun": 9058,
      "abdominal": 9059,
      "ambitious": 9060,
      "viscosity": 9061,
      "peninsula": 9062,
      "72": 9063,
      "82": 9064,
      "84": 9065,
      "92": 9066,
      "bend": 9067,
      "bally": 9068,
      "bills": 9069,
      "cation": 9070,
      "ein": 9071,
      "fred": 9072,
      "gil": 9073,
      "gab": 9074,
      "glow": 9075,
      "gases": 9076,
      "gdp": 9077,
      "hk": 9078,
      "hl": 9079,
      "heng": 9080,
      "hire": 9081,
      "jord": 9082,
      "jiao": 9083,
      "kick": 9084,
      "lers": 9085,
      "lind": 9086,
      "md": 9087,
      "mri": 9088,
      "pounds": 9089,
      "sr": 9090,
      "sie": 9091,
      "swo": 9092,
      "sions": 9093,
      "sino": 9094,
      "scoring": 9095,
      "ura": 9096,
      "wich": 9097,
      "yen": 9098,
      "”,": 9099,
      "我们": 9100,
      "inate": 9101,
      "inhal": 9102,
      "inspect": 9103,
      "anhui": 9104,
      "analog": 9105,
      "regre": 9106,
      "remem": 9107,
      "reception": 9108,
      "reporters": 9109,
      "eries": 9110,
      "steno": 9111,
      "alpha": 9112,
      "edi": 9113,
      "edia": 9114,
      "edward": 9115,
      "ara": 9116,
      "arin": 9117,
      "arous": 9118,
      "argent": 9119,
      "tok": 9120,
      "toll": 9121,
      "itud": 9122,
      "icking": 9123,
      "icating": 9124,
      "roo": 9125,
      "rome": 9126,
      "rope": 9127,
      "chuan": 9128,
      "entit": 9129,
      "sealing": 9130,
      "deco": 9131,
      "decent": 9132,
      "deposition": 9133,
      "destruction": 9134,
      "dehyde": 9135,
      "bever": 9136,
      "beings": 9137,
      "coc": 9138,
      "coat": 9139,
      "coordination": 9140,
      "logo": 9141,
      "fork": 9142,
      "celon": 9143,
      "weed": 9144,
      "congrat": 9145,
      "prospects": 9146,
      "advent": 9147,
      "adsor": 9148,
      "adjac": 9149,
      "imports": 9150,
      "solo": 9151,
      "sored": 9152,
      "solit": 9153,
      "idine": 9154,
      "geal": 9155,
      "verify": 9156,
      "usively": 9157,
      "pest": 9158,
      "peel": 9159,
      "amen": 9160,
      "fever": 9161,
      "ula": 9162,
      "neurs": 9163,
      "shim": 9164,
      "combat": 9165,
      "exped": 9166,
      "plu": 9167,
      "rial": 9168,
      "haw": 9169,
      "hast": 9170,
      "aph": 9171,
      "ighters": 9172,
      "dol": 9173,
      "dow": 9174,
      "manchester": 9175,
      "tied": 9176,
      "outcomes": 9177,
      "embo": 9178,
      "embry": 9179,
      "cla": 9180,
      "notion": 9181,
      "notation": 9182,
      "boeing": 9183,
      "endless": 9184,
      "angio": 9185,
      "trun": 9186,
      "trillion": 9187,
      "foster": 9188,
      "ears": 9189,
      "trap": 9190,
      "traction": 9191,
      "disc": 9192,
      "disser": 9193,
      "discount": 9194,
      "credi": 9195,
      "portable": 9196,
      "afi": 9197,
      "intu": 9198,
      "prev": 9199,
      "prelim": 9200,
      "yours": 9201,
      "evident": 9202,
      "logra": 9203,
      "blank": 9204,
      "corne": 9205,
      "grape": 9206,
      "strings": 9207,
      "spinal": 9208,
      "mines": 9209,
      "fla": 9210,
      "anyway": 9211,
      "parag": 9212,
      "cavity": 9213,
      "provider": 9214,
      "provisions": 9215,
      "relay": 9216,
      "fulness": 9217,
      "curtain": 9218,
      "cyber": 9219,
      "lecture": 9220,
      "buffe": 9221,
      "lah": 9222,
      "lakers": 9223,
      "papers": 9224,
      "mainstream": 9225,
      "transactions": 9226,
      "thritis": 9227,
      "serving": 9228,
      "servants": 9229,
      "valence": 9230,
      "subway": 9231,
      "subtle": 9232,
      "standardi": 9233,
      "backward": 9234,
      "simulate": 9235,
      "lesions": 9236,
      "crane": 9237,
      "larva": 9238,
      "researches": 9239,
      "investor": 9240,
      "restore": 9241,
      "striker": 9242,
      "insight": 9243,
      "warned": 9244,
      "varies": 9245,
      "realistic": 9246,
      "headquarters": 9247,
      "waited": 9248,
      "applies": 9249,
      "cellulose": 9250,
      "discussing": 9251,
      "fili": 9252,
      "builds": 9253,
      "ballo": 9254,
      "priest": 9255,
      "mike": 9256,
      "tony": 9257,
      "proteins": 9258,
      "ashed": 9259,
      "histo": 9260,
      "glue": 9261,
      "appearing": 9262,
      "pulmonary": 9263,
      "drives": 9264,
      "sincerely": 9265,
      "organisation": 9266,
      "purification": 9267,
      "barcelon": 9268,
      "happening": 9269,
      "voting": 9270,
      "harder": 9271,
      "senator": 9272,
      "specialist": 9273,
      "refresh": 9274,
      "sung": 9275,
      "harsh": 9276,
      "mush": 9277,
      "cracks": 9278,
      "crazy": 9279,
      "strains": 9280,
      "periodic": 9281,
      "fujian": 9282,
      "performances": 9283,
      "safely": 9284,
      "extracts": 9285,
      "recovered": 9286,
      "osity": 9287,
      "receiver": 9288,
      "integral": 9289,
      "1996": 9290,
      "failures": 9291,
      "planting": 9292,
      "critics": 9293,
      "defines": 9294,
      "electrons": 9295,
      "shake": 9296,
      "initially": 9297,
      "actively": 9298,
      "accused": 9299,
      "adopting": 9300,
      "adoption": 9301,
      "mobil": 9302,
      "seasons": 9303,
      "geometry": 9304,
      "shops": 9305,
      "execute": 9306,
      "flew": 9307,
      "ideology": 9308,
      "factories": 9309,
      "pairs": 9310,
      "garbage": 9311,
      "coalition": 9312,
      "macy": 9313,
      "observations": 9314,
      "civilian": 9315,
      "wavelet": 9316,
      "behaviors": 9317,
      "soils": 9318,
      "angeles": 9319,
      "darkness": 9320,
      "platforms": 9321,
      "daniel": 9322,
      "inventory": 9323,
      "erosion": 9324,
      "acquire": 9325,
      "regulating": 9326,
      "regards": 9327,
      "tumors": 9328,
      "ttes": 9329,
      "spreading": 9330,
      "grandfather": 9331,
      "arrive": 9332,
      "concentrated": 9333,
      "independence": 9334,
      "narrative": 9335,
      "assisted": 9336,
      "bacterial": 9337,
      "residual": 9338,
      "routes": 9339,
[...]
