{
  "version": "1.0",
  "truncation": {
    "direction": "Right",
    "max_length": 32,
    "strategy": "LongestFirst",
    "stride": 0
  },
  "padding": {
    "strategy": {
      "Fixed": 32
    },
    "direction": "Right",
    "pad_to_multiple_of": null,
    "pad_id": 3,
    "pad_type_id": 0,
    "pad_token": "[PAD]"
  },
  "added_tokens": [
    {
      "id": 0,
      "content": "[UNK]",
      "single_word": false,
      "lstrip": false,
      "rstrip": false,
      "normalized": false,
      "special": true
    },
    {
      "id": 1,
      "content": "[BOS]",
      "single_word": false,
      "lstrip": false,
      "rstrip": false,
      "normalized": false,
      "special": true
    },
    {
      "id": 2,
      "content": "[EOS]",
      "single_word": false,
      "lstrip": false,
      "rstrip": false,
      "normalized": false,
      "special": true
    },
    {
      "id": 3,
      "content": "[PAD]",
      "single_word": false,
      "lstrip": false,
      "rstrip": false,
      "normalized": false,
      "special": true
    }
  ],
  "normalizer": {
    "type": "Sequence",
    "normalizers": [
      {
        "type": "NFD"
      },
      {
        "type": "Lowercase"
      },
      {
        "type": "StripAccents"
      }
    ]
  },
  "pre_tokenizer": {
    "type": "Metaspace",
    "replacement": "▁",
    "add_prefix_space": true
  },
  "post_processor": {
    "type": "TemplateProcessing",
    "single": [
      {
        "SpecialToken": {
          "id": "[BOS]",
          "type_id": 0
        }
      },
      {
        "Sequence": {
          "id": "A",
          "type_id": 0
        }
      },
      {
        "SpecialToken": {
          "id": "[EOS]",
          "type_id": 0
        }
      }
    ],
    "pair": [
      {
        "Sequence": {
          "id": "A",
          "type_id": 0
        }
      },
      {
        "Sequence": {
          "id": "B",
          "type_id": 1
        }
      }
    ],
    "special_tokens": {
      "[BOS]": {
        "id": "[BOS]",
        "ids": [
          1
        ],
        "tokens": [
          "[BOS]"
        ]
      },
      "[EOS]": {
        "id": "[EOS]",
        "ids": [
          2
        ],
        "tokens": [
          "[EOS]"
        ]
      },
      "[PAD]": {
        "id": "[PAD]",
        "ids": [
          3
        ],
        "tokens": [
          "[PAD]"
        ]
      }
    }
  },
  "decoder": {
    "type": "BPEDecoder",
    "suffix": "</w>"
  },
  "model": {
    "type": "BPE",
    "dropout": null,
    "unk_token": "[UNK]",
    "continuing_subword_prefix": null,
    "end_of_word_suffix": null,
    "fuse_unk": false,
    "byte_fallback": false,
    "vocab": {
      "[UNK]": 0,
      "[BOS]": 1,
      "[EOS]": 2,
      "[PAD]": 3,
      "!": 4,
      "\"": 5,
      "#": 6,
      "$": 7,
      "%": 8,
      "&": 9,
      "'": 10,
      "(": 11,
      ")": 12,
      "*": 13,
      "+": 14,
      ",": 15,
      "-": 16,
      ".": 17,
      "/": 18,
      "0": 19,
      "1": 20,
      "2": 21,
      "3": 22,
      "4": 23,
      "5": 24,
      "6": 25,
      "7": 26,
      "8": 27,
      "9": 28,
      ":": 29,
      ";": 30,
      "<": 31,
      "=": 32,
      ">": 33,
      "?": 34,
      "@": 35,
      "[": 36,
      "\\": 37,
      "]": 38,
      "^": 39,
      "_": 40,
      "`": 41,
      "a": 42,
      "b": 43,
      "c": 44,
      "d": 45,
      "e": 46,
      "f": 47,
      "g": 48,
      "h": 49,
      "i": 50,
      "j": 51,
      "k": 52,
      "l": 53,
      "m": 54,
      "n": 55,
      "o": 56,
      "p": 57,
      "q": 58,
      "r": 59,
      "s": 60,
      "t": 61,
      "u": 62,
      "v": 63,
      "w": 64,
      "x": 65,
      "y": 66,
      "z": 67,
      "{": 68,
      "|": 69,
      "}": 70,
      "~": 71,
      "§": 72,
      "µ": 73,
      "·": 74,
      "¹": 75,
      "»": 76,
      "˙": 77,
      "α": 78,
      "β": 79,
      "γ": 80,
      "δ": 81,
      "ψ": 82,
      "ω": 83,
      "​": 84,
      "–": 85,
      "—": 86,
      "―": 87,
      "‘": 88,
      "’": 89,
      "“": 90,
      "”": 91,
      "•": 92,
      "…": 93,
      "‧": 94,
      "′": 95,
      "℃": 96,
      "→": 97,
      "∙": 98,
      "∶": 99,
      "⊙": 100,
      "①": 101,
      "②": 102,
      "③": 103,
      "⑦": 104,
      "⑺": 105,
      "─": 106,
      "▁": 107,
      "□": 108,
      "▪": 109,
      "△": 110,
      "▽": 111,
      "○": 112,
      "◎": 113,
      "●": 114,
      "★": 115,
      "☆": 116,
      "、": 117,
      "。": 118,
      "〈": 119,
      "〉": 120,
      "《": 121,
      "》": 122,
      "「": 123,
      "」": 124,
      "『": 125,
      "』": 126,
      "【": 127,
      "】": 128,
      "〝": 129,
      "〞": 130,
      "・": 131,
      "䠐": 132,
      "一": 133,
      "丁": 134,
      "七": 135,
      "万": 136,
      "丈": 137,
      "三": 138,
      "上": 139,
      "下": 140,
      "丌": 141,
      "不": 142,
      "与": 143,
      "丐": 144,
      "丑": 145,
      "专": 146,
      "且": 147,
      "世": 148,
      "丘": 149,
      "丙": 150,
      "业": 151,
      "丛": 152,
      "东": 153,
      "丝": 154,
      "丢": 155,
      "两": 156,
      "严": 157,
      "丧": 158,
      "个": 159,
      "丫": 160,
      "中": 161,
      "丰": 162,
      "串": 163,
      "临": 164,
      "丶": 165,
      "丸": 166,
      "丹": 167,
      "为": 168,
      "主": 169,
      "丽": 170,
      "举": 171,
      "乃": 172,
      "久": 173,
      "么": 174,
      "义": 175,
      "之": 176,
      "乌": 177,
      "乍": 178,
      "乎": 179,
      "乏": 180,
      "乐": 181,
      "乒": 182,
      "乓": 183,
      "乔": 184,
      "乖": 185,
      "乘": 186,
      "乙": 187,
      "乜": 188,
      "九": 189,
      "乞": 190,
      "也": 191,
      "习": 192,
      "乡": 193,
      "书": 194,
      "买": 195,
      "乱": 196,
      "乳": 197,
      "乾": 198,
      "了": 199,
      "予": 200,
      "争": 201,
      "事": 202,
      "二": 203,
      "于": 204,
      "亏": 205,
      "云": 206,
      "互": 207,
      "五": 208,
      "井": 209,
      "亘": 210,
      "亚": 211,
      "些": 212,
      "亟": 213,
      "亡": 214,
      "亢": 215,
      "交": 216,
      "亥": 217,
      "亦": 218,
      "产": 219,
      "亨": 220,
      "亩": 221,
      "享": 222,
      "京": 223,
      "亭": 224,
      "亮": 225,
      "亲": 226,
      "亳": 227,
      "亵": 228,
      "人": 229,
      "亿": 230,
      "什": 231,
      "仁": 232,
      "仃": 233,
      "仄": 234,
      "仅": 235,
      "仆": 236,
      "仇": 237,
      "今": 238,
      "介": 239,
      "仍": 240,
      "从": 241,
      "仑": 242,
      "仓": 243,
      "仔": 244,
      "仕": 245,
      "他": 246,
      "仗": 247,
      "付": 248,
      "仙": 249,
      "仟": 250,
      "代": 251,
      "令": 252,
      "以": 253,
      "仪": 254,
      "仫": 255,
      "们": 256,
      "仰": 257,
      "仲": 258,
      "件": 259,
      "价": 260,
      "任": 261,
      "份": 262,
      "仿": 263,
      "企": 264,
      "伉": 265,
      "伊": 266,
      "伍": 267,
      "伎": 268,
      "伏": 269,
      "伐": 270,
      "休": 271,
      "众": 272,
      "优": 273,
      "伙": 274,
      "会": 275,
      "伛": 276,
      "伞": 277,
      "伟": 278,
      "传": 279,
      "伤": 280,
      "伦": 281,
      "伪": 282,
      "伯": 283,
      "估": 284,
      "伱": 285,
      "伴": 286,
      "伶": 287,
      "伸": 288,
      "伺": 289,
      "似": 290,
      "伽": 291,
      "但": 292,
      "位": 293,
      "低": 294,
      "住": 295,
      "佐": 296,
      "佑": 297,
      "体": 298,
      "佔": 299,
      "何": 300,
      "余": 301,
      "佛": 302,
      "作": 303,
      "你": 304,
      "佢": 305,
      "佣": 306,
      "佩": 307,
      "佬": 308,
      "佯": 309,
      "佳": 310,
      "使": 311,
      "侃": 312,
      "侄": 313,
      "來": 314,
      "侈": 315,
      "例": 316,
      "侍": 317,
      "侏": 318,
      "侑": 319,
      "供": 320,
      "依": 321,
      "侠": 322,
      "侣": 323,
      "侥": 324,
      "侦": 325,
      "侧": 326,
      "侨": 327,
      "侬": 328,
      "侮": 329,
      "侯": 330,
      "侵": 331,
      "便": 332,
      "促": 333,
      "俄": 334,
      "俊": 335,
      "俏": 336,
      "俐": 337,
      "俑": 338,
      "俗": 339,
      "俘": 340,
      "俚": 341,
      "保": 342,
      "俞": 343,
      "俟": 344,
      "信": 345,
      "俦": 346,
      "俨": 347,
      "俩": 348,
      "俪": 349,
      "俭": 350,
      "修": 351,
      "俯": 352,
      "俱": 353,
      "俳": 354,
      "俶": 355,
      "俸": 356,
      "俺": 357,
      "俾": 358,
      "倌": 359,
      "倍": 360,
      "倏": 361,
      "倒": 362,
      "倓": 363,
      "倔": 364,
      "倘": 365,
      "候": 366,
      "倚": 367,
      "借": 368,
      "倡": 369,
      "倦": 370,
      "倩": 371,
      "倪": 372,
      "倭": 373,
      "倶": 374,
      "债": 375,
      "值": 376,
      "倾": 377,
      "假": 378,
      "偎": 379,
      "偏": 380,
      "偕": 381,
      "做": 382,
      "停": 383,
      "健": 384,
      "偶": 385,
      "偷": 386,
      "偻": 387,
      "偾": 388,
      "偿": 389,
      "傀": 390,
      "傅": 391,
      "傈": 392,
      "傍": 393,
      "傢": 394,
      "傣": 395,
      "储": 396,
      "傩": 397,
      "催": 398,
      "傲": 399,
      "傻": 400,
      "像": 401,
      "僚": 402,
      "僧": 403,
      "僮": 404,
      "僳": 405,
      "僵": 406,
      "僻": 407,
      "儆": 408,
      "儒": 409,
      "儡": 410,
      "儿": 411,
      "兀": 412,
      "允": 413,
      "元": 414,
      "兄": 415,
      "充": 416,
      "兆": 417,
      "先": 418,
      "光": 419,
      "克": 420,
      "免": 421,
      "兑": 422,
      "兔": 423,
      "党": 424,
      "兜": 425,
      "兢": 426,
      "入": 427,
      "全": 428,
      "兩": 429,
      "八": 430,
      "公": 431,
      "六": 432,
      "兮": 433,
      "兰": 434,
      "共": 435,
      "兲": 436,
      "关": 437,
      "兴": 438,
      "兵": 439,
      "其": 440,
      "具": 441,
      "典": 442,
      "兹": 443,
      "养": 444,
      "兼": 445,
      "兽": 446,
      "冀": 447,
      "内": 448,
      "冈": 449,
      "冉": 450,
      "册": 451,
      "再": 452,
      "冒": 453,
      "冕": 454,
      "冗": 455,
      "写": 456,
      "军": 457,
      "农": 458,
      "冠": 459,
      "冢": 460,
      "冤": 461,
      "冥": 462,
      "冬": 463,
      "冯": 464,
      "冰": 465,
      "冲": 466,
      "决": 467,
      "况": 468,
      "冶": 469,
      "冷": 470,
      "冸": 471,
      "冻": 472,
      "冼": 473,
      "净": 474,
      "凄": 475,
      "准": 476,
      "凇": 477,
      "凉": 478,
      "凋": 479,
      "凌": 480,
      "减": 481,
      "凑": 482,
      "凖": 483,
      "凛": 484,
      "凝": 485,
      "几": 486,
      "凡": 487,
      "凤": 488,
      "凭": 489,
      "凯": 490,
      "凰": 491,
      "凳": 492,
      "凶": 493,
      "凸": 494,
      "凹": 495,
      "出": 496,
      "击": 497,
      "凼": 498,
      "函": 499,
      "凿": 500,
      "刀": 501,
      "刁": 502,
      "刃": 503,
      "分": 504,
      "切": 505,
      "刈": 506,
      "刊": 507,
      "刍": 508,
      "刑": 509,
      "划": 510,
      "列": 511,
      "刘": 512,
      "则": 513,
      "刚": 514,
      "创": 515,
      "初": 516,
      "删": 517,
      "判": 518,
      "刨": 519,
      "利": 520,
      "别": 521,
      "刮": 522,
      "到": 523,
      "制": 524,
      "刷": 525,
      "券": 526,
      "刹": 527,
      "刺": 528,
      "刻": 529,
      "刽": 530,
      "剁": 531,
      "剂": 532,
      "剃": 533,
      "削": 534,
      "前": 535,
      "剐": 536,
      "剑": 537,
      "剔": 538,
      "剖": 539,
      "剤": 540,
      "剥": 541,
      "剧": 542,
      "剩": 543,
      "剪": 544,
      "副": 545,
      "割": 546,
      "剽": 547,
      "劈": 548,
      "力": 549,
      "劝": 550,
      "办": 551,
      "功": 552,
      "加": 553,
      "务": 554,
      "劣": 555,
      "动": 556,
      "助": 557,
      "努": 558,
      "劫": 559,
      "励": 560,
      "劲": 561,
      "劳": 562,
      "劾": 563,
      "势": 564,
      "勃": 565,
      "勇": 566,
      "勉": 567,
      "勋": 568,
      "勐": 569,
      "勒": 570,
      "勘": 571,
      "募": 572,
      "勤": 573,
      "勰": 574,
      "勺": 575,
      "勾": 576,
      "勿": 577,
      "匀": 578,
      "包": 579,
      "匆": 580,
      "匈": 581,
      "匍": 582,
      "匐": 583,
      "匕": 584,
      "化": 585,
      "北": 586,
      "匙": 587,
      "匠": 588,
      "匡": 589,
      "匣": 590,
      "匪": 591,
      "匮": 592,
      "匹": 593,
      "区": 594,
      "医": 595,
      "匾": 596,
      "匿": 597,
      "十": 598,
      "千": 599,
      "卅": 600,
      "升": 601,
      "午": 602,
      "卉": 603,
      "半": 604,
      "卍": 605,
      "华": 606,
      "协": 607,
      "卑": 608,
      "卒": 609,
      "卓": 610,
      "单": 611,
      "卖": 612,
      "南": 613,
      "博": 614,
      "卜": 615,
      "卞": 616,
      "卟": 617,
      "占": 618,
      "卡": 619,
      "卢": 620,
      "卤": 621,
      "卦": 622,
      "卧": 623,
      "卫": 624,
      "卮": 625,
      "印": 626,
      "危": 627,
      "即": 628,
      "却": 629,
      "卵": 630,
      "卷": 631,
      "卸": 632,
      "卿": 633,
      "厂": 634,
      "厄": 635,
      "厅": 636,
      "历": 637,
      "厉": 638,
      "压": 639,
      "厌": 640,
      "厕": 641,
      "厘": 642,
      "厚": 643,
      "原": 644,
      "厡": 645,
      "厢": 646,
      "厥": 647,
      "厦": 648,
      "厨": 649,
      "厩": 650,
      "厮": 651,
      "去": 652,
      "县": 653,
      "叁": 654,
      "参": 655,
      "參": 656,
      "又": 657,
      "叉": 658,
      "及": 659,
      "友": 660,
      "双": 661,
      "反": 662,
      "发": 663,
      "叔": 664,
      "取": 665,
      "受": 666,
      "变": 667,
      "叙": 668,
      "叛": 669,
      "叟": 670,
      "叠": 671,
      "口": 672,
      "古": 673,
      "句": 674,
      "另": 675,
      "叨": 676,
      "叩": 677,
      "只": 678,
      "叫": 679,
      "召": 680,
      "叭": 681,
      "叮": 682,
      "可": 683,
      "台": 684,
      "叱": 685,
      "史": 686,
      "右": 687,
      "叶": 688,
      "号": 689,
      "司": 690,
      "叹": 691,
      "叻": 692,
      "叼": 693,
      "叽": 694,
      "吁": 695,
      "吃": 696,
      "各": 697,
      "合": 698,
      "吉": 699,
      "吊": 700,
      "吋": 701,
      "同": 702,
      "名": 703,
      "后": 704,
      "吏": 705,
      "吐": 706,
      "向": 707,
      "吓": 708,
      "吕": 709,
      "吗": 710,
      "君": 711,
      "吝": 712,
      "吞": 713,
      "吟": 714,
      "吠": 715,
      "吡": 716,
      "否": 717,
      "吧": 718,
      "吨": 719,
      "吩": 720,
      "含": 721,
      "听": 722,
      "吭": 723,
      "吮": 724,
      "启": 725,
      "吱": 726,
      "吲": 727,
      "吴": 728,
      "吵": 729,
      "吸": 730,
      "吹": 731,
      "吻": 732,
      "吼": 733,
      "吽": 734,
      "吾": 735,
      "呀": 736,
      "呃": 737,
      "呆": 738,
      "呈": 739,
      "告": 740,
      "呋": 741,
      "呎": 742,
      "呐": 743,
      "呓": 744,
      "呕": 745,
      "呗": 746,
      "员": 747,
      "呛": 748,
      "呜": 749,
      "呢": 750,
      "呤": 751,
      "呦": 752,
      "周": 753,
      "呯": 754,
      "呱": 755,
      "味": 756,
      "呵": 757,
      "呸": 758,
      "呼": 759,
      "命": 760,
      "咀": 761,
      "咁": 762,
      "咂": 763,
      "咄": 764,
      "咆": 765,
      "咋": 766,
      "和": 767,
      "咎": 768,
      "咏": 769,
      "咐": 770,
      "咒": 771,
      "咔": 772,
      "咕": 773,
      "咖": 774,
      "咙": 775,
      "咚": 776,
      "咜": 777,
      "咝": 778,
      "咤": 779,
      "咦": 780,
      "咧": 781,
      "咨": 782,
      "咩": 783,
      "咪": 784,
      "咫": 785,
      "咬": 786,
      "咯": 787,
      "咱": 788,
      "咳": 789,
      "咸": 790,
      "咻": 791,
      "咽": 792,
      "咿": 793,
      "哀": 794,
      "品": 795,
      "哄": 796,
      "哆": 797,
      "哇": 798,
      "哈": 799,
      "哉": 800,
      "哋": 801,
      "哌": 802,
      "响": 803,
      "哎": 804,
      "哑": 805,
      "哒": 806,
      "哔": 807,
      "哗": 808,
      "哚": 809,
      "哝": 810,
      "哞": 811,
      "哟": 812,
      "哥": 813,
      "哦": 814,
      "哧": 815,
      "哨": 816,
      "哩": 817,
      "哪": 818,
      "哭": 819,
      "哮": 820,
      "哲": 821,
      "哺": 822,
      "哼": 823,
      "唁": 824,
      "唆": 825,
      "唇": 826,
      "唉": 827,
      "唏": 828,
      "唐": 829,
      "唑": 830,
      "唔": 831,
      "唛": 832,
      "唠": 833,
      "唤": 834,
      "唧": 835,
      "售": 836,
      "唯": 837,
      "唱": 838,
      "唵": 839,
      "唾": 840,
      "啁": 841,
      "啃": 842,
      "啄": 843,
      "商": 844,
      "啉": 845,
      "啊": 846,
      "啜": 847,
      "啝": 848,
      "啡": 849,
      "啤": 850,
      "啥": 851,
      "啦": 852,
      "啧": 853,
      "啬": 854,
      "啮": 855,
      "啰": 856,
      "啲": 857,
      "啵": 858,
      "啶": 859,
      "啸": 860,
      "啼": 861,
      "啾": 862,
      "喀": 863,
      "喂": 864,
      "喃": 865,
      "善": 866,
      "喇": 867,
      "喉": 868,
      "喊": 869,
      "喋": 870,
      "喑": 871,
      "喔": 872,
      "喘": 873,
      "喙": 874,
      "喜": 875,
      "喝": 876,
      "喧": 877,
      "喱": 878,
      "喵": 879,
      "喷": 880,
      "喹": 881,
      "喺": 882,
      "喻": 883,
      "喽": 884,
      "嗅": 885,
      "嗑": 886,
      "嗒": 887,
      "嗓": 888,
      "嗔": 889,
      "嗖": 890,
      "嗜": 891,
      "嗝": 892,
      "嗡": 893,
      "嗣": 894,
      "嗤": 895,
      "嗥": 896,
      "嗦": 897,
      "嗨": 898,
      "嗪": 899,
      "嗬": 900,
      "嗯": 901,
      "嗰": 902,
      "嗳": 903,
      "嗽": 904,
      "嘀": 905,
      "嘅": 906,
      "嘈": 907,
      "嘉": 908,
      "嘌": 909,
      "嘎": 910,
      "嘘": 911,
      "嘛": 912,
      "嘞": 913,
      "嘟": 914,
      "嘦": 915,
      "嘧": 916,
      "嘱": 917,
      "嘲": 918,
      "嘴": 919,
      "嘶": 920,
      "嘻": 921,
      "嘿": 922,
      "噌": 923,
      "噎": 924,
      "噔": 925,
      "噗": 926,
      "噙": 927,
      "噜": 928,
      "噢": 929,
      "噤": 930,
      "器": 931,
      "噩": 932,
      "噪": 933,
      "噬": 934,
      "噱": 935,
      "噻": 936,
      "嚎": 937,
      "嚟": 938,
      "嚣": 939,
      "嚷": 940,
      "嚼": 941,
      "囊": 942,
      "囔": 943,
      "囚": 944,
      "四": 945,
      "回": 946,
      "因": 947,
      "囡": 948,
      "团": 949,
      "囤": 950,
      "园": 951,
      "困": 952,
      "囱": 953,
      "围": 954,
      "囹": 955,
      "固": 956,
      "国": 957,
      "图": 958,
      "囿": 959,
      "圃": 960,
      "圆": 961,
      "圈": 962,
      "圜": 963,
      "土": 964,
      "圣": 965,
      "在": 966,
      "圭": 967,
      "地": 968,
      "圳": 969,
      "场": 970,
      "圾": 971,
      "址": 972,
      "坂": 973,
      "均": 974,
      "坊": 975,
      "坍": 976,
      "坎": 977,
      "坏": 978,
      "坐": 979,
      "坑": 980,
      "块": 981,
      "坚": 982,
      "坛": 983,
      "坝": 984,
      "坞": 985,
      "坟": 986,
      "坠": 987,
      "坡": 988,
      "坤": 989,
      "坦": 990,
      "坨": 991,
      "坩": 992,
      "坪": 993,
      "坭": 994,
      "坯": 995,
      "坳": 996,
      "坷": 997,
      "垂": 998,
      "垃": 999,
      "垄": 1000,
      "型": 1001,
      "垒": 1002,
      "垛": 1003,
      "垠": 1004,
      "垢": 1005,
      "垣": 1006,
      "垦": 1007,
      "垩": 1008,
      "垫": 1009,
      "垮": 1010,
      "埃": 1011,
      "埋": 1012,
      "城": 1013,
      "埔": 1014,
      "埚": 1015,
      "域": 1016,
      "埠": 1017,
      "埸": 1018,
      "培": 1019,
      "基": 1020,
      "埼": 1021,
      "堂": 1022,
      "堆": 1023,
      "堇": 1024,
      "堑": 1025,
      "堕": 1026,
      "堡": 1027,
      "堤": 1028,
      "堪": 1029,
      "堰": 1030,
      "堵": 1031,
      "塌": 1032,
      "塑": 1033,
      "塔": 1034,
      "塘": 1035,
      "塞": 1036,
      "填": 1037,
      "境": 1038,
      "墅": 1039,
      "墒": 1040,
      "墓": 1041,
      "墙": 1042,
      "增": 1043,
      "墟": 1044,
      "墨": 1045,
      "墩": 1046,
      "壁": 1047,
      "壑": 1048,
      "壕": 1049,
      "壤": 1050,
      "士": 1051,
      "壬": 1052,
      "壮": 1053,
      "声": 1054,
      "壳": 1055,
      "壶": 1056,
      "壹": 1057,
      "处": 1058,
      "备": 1059,
      "复": 1060,
      "夏": 1061,
      "夕": 1062,
      "外": 1063,
      "多": 1064,
      "夜": 1065,
      "够": 1066,
      "夥": 1067,
      "大": 1068,
      "天": 1069,
      "太": 1070,
      "夫": 1071,
      "夭": 1072,
      "央": 1073,
      "失": 1074,
      "头": 1075,
      "夷": 1076,
      "夸": 1077,
      "夹": 1078,
      "夺": 1079,
      "奂": 1080,
      "奄": 1081,
      "奇": 1082,
      "奈": 1083,
      "奉": 1084,
      "奋": 1085,
      "奎": 1086,
      "奏": 1087,
      "契": 1088,
      "奔": 1089,
      "奕": 1090,
      "奖": 1091,
      "套": 1092,
      "奚": 1093,
      "奠": 1094,
      "奢": 1095,
      "奥": 1096,
      "女": 1097,
      "奴": 1098,
      "奶": 1099,
      "奸": 1100,
      "她": 1101,
      "好": 1102,
      "如": 1103,
      "妃": 1104,
      "妄": 1105,
      "妆": 1106,
      "妇": 1107,
      "妈": 1108,
      "妊": 1109,
      "妒": 1110,
      "妓": 1111,
      "妖": 1112,
      "妙": 1113,
      "妞": 1114,
      "妥": 1115,
      "妨": 1116,
      "妮": 1117,
      "妯": 1118,
      "妲": 1119,
      "妳": 1120,
      "妹": 1121,
      "妻": 1122,
      "妾": 1123,
      "姆": 1124,
      "姊": 1125,
      "始": 1126,
      "姐": 1127,
      "姑": 1128,
      "姓": 1129,
      "委": 1130,
      "姗": 1131,
      "姚": 1132,
      "姜": 1133,
      "姝": 1134,
      "姥": 1135,
      "姨": 1136,
      "姬": 1137,
      "姻": 1138,
      "姿": 1139,
      "威": 1140,
      "娃": 1141,
      "娄": 1142,
      "娅": 1143,
      "娇": 1144,
      "娈": 1145,
      "娌": 1146,
      "娑": 1147,
      "娓": 1148,
      "娘": 1149,
      "娜": 1150,
      "娟": 1151,
      "娠": 1152,
      "娣": 1153,
      "娥": 1154,
      "娩": 1155,
      "娱": 1156,
      "娲": 1157,
      "娴": 1158,
      "娶": 1159,
      "娼": 1160,
      "婀": 1161,
      "婆": 1162,
      "婉": 1163,
      "婊": 1164,
      "婚": 1165,
      "婢": 1166,
      "婧": 1167,
      "婪": 1168,
      "婴": 1169,
      "婷": 1170,
      "婺": 1171,
      "婿": 1172,
      "媒": 1173,
      "媚": 1174,
      "媛": 1175,
      "媲": 1176,
      "媳": 1177,
      "媾": 1178,
      "嫁": 1179,
      "嫂": 1180,
      "嫉": 1181,
      "嫌": 1182,
      "嫖": 1183,
      "嫚": 1184,
      "嫣": 1185,
      "嫦": 1186,
      "嫩": 1187,
      "嫫": 1188,
      "嫲": 1189,
      "嬉": 1190,
      "嬖": 1191,
      "嬗": 1192,
      "嬷": 1193,
      "孀": 1194,
      "子": 1195,
      "孑": 1196,
      "孔": 1197,
      "孕": 1198,
      "字": 1199,
      "存": 1200,
      "孙": 1201,
      "孚": 1202,
      "孜": 1203,
      "孝": 1204,
      "孟": 1205,
      "孢": 1206,
      "季": 1207,
      "孤": 1208,
      "学": 1209,
      "孩": 1210,
      "孪": 1211,
      "孰": 1212,
      "孳": 1213,
      "孵": 1214,
      "孽": 1215,
      "宁": 1216,
      "它": 1217,
      "宅": 1218,
      "宇": 1219,
      "守": 1220,
      "安": 1221,
      "宋": 1222,
      "完": 1223,
      "宏": 1224,
      "宕": 1225,
      "宗": 1226,
      "官": 1227,
      "宙": 1228,
      "定": 1229,
      "宛": 1230,
      "宜": 1231,
      "宝": 1232,
      "实": 1233,
      "宠": 1234,
      "审": 1235,
      "客": 1236,
      "宣": 1237,
      "室": 1238,
      "宦": 1239,
      "宪": 1240,
      "宫": 1241,
      "宰": 1242,
      "害": 1243,
      "宴": 1244,
      "宵": 1245,
      "家": 1246,
      "容": 1247,
      "宽": 1248,
      "宾": 1249,
      "宿": 1250,
      "寂": 1251,
      "寄": 1252,
      "寅": 1253,
      "密": 1254,
      "寇": 1255,
      "富": 1256,
      "寐": 1257,
      "寒": 1258,
      "寓": 1259,
      "寝": 1260,
      "寞": 1261,
      "察": 1262,
      "寡": 1263,
      "寥": 1264,
      "寨": 1265,
      "寮": 1266,
      "寰": 1267,
      "寳": 1268,
      "寸": 1269,
      "对": 1270,
      "寺": 1271,
      "寻": 1272,
      "导": 1273,
      "寿": 1274,
      "封": 1275,
      "射": 1276,
      "将": 1277,
      "尉": 1278,
      "尊": 1279,
      "小": 1280,
      "少": 1281,
      "尒": 1282,
      "尔": 1283,
      "尖": 1284,
      "尘": 1285,
      "尚": 1286,
      "尝": 1287,
      "尤": 1288,
      "尧": 1289,
      "尬": 1290,
      "就": 1291,
      "尴": 1292,
      "尸": 1293,
      "尹": 1294,
      "尺": 1295,
      "尼": 1296,
      "尽": 1297,
      "尾": 1298,
      "尿": 1299,
      "局": 1300,
      "屁": 1301,
      "层": 1302,
      "居": 1303,
      "屈": 1304,
      "屉": 1305,
      "届": 1306,
      "屋": 1307,
      "屎": 1308,
      "屏": 1309,
      "屐": 1310,
      "屑": 1311,
      "展": 1312,
      "属": 1313,
      "屠": 1314,
      "屡": 1315,
      "履": 1316,
      "屯": 1317,
      "山": 1318,
      "屹": 1319,
      "屿": 1320,
      "岁": 1321,
      "岂": 1322,
      "岌": 1323,
      "岐": 1324,
      "岑": 1325,
      "岔": 1326,
      "岖": 1327,
      "岗": 1328,
      "岚": 1329,
      "岛": 1330,
      "岩": 1331,
      "岬": 1332,
      "岭": 1333,
      "岱": 1334,
      "岳": 1335,
      "岸": 1336,
      "岿": 1337,
      "峒": 1338,
      "峕": 1339,
      "峙": 1340,
      "峟": 1341,
      "峡": 1342,
      "峤": 1343,
      "峦": 1344,
      "峨": 1345,
      "峪": 1346,
      "峭": 1347,
      "峰": 1348,
      "峻": 1349,
      "崄": 1350,
      "崇": 1351,
      "崎": 1352,
      "崔": 1353,
      "崖": 1354,
      "崛": 1355,
      "崩": 1356,
      "崭": 1357,
      "崽": 1358,
      "崾": 1359,
      "嵊": 1360,
      "嵋": 1361,
      "嵌": 1362,
      "嵩": 1363,
      "嵬": 1364,
      "嵰": 1365,
      "嵵": 1366,
      "嶂": 1367,
      "嶋": 1368,
      "巅": 1369,
      "巍": 1370,
      "川": 1371,
      "州": 1372,
      "巡": 1373,
      "巢": 1374,
      "工": 1375,
      "左": 1376,
      "巧": 1377,
      "巨": 1378,
      "巩": 1379,
      "巫": 1380,
      "差": 1381,
      "巯": 1382,
      "己": 1383,
      "已": 1384,
      "巳": 1385,
      "巴": 1386,
      "巷": 1387,
      "巾": 1388,
      "巿": 1389,
      "币": 1390,
      "市": 1391,
      "布": 1392,
      "帅": 1393,
      "帆": 1394,
      "师": 1395,
      "希": 1396,
      "帐": 1397,
      "帕": 1398,
      "帖": 1399,
      "帘": 1400,
      "帚": 1401,
      "帛": 1402,
      "帜": 1403,
      "帝": 1404,
      "带": 1405,
      "帧": 1406,
      "席": 1407,
      "帮": 1408,
      "帷": 1409,
      "常": 1410,
      "帽": 1411,
      "幂": 1412,
      "幄": 1413,
      "幅": 1414,
      "幔": 1415,
      "幕": 1416,
      "幢": 1417,
      "干": 1418,
      "平": 1419,
      "年": 1420,
      "并": 1421,
      "幷": 1422,
      "幸": 1423,
      "幻": 1424,
      "幼": 1425,
      "幽": 1426,
      "广": 1427,
      "庄": 1428,
      "庆": 1429,
      "庇": 1430,
      "床": 1431,
      "序": 1432,
      "庐": 1433,
      "库": 1434,
      "应": 1435,
      "底": 1436,
      "店": 1437,
      "庙": 1438,
      "庚": 1439,
      "府": 1440,
      "庞": 1441,
      "废": 1442,
      "度": 1443,
      "座": 1444,
      "庭": 1445,
      "庶": 1446,
      "康": 1447,
      "庸": 1448,
      "廉": 1449,
      "廊": 1450,
      "廓": 1451,
      "廖": 1452,
      "延": 1453,
      "廷": 1454,
      "建": 1455,
      "廿": 1456,
      "开": 1457,
      "异": 1458,
      "弃": 1459,
      "弄": 1460,
      "弈": 1461,
      "弊": 1462,
      "弋": 1463,
      "弌": 1464,
      "式": 1465,
      "弑": 1466,
      "弓": 1467,
      "引": 1468,
      "弗": 1469,
      "弘": 1470,
      "弛": 1471,
      "弟": 1472,
      "张": 1473,
      "弥": 1474,
      "弦": 1475,
      "弧": 1476,
      "弩": 1477,
      "弭": 1478,
      "弯": 1479,
      "弱": 1480,
      "弹": 1481,
      "强": 1482,
      "弼": 1483,
      "彀": 1484,
      "归": 1485,
      "当": 1486,
      "录": 1487,
      "彗": 1488,
      "彝": 1489,
      "形": 1490,
      "彤": 1491,
      "彦": 1492,
      "彩": 1493,
      "彪": 1494,
      "彬": 1495,
      "彭": 1496,
      "彰": 1497,
      "影": 1498,
      "彷": 1499,
      "役": 1500,
      "彻": 1501,
      "彼": 1502,
      "往": 1503,
      "征": 1504,
      "径": 1505,
      "待": 1506,
      "很": 1507,
      "徉": 1508,
      "徊": 1509,
      "律": 1510,
      "徐": 1511,
      "徒": 1512,
      "得": 1513,
      "徘": 1514,
      "徙": 1515,
      "徜": 1516,
      "御": 1517,
      "徨": 1518,
      "循": 1519,
      "徬": 1520,
      "徭": 1521,
      "微": 1522,
      "徳": 1523,
      "徵": 1524,
      "德": 1525,
      "徽": 1526,
      "心": 1527,
      "必": 1528,
      "忆": 1529,
      "忌": 1530,
      "忍": 1531,
      "忏": 1532,
      "忒": 1533,
      "忖": 1534,
      "志": 1535,
      "忘": 1536,
      "忙": 1537,
      "忝": 1538,
      "忠": 1539,
      "忡": 1540,
      "忧": 1541,
      "忪": 1542,
      "快": 1543,
      "忱": 1544,
      "念": 1545,
      "忻": 1546,
      "忽": 1547,
      "忿": 1548,
      "怀": 1549,
      "态": 1550,
      "怂": 1551,
      "怅": 1552,
      "怆": 1553,
      "怎": 1554,
      "怏": 1555,
      "怒": 1556,
      "怕": 1557,
      "怖": 1558,
      "怜": 1559,
      "思": 1560,
      "怠": 1561,
      "怡": 1562,
      "急": 1563,
      "性": 1564,
      "怨": 1565,
      "怪": 1566,
      "怯": 1567,
      "怵": 1568,
      "总": 1569,
      "怼": 1570,
      "恃": 1571,
      "恋": 1572,
      "恍": 1573,
      "恐": 1574,
      "恒": 1575,
      "恕": 1576,
      "恙": 1577,
      "恢": 1578,
      "恣": 1579,
      "恤": 1580,
      "恨": 1581,
      "恩": 1582,
      "恪": 1583,
      "恬": 1584,
      "恭": 1585,
      "息": 1586,
      "恰": 1587,
      "恳": 1588,
      "恶": 1589,
      "恼": 1590,
      "恿": 1591,
      "悃": 1592,
      "悄": 1593,
      "悉": 1594,
      "悌": 1595,
      "悍": 1596,
      "悔": 1597,
      "悖": 1598,
      "悚": 1599,
      "悟": 1600,
      "悠": 1601,
      "患": 1602,
      "悦": 1603,
      "您": 1604,
      "悬": 1605,
      "悯": 1606,
      "悲": 1607,
      "悳": 1608,
      "悴": 1609,
      "悸": 1610,
      "悼": 1611,
      "情": 1612,
      "惆": 1613,
      "惇": 1614,
      "惊": 1615,
      "惋": 1616,
      "惑": 1617,
      "惕": 1618,
      "惘": 1619,
      "惚": 1620,
      "惜": 1621,
      "惟": 1622,
      "惠": 1623,
      "惦": 1624,
      "惧": 1625,
      "惨": 1626,
      "惩": 1627,
      "惫": 1628,
      "惬": 1629,
      "惭": 1630,
      "惯": 1631,
      "惰": 1632,
      "想": 1633,
      "惴": 1634,
      "惶": 1635,
      "惹": 1636,
      "惺": 1637,
      "愁": 1638,
      "愆": 1639,
      "愈": 1640,
      "愉": 1641,
      "意": 1642,
      "愕": 1643,
      "愚": 1644,
      "感": 1645,
      "愣": 1646,
      "愤": 1647,
      "愧": 1648,
      "愫": 1649,
      "愿": 1650,
      "慈": 1651,
      "慌": 1652,
      "慎": 1653,
      "慑": 1654,
      "慕": 1655,
      "慢": 1656,
      "慧": 1657,
      "慨": 1658,
      "慰": 1659,
      "慵": 1660,
      "慷": 1661,
      "憋": 1662,
      "憎": 1663,
      "憔": 1664,
      "憧": 1665,
      "憨": 1666,
      "憩": 1667,
      "憬": 1668,
      "憾": 1669,
      "懂": 1670,
      "懈": 1671,
      "懊": 1672,
      "懑": 1673,
      "懒": 1674,
      "懦": 1675,
      "懵": 1676,
      "懽": 1677,
      "懿": 1678,
      "戈": 1679,
      "戊": 1680,
      "戍": 1681,
      "戎": 1682,
      "戏": 1683,
      "成": 1684,
      "我": 1685,
      "戒": 1686,
      "或": 1687,
      "戗": 1688,
      "战": 1689,
      "戚": 1690,
      "戛": 1691,
      "戟": 1692,
      "截": 1693,
      "戮": 1694,
      "戳": 1695,
      "戴": 1696,
      "户": 1697,
      "戽": 1698,
      "戾": 1699,
      "房": 1700,
      "所": 1701,
      "扁": 1702,
      "扇": 1703,
      "扈": 1704,
      "扉": 1705,
      "手": 1706,
      "才": 1707,
      "扎": 1708,
      "扑": 1709,
      "扒": 1710,
      "打": 1711,
      "扔": 1712,
      "托": 1713,
      "扛": 1714,
      "扣": 1715,
      "扦": 1716,
      "执": 1717,
      "扩": 1718,
      "扪": 1719,
      "扫": 1720,
      "扬": 1721,
      "扭": 1722,
      "扮": 1723,
      "扯": 1724,
      "扰": 1725,
      "扳": 1726,
      "扶": 1727,
      "批": 1728,
      "扼": 1729,
      "找": 1730,
      "承": 1731,
      "技": 1732,
      "抄": 1733,
      "抉": 1734,
      "把": 1735,
      "抑": 1736,
      "抒": 1737,
      "抓": 1738,
      "投": 1739,
      "抖": 1740,
      "抗": 1741,
      "折": 1742,
      "抚": 1743,
      "抛": 1744,
      "抜": 1745,
      "抠": 1746,
      "抡": 1747,
      "抢": 1748,
      "护": 1749,
      "报": 1750,
      "抨": 1751,
      "披": 1752,
      "抬": 1753,
      "抱": 1754,
      "抵": 1755,
      "抹": 1756,
      "抺": 1757,
      "押": 1758,
      "抽": 1759,
      "抿": 1760,
      "拂": 1761,
      "拄": 1762,
      "担": 1763,
      "拆": 1764,
      "拇": 1765,
      "拉": 1766,
      "拌": 1767,
      "拍": 1768,
      "拎": 1769,
      "拐": 1770,
      "拒": 1771,
      "拓": 1772,
      "拔": 1773,
      "拖": 1774,
      "拗": 1775,
      "拘": 1776,
      "拙": 1777,
      "拚": 1778,
      "招": 1779,
      "拜": 1780,
      "拟": 1781,
      "拢": 1782,
      "拣": 1783,
      "拥": 1784,
      "拦": 1785,
      "拧": 1786,
      "拨": 1787,
      "择": 1788,
      "括": 1789,
      "拭": 1790,
      "拮": 1791,
      "拯": 1792,
      "拱": 1793,
      "拳": 1794,
      "拴": 1795,
      "拷": 1796,
      "拼": 1797,
      "拽": 1798,
      "拾": 1799,
      "拿": 1800,
      "持": 1801,
      "挂": 1802,
      "指": 1803,
      "挈": 1804,
      "按": 1805,
      "挎": 1806,
      "挑": 1807,
      "挖": 1808,
      "挚": 1809,
      "挛": 1810,
      "挝": 1811,
      "挞": 1812,
      "挟": 1813,
      "挠": 1814,
      "挡": 1815,
      "挣": 1816,
      "挤": 1817,
      "挥": 1818,
      "挨": 1819,
      "挪": 1820,
      "挫": 1821,
      "振": 1822,
      "挲": 1823,
      "挺": 1824,
      "挽": 1825,
      "捂": 1826,
      "捄": 1827,
      "捅": 1828,
      "捆": 1829,
      "捉": 1830,
      "捍": 1831,
      "捏": 1832,
      "捐": 1833,
      "捕": 1834,
      "捞": 1835,
      "损": 1836,
      "捡": 1837,
      "换": 1838,
      "捣": 1839,
      "捧": 1840,
      "捩": 1841,
      "据": 1842,
      "捶": 1843,
      "捷": 1844,
      "捻": 1845,
      "掀": 1846,
      "掂": 1847,
      "掇": 1848,
      "授": 1849,
      "掉": 1850,
      "掌": 1851,
      "掏": 1852,
      "掐": 1853,
      "排": 1854,
      "掖": 1855,
      "掘": 1856,
      "掠": 1857,
      "探": 1858,
      "接": 1859,
      "控": 1860,
      "推": 1861,
      "掩": 1862,
      "措": 1863,
      "掬": 1864,
      "掰": 1865,
      "掳": 1866,
      "掷": 1867,
      "掸": 1868,
      "掺": 1869,
      "掽": 1870,
      "揉": 1871,
      "揍": 1872,
      "描": 1873,
      "提": 1874,
      "插": 1875,
      "握": 1876,
      "揣": 1877,
      "揩": 1878,
      "揪": 1879,
      "揭": 1880,
      "援": 1881,
      "揽": 1882,
      "揾": 1883,
      "揿": 1884,
      "搁": 1885,
      "搂": 1886,
      "搅": 1887,
      "搏": 1888,
      "搐": 1889,
      "搓": 1890,
      "搔": 1891,
      "搜": 1892,
      "搞": 1893,
      "搪": 1894,
      "搬": 1895,
      "搭": 1896,
      "携": 1897,
      "摁": 1898,
      "摄": 1899,
      "摆": 1900,
      "摇": 1901,
      "摈": 1902,
      "摊": 1903,
      "摒": 1904,
      "摔": 1905,
      "摘": 1906,
      "摞": 1907,
      "摧": 1908,
      "摩": 1909,
      "摸": 1910,
      "摹": 1911,
      "摺": 1912,
      "撃": 1913,
      "撅": 1914,
      "撇": 1915,
      "撑": 1916,
      "撒": 1917,
      "撕": 1918,
      "撞": 1919,
      "撤": 1920,
      "撬": 1921,
      "播": 1922,
      "撮": 1923,
      "撰": 1924,
      "撵": 1925,
      "撷": 1926,
      "撼": 1927,
      "擅": 1928,
      "操": 1929,
      "擎": 1930,
      "擒": 1931,
      "擞": 1932,
      "擦": 1933,
      "攀": 1934,
      "攒": 1935,
      "攘": 1936,
      "攥": 1937,
      "攫": 1938,
      "支": 1939,
      "收": 1940,
      "攸": 1941,
      "改": 1942,
      "攻": 1943,
      "放": 1944,
      "政": 1945,
      "故": 1946,
      "效": 1947,
      "敌": 1948,
      "敏": 1949,
      "救": 1950,
      "敕": 1951,
      "敖": 1952,
      "教": 1953,
      "敛": 1954,
      "敝": 1955,
      "敞": 1956,
      "敢": 1957,
      "散": 1958,
      "敦": 1959,
      "敬": 1960,
      "数": 1961,
      "敲": 1962,
      "整": 1963,
      "敷": 1964,
      "文": 1965,
      "斋": 1966,
      "斌": 1967,
      "斎": 1968,
      "斐": 1969,
      "斑": 1970,
      "斓": 1971,
      "斗": 1972,
      "料": 1973,
      "斛": 1974,
      "斜": 1975,
      "斟": 1976,
      "斡": 1977,
      "斤": 1978,
      "斥": 1979,
      "斧": 1980,
      "斩": 1981,
      "断": 1982,
      "斯": 1983,
      "新": 1984,
      "方": 1985,
      "施": 1986,
      "旁": 1987,
      "旅": 1988,
      "旋": 1989,
      "旌": 1990,
      "族": 1991,
      "旗": 1992,
      "无": 1993,
      "既": 1994,
      "日": 1995,
      "旦": 1996,
      "旧": 1997,
      "旨": 1998,
      "早": 1999,
      "旬": 2000,
      "旭": 2001,
      "旱": 2002,
      "旳": 2003,
      "时": 2004,
      "旷": 2005,
      "旺": 2006,
      "昀": 2007,
      "昂": 2008,
      "昆": 2009,
      "昉": 2010,
      "昊": 2011,
      "昌": 2012,
      "明": 2013,
      "昏": 2014,
      "易": 2015,
      "昔": 2016,
      "昕": 2017,
      "昙": 2018,
      "星": 2019,
      "映": 2020,
      "春": 2021,
      "昧": 2022,
      "昨": 2023,
      "昭": 2024,
      "是": 2025,
      "昵": 2026,
      "昼": 2027,
      "显": 2028,
      "晁": 2029,
      "晃": 2030,
      "晋": 2031,
      "晌": 2032,
      "晏": 2033,
      "晒": 2034,
      "晓": 2035,
      "晕": 2036,
      "晖": 2037,
      "晚": 2038,
      "晟": 2039,
      "晤": 2040,
      "晦": 2041,
      "晨": 2042,
      "普": 2043,
      "景": 2044,
      "晰": 2045,
      "晴": 2046,
      "晶": 2047,
      "智": 2048,
      "晾": 2049,
      "暂": 2050,
      "暇": 2051,
      "暋": 2052,
      "暑": 2053,
      "暖": 2054,
      "暗": 2055,
      "暧": 2056,
      "暨": 2057,
      "暮": 2058,
      "暴": 2059,
      "暹": 2060,
      "曈": 2061,
      "曙": 2062,
      "曝": 2063,
      "曦": 2064,
      "曰": 2065,
      "曲": 2066,
      "曳": 2067,
      "更": 2068,
      "曹": 2069,
      "曼": 2070,
      "曾": 2071,
      "替": 2072,
      "最": 2073,
      "月": 2074,
      "有": 2075,
      "朊": 2076,
      "朋": 2077,
      "服": 2078,
      "朔": 2079,
      "朗": 2080,
      "望": 2081,
      "朝": 2082,
      "期": 2083,
      "朦": 2084,
      "木": 2085,
      "未": 2086,
      "末": 2087,
      "本": 2088,
      "札": 2089,
      "术": 2090,
      "朱": 2091,
      "朴": 2092,
      "朵": 2093,
      "机": 2094,
      "朼": 2095,
      "朽": 2096,
      "杀": 2097,
      "杂": 2098,
      "权": 2099,
      "杆": 2100,
      "杈": 2101,
      "杉": 2102,
      "李": 2103,
      "杏": 2104,
      "材": 2105,
      "村": 2106,
      "杖": 2107,
      "杜": 2108,
      "杞": 2109,
      "束": 2110,
      "杠": 2111,
      "条": 2112,
      "来": 2113,
      "杨": 2114,
      "杪": 2115,
      "杭": 2116,
      "杯": 2117,
      "杰": 2118,
      "松": 2119,
      "板": 2120,
      "极": 2121,
      "构": 2122,
      "枉": 2123,
      "枋": 2124,
      "析": 2125,
      "枕": 2126,
      "林": 2127,
      "枚": 2128,
      "果": 2129,
      "枝": 2130,
      "枞": 2131,
      "枢": 2132,
      "枣": 2133,
      "枪": 2134,
      "枫": 2135,
      "枭": 2136,
      "枯": 2137,
      "架": 2138,
      "枷": 2139,
      "枸": 2140,
      "柃": 2141,
      "柄": 2142,
      "柏": 2143,
      "某": 2144,
      "柑": 2145,
      "染": 2146,
      "柔": 2147,
      "柚": 2148,
      "柜": 2149,
      "柞": 2150,
      "柠": 2151,
      "柢": 2152,
      "查": 2153,
      "柩": 2154,
      "柬": 2155,
      "柯": 2156,
      "柰": 2157,
      "柱": 2158,
      "柳": 2159,
      "柴": 2160,
      "柿": 2161,
      "栀": 2162,
      "栅": 2163,
      "标": 2164,
      "栈": 2165,
      "栉": 2166,
      "栋": 2167,
      "栎": 2168,
      "栏": 2169,
      "树": 2170,
      "栓": 2171,
      "栖": 2172,
      "栗": 2173,
      "校": 2174,
      "栩": 2175,
      "株": 2176,
      "样": 2177,
      "核": 2178,
      "根": 2179,
      "格": 2180,
      "栽": 2181,
      "栾": 2182,
      "桁": 2183,
      "桂": 2184,
      "桃": 2185,
      "桅": 2186,
      "框": 2187,
      "案": 2188,
      "桉": 2189,
      "桌": 2190,
      "桎": 2191,
      "桐": 2192,
      "桑": 2193,
      "桓": 2194,
      "桔": 2195,
      "桠": 2196,
      "桡": 2197,
      "档": 2198,
      "桤": 2199,
      "桥": 2200,
      "桦": 2201,
      "桨": 2202,
      "桩": 2203,
      "桶": 2204,
      "梁": 2205,
      "梅": 2206,
      "梆": 2207,
      "梏": 2208,
      "梓": 2209,
      "梗": 2210,
      "梠": 2211,
      "梢": 2212,
      "梦": 2213,
      "梧": 2214,
      "梨": 2215,
      "梭": 2216,
      "梯": 2217,
      "械": 2218,
      "梳": 2219,
      "梵": 2220,
      "检": 2221,
      "棂": 2222,
      "棉": 2223,
      "棋": 2224,
      "棍": 2225,
      "棒": 2226,
      "棕": 2227,
      "棘": 2228,
      "棚": 2229,
      "棠": 2230,
      "棣": 2231,
      "森": 2232,
      "棱": 2233,
      "棵": 2234,
      "棺": 2235,
      "棼": 2236,
      "椅": 2237,
      "植": 2238,
      "椎": 2239,
      "椒": 2240,
      "椠": 2241,
      "椭": 2242,
      "椰": 2243,
      "椴": 2244,
      "椹": 2245,
      "椽": 2246,
      "椿": 2247,
      "楂": 2248,
      "楔": 2249,
      "楚": 2250,
      "楞": 2251,
      "楠": 2252,
      "楣": 2253,
      "楦": 2254,
      "楫": 2255,
      "楮": 2256,
      "楷": 2257,
      "楼": 2258,
      "概": 2259,
      "榄": 2260,
      "榆": 2261,
      "榈": 2262,
      "榉": 2263,
      "榔": 2264,
      "榕": 2265,
      "榜": 2266,
      "榨": 2267,
      "榫": 2268,
      "榭": 2269,
      "榴": 2270,
      "榷": 2271,
      "榻": 2272,
      "槁": 2273,
      "槃": 2274,
      "槌": 2275,
      "槐": 2276,
      "槛": 2277,
      "槟": 2278,
      "槠": 2279,
      "槲": 2280,
      "槽": 2281,
      "槿": 2282,
      "樂": 2283,
      "樊": 2284,
      "樟": 2285,
      "模": 2286,
      "横": 2287,
      "樯": 2288,
      "樱": 2289,
      "樽": 2290,
      "橄": 2291,
      "橇": 2292,
      "橘": 2293,
      "橙": 2294,
      "橛": 2295,
      "橡": 2296,
      "橱": 2297,
      "檀": 2298,
      "檐": 2299,
      "檗": 2300,
      "檩": 2301,
      "檬": 2302,
      "檵": 2303,
      "欠": 2304,
      "次": 2305,
      "欢": 2306,
      "欣": 2307,
      "欤": 2308,
      "欧": 2309,
      "欲": 2310,
      "欸": 2311,
      "欺": 2312,
      "款": 2313,
      "歇": 2314,
      "歉": 2315,
      "歌": 2316,
      "歙": 2317,
      "止": 2318,
      "正": 2319,
      "此": 2320,
      "步": 2321,
      "武": 2322,
      "歧": 2323,
      "歪": 2324,
      "歷": 2325,
      "歹": 2326,
      "死": 2327,
      "歼": 2328,
      "殃": 2329,
      "殆": 2330,
      "殇": 2331,
      "殉": 2332,
      "殊": 2333,
      "残": 2334,
      "殓": 2335,
      "殖": 2336,
      "殚": 2337,
      "殡": 2338,
      "殴": 2339,
      "段": 2340,
      "殷": 2341,
      "殿": 2342,
      "毁": 2343,
      "毂": 2344,
      "毅": 2345,
      "毋": 2346,
      "母": 2347,
      "每": 2348,
      "毒": 2349,
      "比": 2350,
      "毕": 2351,
      "毗": 2352,
      "毙": 2353,
      "毛": 2354,
      "毡": 2355,
      "毫": 2356,
      "毬": 2357,
      "毯": 2358,
      "氏": 2359,
      "民": 2360,
      "氓": 2361,
      "气": 2362,
      "氘": 2363,
      "氙": 2364,
      "氛": 2365,
      "氟": 2366,
      "氡": 2367,
      "氢": 2368,
      "氦": 2369,
      "氧": 2370,
      "氨": 2371,
      "氩": 2372,
      "氮": 2373,
      "氯": 2374,
      "氰": 2375,
      "水": 2376,
      "永": 2377,
      "汀": 2378,
      "汁": 2379,
      "求": 2380,
      "汇": 2381,
      "汉": 2382,
      "汊": 2383,
      "汐": 2384,
      "汕": 2385,
      "汗": 2386,
      "汛": 2387,
      "汝": 2388,
      "汞": 2389,
      "江": 2390,
      "池": 2391,
      "污": 2392,
      "汤": 2393,
      "汪": 2394,
      "汰": 2395,
      "汲": 2396,
      "汶": 2397,
      "汸": 2398,
      "汽": 2399,
      "汾": 2400,
      "沁": 2401,
      "沂": 2402,
      "沃": 2403,
      "沈": 2404,
      "沉": 2405,
      "沌": 2406,
      "沏": 2407,
      "沐": 2408,
      "沙": 2409,
      "沛": 2410,
      "沟": 2411,
      "没": 2412,
      "沣": 2413,
      "沥": 2414,
      "沦": 2415,
      "沧": 2416,
      "沪": 2417,
      "沫": 2418,
      "沮": 2419,
      "河": 2420,
      "沵": 2421,
      "沸": 2422,
      "油": 2423,
      "治": 2424,
      "沼": 2425,
      "沽": 2426,
      "沾": 2427,
      "沿": 2428,
      "泄": 2429,
      "泉": 2430,
      "泊": 2431,
      "泌": 2432,
      "泓": 2433,
      "泔": 2434,
      "法": 2435,
      "泖": 2436,
      "泗": 2437,
      "泛": 2438,
      "泞": 2439,
      "泡": 2440,
      "波": 2441,
      "泣": 2442,
      "泥": 2443,
      "注": 2444,
      "泪": 2445,
      "泮": 2446,
      "泯": 2447,
      "泰": 2448,
      "泳": 2449,
      "泵": 2450,
      "泸": 2451,
      "泻": 2452,
      "泼": 2453,
      "泽": 2454,
      "洁": 2455,
      "洋": 2456,
      "洒": 2457,
      "洗": 2458,
      "洛": 2459,
      "洞": 2460,
      "津": 2461,
      "洩": 2462,
      "洪": 2463,
      "洮": 2464,
      "洱": 2465,
      "洲": 2466,
      "活": 2467,
      "洼": 2468,
      "洽": 2469,
      "派": 2470,
      "流": 2471,
      "浅": 2472,
      "浆": 2473,
      "浇": 2474,
      "浊": 2475,
      "测": 2476,
      "济": 2477,
      "浏": 2478,
      "浑": 2479,
      "浒": 2480,
      "浓": 2481,
      "浙": 2482,
      "浚": 2483,
      "浜": 2484,
      "浣": 2485,
      "浦": 2486,
      "浩": 2487,
      "浪": 2488,
      "浮": 2489,
      "浴": 2490,
      "海": 2491,
      "浸": 2492,
      "涂": 2493,
      "涅": 2494,
      "消": 2495,
      "涉": 2496,
      "涌": 2497,
      "涎": 2498,
      "涐": 2499,
      "涓": 2500,
      "涕": 2501,
      "涛": 2502,
      "涝": 2503,
      "涟": 2504,
      "涡": 2505,
      "涣": 2506,
      "涤": 2507,
      "润": 2508,
      "涧": 2509,
      "涨": 2510,
      "涩": 2511,
      "涪": 2512,
      "涯": 2513,
      "液": 2514,
      "涵": 2515,
      "涸": 2516,
      "淀": 2517,
      "淄": 2518,
      "淆": 2519,
      "淇": 2520,
      "淋": 2521,
      "淌": 2522,
      "淑": 2523,
      "淘": 2524,
      "淞": 2525,
      "淡": 2526,
      "淤": 2527,
      "淩": 2528,
      "淫": 2529,
      "淬": 2530,
      "淮": 2531,
      "深": 2532,
      "淳": 2533,
      "混": 2534,
      "淹": 2535,
      "添": 2536,
      "清": 2537,
      "渊": 2538,
      "渍": 2539,
      "渎": 2540,
      "渐": 2541,
      "渔": 2542,
      "渗": 2543,
      "渝": 2544,
      "渠": 2545,
      "渡": 2546,
      "渣": 2547,
      "渤": 2548,
      "渥": 2549,
      "温": 2550,
      "渭": 2551,
      "港": 2552,
      "渲": 2553,
      "渴": 2554,
      "游": 2555,
      "渺": 2556,
      "湃": 2557,
      "湄": 2558,
      "湍": 2559,
      "湎": 2560,
      "湖": 2561,
      "湘": 2562,
      "湛": 2563,
      "湜": 2564,
      "湟": 2565,
      "湫": 2566,
      "湮": 2567,
      "湾": 2568,
      "湿": 2569,
      "溃": 2570,
      "溅": 2571,
      "溉": 2572,
      "源": 2573,
      "溜": 2574,
      "溢": 2575,
      "溥": 2576,
      "溧": 2577,
      "溪": 2578,
      "溯": 2579,
      "溴": 2580,
      "溶": 2581,
      "溺": 2582,
      "滁": 2583,
      "滇": 2584,
      "滋": 2585,
      "滑": 2586,
      "滔": 2587,
      "滕": 2588,
      "滘": 2589,
      "滚": 2590,
      "滞": 2591,
      "滠": 2592,
      "满": 2593,
      "滤": 2594,
      "滥": 2595,
      "滦": 2596,
      "滨": 2597,
      "滩": 2598,
      "滴": 2599,
      "漂": 2600,
      "漆": 2601,
      "漉": 2602,
      "漏": 2603,
      "漓": 2604,
      "演": 2605,
      "漕": 2606,
      "漠": 2607,
      "漩": 2608,
      "漪": 2609,
      "漫": 2610,
      "漯": 2611,
      "漱": 2612,
      "漳": 2613,
      "潇": 2614,
      "潍": 2615,
      "潘": 2616,
      "潜": 2617,
      "潞": 2618,
      "潟": 2619,
      "潢": 2620,
      "潦": 2621,
      "潭": 2622,
      "潮": 2623,
      "潺": 2624,
      "澄": 2625,
      "澈": 2626,
      "澍": 2627,
      "澎": 2628,
      "澜": 2629,
      "澡": 2630,
      "澳": 2631,
      "激": 2632,
      "濒": 2633,
      "濡": 2634,
      "瀑": 2635,
      "瀚": 2636,
      "灌": 2637,
      "火": 2638,
      "灭": 2639,
      "灯": 2640,
      "灰": 2641,
      "灵": 2642,
      "灶": 2643,
      "灸": 2644,
      "灼": 2645,
      "灾": 2646,
      "灿": 2647,
      "炉": 2648,
      "炊": 2649,
      "炎": 2650,
      "炒": 2651,
      "炔": 2652,
      "炖": 2653,
      "炙": 2654,
      "炤": 2655,
      "炫": 2656,
      "炬": 2657,
      "炭": 2658,
      "炮": 2659,
      "炯": 2660,
      "炳": 2661,
      "炸": 2662,
      "点": 2663,
      "炼": 2664,
      "炽": 2665,
      "烁": 2666,
      "烂": 2667,
      "烃": 2668,
      "烈": 2669,
      "烘": 2670,
      "烙": 2671,
      "烛": 2672,
      "烟": 2673,
      "烤": 2674,
      "烦": 2675,
      "烧": 2676,
      "烩": 2677,
      "烫": 2678,
      "烬": 2679,
      "热": 2680,
      "烯": 2681,
      "烷": 2682,
      "烹": 2683,
      "烽": 2684,
      "焊": 2685,
      "焓": 2686,
      "焕": 2687,
      "焗": 2688,
      "焘": 2689,
      "焙": 2690,
      "焚": 2691,
      "焦": 2692,
      "焰": 2693,
      "然": 2694,
      "煀": 2695,
      "煅": 2696,
      "煊": 2697,
      "煌": 2698,
      "煎": 2699,
      "煞": 2700,
      "煤": 2701,
      "煦": 2702,
      "照": 2703,
      "煮": 2704,
      "煲": 2705,
      "煳": 2706,
      "煺": 2707,
      "煽": 2708,
      "熄": 2709,
      "熊": 2710,
      "熏": 2711,
      "熔": 2712,
      "熘": 2713,
      "熙": 2714,
      "熟": 2715,
      "熠": 2716,
      "熨": 2717,
      "熬": 2718,
      "熵": 2719,
      "熹": 2720,
      "燃": 2721,
      "燊": 2722,
      "燎": 2723,
      "燔": 2724,
      "燕": 2725,
      "燥": 2726,
      "燧": 2727,
      "燮": 2728,
      "爆": 2729,
      "爪": 2730,
      "爬": 2731,
      "爱": 2732,
      "爵": 2733,
      "父": 2734,
      "爷": 2735,
      "爸": 2736,
      "爹": 2737,
      "爽": 2738,
      "片": 2739,
      "版": 2740,
      "牌": 2741,
      "牍": 2742,
      "牙": 2743,
      "牛": 2744,
      "牟": 2745,
      "牠": 2746,
      "牡": 2747,
      "牢": 2748,
      "牦": 2749,
      "牧": 2750,
      "物": 2751,
      "牲": 2752,
      "牵": 2753,
      "特": 2754,
      "牺": 2755,
      "犀": 2756,
      "犁": 2757,
      "犊": 2758,
      "犬": 2759,
      "犯": 2760,
      "犰": 2761,
      "状": 2762,
      "犷": 2763,
      "犸": 2764,
      "犹": 2765,
      "狂": 2766,
      "狄": 2767,
      "狐": 2768,
      "狒": 2769,
      "狗": 2770,
      "狙": 2771,
      "狞": 2772,
      "狠": 2773,
      "狡": 2774,
      "狩": 2775,
      "独": 2776,
      "狭": 2777,
      "狮": 2778,
      "狰": 2779,
      "狱": 2780,
      "狳": 2781,
      "狸": 2782,
      "狼": 2783,
      "猎": 2784,
      "猕": 2785,
      "猖": 2786,
      "猛": 2787,
      "猜": 2788,
      "猝": 2789,
      "猥": 2790,
      "猩": 2791,
      "猪": 2792,
      "猫": 2793,
      "猬": 2794,
      "献": 2795,
      "猴": 2796,
      "猾": 2797,
      "猿": 2798,
      "獐": 2799,
      "獒": 2800,
      "獭": 2801,
      "玄": 2802,
      "率": 2803,
      "玉": 2804,
      "玊": 2805,
      "王": 2806,
      "玍": 2807,
      "玛": 2808,
      "玡": 2809,
      "玢": 2810,
      "玥": 2811,
      "玩": 2812,
      "玫": 2813,
      "玮": 2814,
      "环": 2815,
      "现": 2816,
      "玲": 2817,
      "玷": 2818,
      "玻": 2819,
      "珀": 2820,
      "珂": 2821,
      "珈": 2822,
      "珉": 2823,
      "珊": 2824,
      "珍": 2825,
      "珐": 2826,
      "珑": 2827,
      "珞": 2828,
      "珠": 2829,
      "珥": 2830,
      "班": 2831,
      "珲": 2832,
      "珽": 2833,
      "球": 2834,
      "琅": 2835,
      "理": 2836,
      "琉": 2837,
      "琏": 2838,
      "琐": 2839,
      "琛": 2840,
      "琢": 2841,
      "琥": 2842,
      "琦": 2843,
      "琪": 2844,
      "琯": 2845,
      "琳": 2846,
      "琴": 2847,
      "琵": 2848,
      "琶": 2849,
      "琼": 2850,
      "瑄": 2851,
      "瑕": 2852,
      "瑙": 2853,
      "瑚": 2854,
      "瑜": 2855,
      "瑞": 2856,
      "瑟": 2857,
      "瑰": 2858,
      "瑶": 2859,
      "璀": 2860,
      "璁": 2861,
      "璃": 2862,
      "璇": 2863,
      "璋": 2864,
      "璐": 2865,
      "璜": 2866,
      "璞": 2867,
      "璧": 2868,
      "璨": 2869,
      "瓜": 2870,
      "瓢": 2871,
      "瓣": 2872,
      "瓦": 2873,
      "瓯": 2874,
      "瓶": 2875,
      "瓷": 2876,
      "甄": 2877,
      "甐": 2878,
      "甘": 2879,
      "甙": 2880,
      "甚": 2881,
      "甜": 2882,
      "生": 2883,
      "用": 2884,
      "甩": 2885,
      "甫": 2886,
      "甬": 2887,
      "甭": 2888,
      "甯": 2889,
      "田": 2890,
      "由": 2891,
      "甲": 2892,
      "申": 2893,
      "电": 2894,
      "男": 2895,
      "甸": 2896,
      "町": 2897,
      "画": 2898,
      "甾": 2899,
      "畅": 2900,
      "界": 2901,
      "畏": 2902,
      "畑": 2903,
      "畔": 2904,
      "留": 2905,
      "畜": 2906,
      "略": 2907,
      "畦": 2908,
      "番": 2909,
      "異": 2910,
      "畴": 2911,
      "畸": 2912,
      "疆": 2913,
      "疋": 2914,
      "疏": 2915,
      "疑": 2916,
      "疖": 2917,
      "疗": 2918,
      "疙": 2919,
      "疚": 2920,
      "疝": 2921,
      "疟": 2922,
      "疡": 2923,
      "疣": 2924,
      "疤": 2925,
      "疥": 2926,
      "疫": 2927,
      "疮": 2928,
      "疯": 2929,
      "疱": 2930,
      "疲": 2931,
      "疳": 2932,
      "疴": 2933,
      "疵": 2934,
      "疸": 2935,
      "疹": 2936,
      "疼": 2937,
      "疽": 2938,
      "疾": 2939,
      "痂": 2940,
      "痃": 2941,
      "病": 2942,
      "症": 2943,
      "痉": 2944,
      "痊": 2945,
      "痍": 2946,
      "痒": 2947,
      "痔": 2948,
      "痕": 2949,
      "痘": 2950,
      "痛": 2951,
      "痞": 2952,
      "痢": 2953,
      "痣": 2954,
      "痤": 2955,
      "痧": 2956,
      "痪": 2957,
      "痫": 2958,
      "痬": 2959,
      "痰": 2960,
      "痲": 2961,
      "痴": 2962,
      "痹": 2963,
      "痺": 2964,
      "痿": 2965,
      "瘀": 2966,
      "瘁": 2967,
      "瘊": 2968,
      "瘘": 2969,
      "瘙": 2970,
      "瘟": 2971,
      "瘠": 2972,
      "瘢": 2973,
      "瘤": 2974,
      "瘦": 2975,
      "瘩": 2976,
      "瘫": 2977,
      "瘴": 2978,
      "瘾": 2979,
      "瘿": 2980,
      "療": 2981,
      "癊": 2982,
      "癌": 2983,
      "癎": 2984,
      "癔": 2985,
      "癖": 2986,
      "癜": 2987,
      "癣": 2988,
      "癫": 2989,
      "癯": 2990,
      "癸": 2991,
      "登": 2992,
      "白": 2993,
      "百": 2994,
      "皂": 2995,
      "的": 2996,
      "皆": 2997,
      "皇": 2998,
      "皈": 2999,
      "皎": 3000,
      "皑": 3001,
      "皒": 3002,
      "皓": 3003,
      "皖": 3004,
      "皙": 3005,
      "皮": 3006,
      "皱": 3007,
      "皿": 3008,
      "盂": 3009,
      "盃": 3010,
      "盅": 3011,
      "盆": 3012,
      "盈": 3013,
      "益": 3014,
      "盍": 3015,
      "盎": 3016,
      "盏": 3017,
      "盐": 3018,
      "监": 3019,
      "盒": 3020,
      "盔": 3021,
      "盖": 3022,
      "盗": 3023,
      "盘": 3024,
      "盛": 3025,
      "盟": 3026,
      "盥": 3027,
      "目": 3028,
      "盯": 3029,
      "盲": 3030,
      "直": 3031,
      "相": 3032,
      "盹": 3033,
      "盼": 3034,
      "盾": 3035,
      "省": 3036,
      "眈": 3037,
      "眉": 3038,
      "看": 3039,
      "眞": 3040,
      "真": 3041,
      "眠": 3042,
      "眦": 3043,
      "眨": 3044,
      "眩": 3045,
      "眯": 3046,
      "眳": 3047,
      "眶": 3048,
      "眷": 3049,
      "眸": 3050,
      "眺": 3051,
      "眼": 3052,
      "着": 3053,
      "睁": 3054,
      "睇": 3055,
      "睐": 3056,
      "睑": 3057,
      "睛": 3058,
      "睡": 3059,
      "睢": 3060,
      "督": 3061,
      "睦": 3062,
      "睪": 3063,
      "睫": 3064,
      "睬": 3065,
      "睹": 3066,
      "睾": 3067,
      "睿": 3068,
      "瞄": 3069,
      "瞅": 3070,
      "瞋": 3071,
      "瞌": 3072,
      "瞎": 3073,
      "瞒": 3074,
      "瞠": 3075,
      "瞥": 3076,
      "瞧": 3077,
      "瞩": 3078,
      "瞪": 3079,
      "瞬": 3080,
      "瞭": 3081,
      "瞰": 3082,
      "瞳": 3083,
      "瞻": 3084,
      "矍": 3085,
      "矗": 3086,
      "矛": 3087,
      "矜": 3088,
      "矢": 3089,
      "矣": 3090,
      "知": 3091,
      "矩": 3092,
      "矫": 3093,
      "短": 3094,
      "矮": 3095,
      "石": 3096,
      "矶": 3097,
      "矸": 3098,
      "矽": 3099,
      "矾": 3100,
      "矿": 3101,
      "码": 3102,
      "砂": 3103,
      "砌": 3104,
      "砍": 3105,
      "研": 3106,
      "砖": 3107,
      "砚": 3108,
      "砜": 3109,
      "砝": 3110,
      "砥": 3111,
      "砧": 3112,
      "砰": 3113,
      "破": 3114,
      "砷": 3115,
      "砸": 3116,
      "砺": 3117,
      "砼": 3118,
      "砾": 3119,
      "础": 3120,
      "硅": 3121,
      "硒": 3122,
      "硕": 3123,
      "硝": 3124,
      "硫": 3125,
      "硬": 3126,
      "确": 3127,
      "硼": 3128,
      "碇": 3129,
      "碉": 3130,
      "碌": 3131,
      "碍": 3132,
      "碎": 3133,
      "碑": 3134,
      "碗": 3135,
      "碘": 3136,
      "碜": 3137,
      "碟": 3138,
      "碧": 3139,
      "碰": 3140,
      "碱": 3141,
      "碲": 3142,
      "碳": 3143,
      "碾": 3144,
      "磁": 3145,
      "磅": 3146,
      "磊": 3147,
      "磋": 3148,
      "磐": 3149,
      "磕": 3150,
      "磨": 3151,
      "磬": 3152,
      "磱": 3153,
      "磷": 3154,
      "磺": 3155,
      "礁": 3156,
      "礐": 3157,
      "礴": 3158,
      "示": 3159,
      "礼": 3160,
      "社": 3161,
      "祀": 3162,
      "祁": 3163,
      "祂": 3164,
      "祇": 3165,
      "祈": 3166,
      "祉": 3167,
      "祖": 3168,
      "祛": 3169,
      "祜": 3170,
      "祝": 3171,
      "神": 3172,
      "祟": 3173,
      "祠": 3174,
      "祢": 3175,
      "祥": 3176,
      "票": 3177,
      "祭": 3178,
      "祯": 3179,
      "祷": 3180,
      "祸": 3181,
      "祺": 3182,
      "祼": 3183,
      "祾": 3184,
      "禀": 3185,
      "禁": 3186,
      "禄": 3187,
      "禅": 3188,
      "福": 3189,
      "禧": 3190,
      "禹": 3191,
      "禺": 3192,
      "离": 3193,
      "禽": 3194,
      "禾": 3195,
      "秀": 3196,
      "私": 3197,
      "秂": 3198,
      "秃": 3199,
      "秆": 3200,
      "秉": 3201,
      "秋": 3202,
      "种": 3203,
      "科": 3204,
      "秒": 3205,
      "秘": 3206,
      "租": 3207,
      "秤": 3208,
      "秦": 3209,
      "秧": 3210,
      "秩": 3211,
      "积": 3212,
      "称": 3213,
      "秸": 3214,
      "移": 3215,
      "秽": 3216,
      "稀": 3217,
      "程": 3218,
      "稍": 3219,
      "税": 3220,
      "稔": 3221,
      "稗": 3222,
      "稚": 3223,
      "稜": 3224,
      "稞": 3225,
      "稠": 3226,
      "稣": 3227,
      "稳": 3228,
      "稻": 3229,
      "稼": 3230,
      "稽": 3231,
      "稾": 3232,
      "稿": 3233,
      "穆": 3234,
      "穗": 3235,
      "穴": 3236,
      "究": 3237,
      "穷": 3238,
      "穹": 3239,
      "空": 3240,
      "穿": 3241,
      "突": 3242,
      "窃": 3243,
      "窄": 3244,
      "窈": 3245,
      "窍": 3246,
      "窑": 3247,
      "窒": 3248,
      "窕": 3249,
      "窖": 3250,
      "窗": 3251,
      "窘": 3252,
      "窜": 3253,
      "窝": 3254,
      "窟": 3255,
      "窠": 3256,
      "窥": 3257,
      "窦": 3258,
      "窭": 3259,
      "立": 3260,
      "竖": 3261,
      "站": 3262,
      "竞": 3263,
      "竟": 3264,
      "章": 3265,
      "竣": 3266,
      "童": 3267,
      "竭": 3268,
      "端": 3269,
      "竹": 3270,
      "竺": 3271,
      "竽": 3272,
      "竿": 3273,
      "笃": 3274,
      "笆": 3275,
      "笈": 3276,
      "笋": 3277,
      "笑": 3278,
      "笔": 3279,
      "笕": 3280,
      "笙": 3281,
      "笛": 3282,
      "笞": 3283,
      "笠": 3284,
      "符": 3285,
      "笨": 3286,
      "第": 3287,
      "笺": 3288,
      "笼": 3289,
      "等": 3290,
      "筋": 3291,
      "筏": 3292,
      "筐": 3293,
      "筑": 3294,
      "筒": 3295,
      "答": 3296,
      "策": 3297,
      "筛": 3298,
      "筝": 3299,
      "筠": 3300,
      "筮": 3301,
      "筵": 3302,
      "筷": 3303,
      "筹": 3304,
      "签": 3305,
      "简": 3306,
      "箍": 3307,
      "箔": 3308,
      "箕": 3309,
      "算": 3310,
      "箝": 3311,
      "管": 3312,
      "箨": 3313,
      "箫": 3314,
      "箭": 3315,
      "箱": 3316,
      "箴": 3317,
      "篆": 3318,
      "篇": 3319,
      "篑": 3320,
      "篓": 3321,
      "篝": 3322,
      "篡": 3323,
      "篪": 3324,
      "篮": 3325,
      "篱": 3326,
      "篷": 3327,
      "簇": 3328,
      "簌": 3329,
      "簧": 3330,
      "簸": 3331,
      "簿": 3332,
      "籁": 3333,
      "籍": 3334,
      "米": 3335,
      "类": 3336,
      "籼": 3337,
      "籽": 3338,
      "粉": 3339,
      "粑": 3340,
      "粒": 3341,
      "粕": 3342,
      "粗": 3343,
      "粘": 3344,
      "粟": 3345,
      "粤": 3346,
      "粥": 3347,
      "粪": 3348,
      "粮": 3349,
      "粱": 3350,
      "粲": 3351,
      "粳": 3352,
      "粹": 3353,
      "粽": 3354,
      "精": 3355,
      "糁": 3356,
      "糅": 3357,
      "糊": 3358,
      "糌": 3359,
      "糕": 3360,
      "糖": 3361,
      "糗": 3362,
      "糙": 3363,
      "糜": 3364,
      "糟": 3365,
      "糠": 3366,
      "糯": 3367,
      "系": 3368,
      "紊": 3369,
      "素": 3370,
      "索": 3371,
      "紧": 3372,
      "紫": 3373,
      "累": 3374,
      "絮": 3375,
      "継": 3376,
      "緫": 3377,
      "練": 3378,
      "繁": 3379,
      "纂": 3380,
      "纠": 3381,
      "红": 3382,
      "纤": 3383,
      "纥": 3384,
      "约": 3385,
      "级": 3386,
      "纪": 3387,
      "纫": 3388,
      "纬": 3389,
      "纭": 3390,
      "纯": 3391,
      "纱": 3392,
      "纲": 3393,
      "纳": 3394,
      "纵": 3395,
      "纶": 3396,
      "纷": 3397,
      "纸": 3398,
      "纹": 3399,
      "纺": 3400,
      "纽": 3401,
      "线": 3402,
      "绀": 3403,
      "练": 3404,
      "组": 3405,
      "绅": 3406,
      "细": 3407,
      "织": 3408,
      "终": 3409,
      "绉": 3410,
      "绊": 3411,
      "绌": 3412,
      "绍": 3413,
      "绎": 3414,
      "经": 3415,
      "绑": 3416,
      "绒": 3417,
      "结": 3418,
      "绕": 3419,
      "绗": 3420,
      "绘": 3421,
      "给": 3422,
      "绚": 3423,
      "络": 3424,
      "绝": 3425,
      "绞": 3426,
      "统": 3427,
      "绢": 3428,
      "绣": 3429,
      "绥": 3430,
      "绦": 3431,
      "继": 3432,
      "绩": 3433,
      "绪": 3434,
      "绫": 3435,
      "续": 3436,
      "绮": 3437,
      "绯": 3438,
      "绰": 3439,
      "绳": 3440,
      "维": 3441,
      "绵": 3442,
      "绷": 3443,
      "绸": 3444,
      "绺": 3445,
      "综": 3446,
      "绽": 3447,
      "绿": 3448,
      "缀": 3449,
      "缅": 3450,
      "缆": 3451,
      "缇": 3452,
      "缈": 3453,
      "缉": 3454,
      "缋": 3455,
      "缌": 3456,
      "缍": 3457,
      "缎": 3458,
      "缏": 3459,
      "缐": 3460,
      "缓": 3461,
      "缔": 3462,
      "缕": 3463,
      "编": 3464,
      "缘": 3465,
      "缚": 3466,
      "缝": 3467,
      "缠": 3468,
      "缤": 3469,
      "缥": 3470,
      "缩": 3471,
      "缪": 3472,
      "缬": 3473,
      "缭": 3474,
      "缰": 3475,
      "缴": 3476,
      "缷": 3477,
      "缸": 3478,
      "缺": 3479,
      "罂": 3480,
      "罐": 3481,
      "网": 3482,
      "罒": 3483,
      "罕": 3484,
      "罗": 3485,
      "罘": 3486,
      "罚": 3487,
      "罢": 3488,
      "罨": 3489,
      "罩": 3490,
      "罪": 3491,
      "置": 3492,
      "署": 3493,
      "罹": 3494,
      "罽": 3495,
      "罾": 3496,
      "羁": 3497,
      "羇": 3498,
      "羊": 3499,
      "羌": 3500,
      "美": 3501,
      "羓": 3502,
      "羔": 3503,
      "羙": 3504,
      "羚": 3505,
      "羞": 3506,
      "羟": 3507,
      "羡": 3508,
      "群": 3509,
      "羧": 3510,
      "羬": 3511,
      "羯": 3512,
      "羰": 3513,
      "羲": 3514,
      "羸": 3515,
      "羹": 3516,
      "羽": 3517,
      "翁": 3518,
      "翅": 3519,
      "翎": 3520,
      "翑": 3521,
      "翓": 3522,
      "翔": 3523,
      "翘": 3524,
      "翞": 3525,
      "翟": 3526,
      "翠": 3527,
      "翡": 3528,
      "翤": 3529,
      "翦": 3530,
      "翩": 3531,
      "翰": 3532,
      "翱": 3533,
      "翳": 3534,
      "翴": 3535,
      "翻": 3536,
      "翼": 3537,
      "耀": 3538,
      "老": 3539,
      "考": 3540,
      "耄": 3541,
      "者": 3542,
      "耆": 3543,
      "耋": 3544,
      "而": 3545,
      "耍": 3546,
      "耐": 3547,
      "耕": 3548,
      "耗": 3549,
      "耘": 3550,
      "耙": 3551,
      "耦": 3552,
      "耳": 3553,
      "耶": 3554,
      "耷": 3555,
      "耸": 3556,
      "耻": 3557,
      "耽": 3558,
      "耿": 3559,
      "聂": 3560,
      "聆": 3561,
      "聊": 3562,
      "聋": 3563,
      "职": 3564,
      "聒": 3565,
      "联": 3566,
      "聘": 3567,
      "聚": 3568,
      "聪": 3569,
      "聿": 3570,
      "肃": 3571,
      "肆": 3572,
      "肇": 3573,
      "肉": 3574,
      "肋": 3575,
      "肌": 3576,
      "肓": 3577,
      "肖": 3578,
      "肘": 3579,
      "肚": 3580,
      "肛": 3581,
      "肝": 3582,
      "肟": 3583,
      "肠": 3584,
      "股": 3585,
      "肢": 3586,
      "肤": 3587,
      "肥": 3588,
      "肩": 3589,
      "肪": 3590,
      "肮": 3591,
      "肯": 3592,
      "肱": 3593,
      "育": 3594,
      "肴": 3595,
      "肺": 3596,
      "肼": 3597,
      "肽": 3598,
      "肾": 3599,
      "肿": 3600,
      "胀": 3601,
      "胁": 3602,
      "胃": 3603,
      "胄": 3604,
      "胆": 3605,
      "背": 3606,
      "胍": 3607,
      "胎": 3608,
      "胖": 3609,
      "胚": 3610,
      "胛": 3611,
      "胜": 3612,
      "胝": 3613,
      "胞": 3614,
      "胡": 3615,
      "胧": 3616,
      "胫": 3617,
      "胬": 3618,
      "胭": 3619,
      "胯": 3620,
      "胰": 3621,
      "胱": 3622,
      "胳": 3623,
      "胴": 3624,
      "胶": 3625,
      "胸": 3626,
      "胺": 3627,
      "胼": 3628,
      "能": 3629,
      "脂": 3630,
      "脆": 3631,
      "脉": 3632,
      "脊": 3633,
      "脍": 3634,
      "脏": 3635,
      "脐": 3636,
      "脑": 3637,
      "脒": 3638,
      "脓": 3639,
      "脖": 3640,
      "脚": 3641,
      "脱": 3642,
      "脲": 3643,
      "脸": 3644,
      "脾": 3645,
      "腆": 3646,
      "腈": 3647,
      "腊": 3648,
      "腋": 3649,
      "腌": 3650,
      "腐": 3651,
      "腑": 3652,
      "腓": 3653,
      "腔": 3654,
      "腕": 3655,
      "腙": 3656,
      "腥": 3657,
      "腧": 3658,
      "腭": 3659,
      "腮": 3660,
      "腰": 3661,
      "腱": 3662,
      "腴": 3663,
      "腹": 3664,
      "腺": 3665,
      "腻": 3666,
      "腼": 3667,
      "腾": 3668,
      "腿": 3669,
      "膀": 3670,
      "膈": 3671,
      "膊": 3672,
      "膏": 3673,
      "膘": 3674,
      "膛": 3675,
      "膜": 3676,
      "膝": 3677,
      "膦": 3678,
      "膨": 3679,
      "膳": 3680,
      "膺": 3681,
      "臀": 3682,
      "臂": 3683,
      "臃": 3684,
      "臊": 3685,
      "臣": 3686,
      "臧": 3687,
      "臨": 3688,
      "自": 3689,
      "臭": 3690,
      "至": 3691,
      "致": 3692,
      "臻": 3693,
      "臼": 3694,
      "臾": 3695,
      "舀": 3696,
      "舅": 3697,
      "舆": 3698,
      "舌": 3699,
      "舍": 3700,
      "舐": 3701,
      "舒": 3702,
      "舔": 3703,
      "舜": 3704,
      "舞": 3705,
      "舟": 3706,
      "舢": 3707,
      "航": 3708,
      "般": 3709,
      "舰": 3710,
      "舱": 3711,
      "舵": 3712,
      "舶": 3713,
      "舷": 3714,
      "船": 3715,
      "艇": 3716,
      "艘": 3717,
      "艮": 3718,
      "良": 3719,
      "艰": 3720,
      "色": 3721,
      "艳": 3722,
      "艹": 3723,
      "艺": 3724,
      "艾": 3725,
      "艿": 3726,
      "节": 3727,
      "芊": 3728,
      "芋": 3729,
      "芍": 3730,
      "芎": 3731,
      "芒": 3732,
      "芙": 3733,
      "芜": 3734,
      "芝": 3735,
      "芥": 3736,
      "芦": 3737,
      "芨": 3738,
      "芩": 3739,
      "芪": 3740,
      "芫": 3741,
      "芬": 3742,
      "芭": 3743,
      "芮": 3744,
      "芯": 3745,
      "花": 3746,
      "芳": 3747,
      "芸": 3748,
      "芹": 3749,
      "芽": 3750,
      "苄": 3751,
      "苇": 3752,
      "苋": 3753,
      "苍": 3754,
      "苎": 3755,
      "苏": 3756,
      "苑": 3757,
      "苓": 3758,
      "苔": 3759,
      "苗": 3760,
      "苛": 3761,
      "苜": 3762,
      "苞": 3763,
      "苟": 3764,
      "苣": 3765,
      "若": 3766,
      "苦": 3767,
      "苯": 3768,
      "英": 3769,
      "苷": 3770,
      "苹": 3771,
      "茁": 3772,
      "茂": 3773,
      "范": 3774,
      "茄": 3775,
      "茅": 3776,
      "茉": 3777,
      "茎": 3778,
      "茔": 3779,
      "茗": 3780,
      "茚": 3781,
      "茜": 3782,
      "茧": 3783,
      "茨": 3784,
      "茫": 3785,
      "茬": 3786,
      "茭": 3787,
      "茯": 3788,
      "茱": 3789,
      "茴": 3790,
      "茵": 3791,
      "茶": 3792,
      "茸": 3793,
      "茹": 3794,
      "荀": 3795,
      "荆": 3796,
      "草": 3797,
      "荐": 3798,
      "荒": 3799,
      "荔": 3800,
      "荚": 3801,
      "荞": 3802,
      "荟": 3803,
      "荠": 3804,
      "荡": 3805,
      "荣": 3806,
      "荤": 3807,
      "荧": 3808,
      "荨": 3809,
      "荪": 3810,
      "荫": 3811,
      "药": 3812,
      "荷": 3813,
      "荻": 3814,
      "荼": 3815,
      "荽": 3816,
      "莂": 3817,
      "莅": 3818,
      "莉": 3819,
      "莎": 3820,
      "莓": 3821,
      "莘": 3822,
      "莞": 3823,
      "莠": 3824,
      "莨": 3825,
      "莪": 3826,
      "莫": 3827,
      "莰": 3828,
      "莱": 3829,
      "莲": 3830,
      "莳": 3831,
      "莴": 3832,
      "获": 3833,
      "莹": 3834,
      "莺": 3835,
      "莽": 3836,
      "菁": 3837,
      "菂": 3838,
      "菅": 3839,
      "菇": 3840,
      "菊": 3841,
      "菌": 3842,
      "菔": 3843,
      "菜": 3844,
      "菟": 3845,
      "菠": 3846,
      "菡": 3847,
      "菩": 3848,
      "菪": 3849,
      "菱": 3850,
      "菲": 3851,
      "菸": 3852,
      "萃": 3853,
      "萄": 3854,
      "萋": 3855,
      "萌": 3856,
      "萍": 3857,
      "萎": 3858,
      "萘": 3859,
      "萜": 3860,
      "萝": 3861,
      "萤": 3862,
      "营": 3863,
      "萦": 3864,
      "萧": 3865,
      "萨": 3866,
      "萱": 3867,
      "萸": 3868,
      "萼": 3869,
      "落": 3870,
      "葆": 3871,
      "著": 3872,
      "葛": 3873,
      "葠": 3874,
      "葡": 3875,
      "董": 3876,
      "葩": 3877,
      "葫": 3878,
      "葬": 3879,
      "葭": 3880,
      "葰": 3881,
      "葱": 3882,
      "葵": 3883,
      "葺": 3884,
      "蒂": 3885,
      "蒈": 3886,
      "蒋": 3887,
      "蒌": 3888,
      "蒐": 3889,
      "蒙": 3890,
      "蒜": 3891,
      "蒟": 3892,
      "蒲": 3893,
      "蒸": 3894,
      "蒹": 3895,
      "蒺": 3896,
      "蒻": 3897,
      "蒽": 3898,
      "蒿": 3899,
      "蓄": 3900,
      "蓉": 3901,
      "蓍": 3902,
      "蓑": 3903,
      "蓓": 3904,
      "蓖": 3905,
      "蓝": 3906,
      "蓟": 3907,
      "蓣": 3908,
      "蓬": 3909,
      "蓿": 3910,
      "蔑": 3911,
      "蔓": 3912,
      "蔗": 3913,
      "蔚": 3914,
      "蔟": 3915,
      "蔡": 3916,
      "蔬": 3917,
      "蔷": 3918,
      "蔺": 3919,
      "蔻": 3920,
      "蔼": 3921,
      "蔽": 3922,
      "蕃": 3923,
      "蕈": 3924,
      "蕉": 3925,
      "蕊": 3926,
      "蕙": 3927,
      "蕨": 3928,
      "蕴": 3929,
      "蕺": 3930,
      "蕾": 3931,
      "薄": 3932,
      "薇": 3933,
      "薏": 3934,
      "薛": 3935,
      "薪": 3936,
      "薮": 3937,
      "薯": 3938,
      "薰": 3939,
      "薹": 3940,
      "藉": 3941,
      "藏": 3942,
      "藓": 3943,
      "藕": 3944,
      "藜": 3945,
      "藤": 3946,
      "藩": 3947,
      "藻": 3948,
      "藿": 3949,
      "蘑": 3950,
      "蘖": 3951,
      "蘸": 3952,
      "虎": 3953,
      "虏": 3954,
      "虐": 3955,
      "虑": 3956,
      "虔": 3957,
      "虚": 3958,
      "虫": 3959,
      "虱": 3960,
      "虹": 3961,
      "虽": 3962,
      "虾": 3963,
      "蚀": 3964,
      "蚁": 3965,
      "蚂": 3966,
      "蚊": 3967,
      "蚋": 3968,
      "蚌": 3969,
      "蚓": 3970,
      "蚕": 3971,
      "蚜": 3972,
      "蚝": 3973,
      "蚤": 3974,
      "蚯": 3975,
      "蚱": 3976,
      "蚴": 3977,
      "蚶": 3978,
      "蛀": 3979,
      "蛆": 3980,
      "蛇": 3981,
      "蛉": 3982,
      "蛊": 3983,
      "蛋": 3984,
      "蛎": 3985,
      "蛔": 3986,
      "蛙": 3987,
      "蛛": 3988,
      "蛞": 3989,
      "蛟": 3990,
      "蛤": 3991,
      "蛭": 3992,
      "蛮": 3993,
      "蛰": 3994,
      "蛹": 3995,
      "蛾": 3996,
      "蜀": 3997,
      "蜂": 3998,
      "蜃": 3999,
      "蜇": 4000,
      "蜊": 4001,
      "蜍": 4002,
      "蜒": 4003,
      "蜓": 4004,
      "蜕": 4005,
      "蜗": 4006,
      "蜘": 4007,
      "蜜": 4008,
      "蜡": 4009,
      "蜢": 4010,
      "蜥": 4011,
      "蜴": 4012,
      "蜷": 4013,
      "蜻": 4014,
      "蜿": 4015,
      "蝇": 4016,
      "蝈": 4017,
      "蝉": 4018,
      "蝎": 4019,
      "蝓": 4020,
      "蝗": 4021,
      "蝙": 4022,
      "蝠": 4023,
      "蝥": 4024,
      "蝮": 4025,
      "蝴": 4026,
      "蝶": 4027,
      "蝽": 4028,
      "螂": 4029,
      "螃": 4030,
      "螅": 4031,
      "融": 4032,
      "螚": 4033,
      "螟": 4034,
      "螨": 4035,
      "螫": 4036,
      "螭": 4037,
      "螯": 4038,
      "螳": 4039,
      "螺": 4040,
      "蟀": 4041,
      "蟋": 4042,
      "蟑": 4043,
      "蟒": 4044,
      "蟥": 4045,
      "蟹": 4046,
      "蟾": 4047,
      "蠊": 4048,
      "蠕": 4049,
      "蠢": 4050,
      "蠲": 4051,
      "血": 4052,
      "衅": 4053,
      "行": 4054,
      "衍": 4055,
      "衔": 4056,
      "街": 4057,
      "衡": 4058,
      "衢": 4059,
      "衣": 4060,
      "补": 4061,
      "表": 4062,
      "衩": 4063,
      "衫": 4064,
      "衬": 4065,
      "衮": 4066,
      "衰": 4067,
      "衲": 4068,
      "衷": 4069,
      "袁": 4070,
      "袄": 4071,
      "袅": 4072,
      "袈": 4073,
      "袋": 4074,
      "袍": 4075,
      "袒": 4076,
      "袖": 4077,
      "袗": 4078,
      "袜": 4079,
      "袤": 4080,
      "被": 4081,
      "袭": 4082,
      "裁": 4083,
      "裂": 4084,
      "装": 4085,
      "裑": 4086,
      "裔": 4087,
      "裕": 4088,
      "裘": 4089,
      "裙": 4090,
      "裟": 4091,
      "裡": 4092,
      "裤": 4093,
      "裨": 4094,
      "裱": 4095,
      "裳": 4096,
      "裴": 4097,
      "裸": 4098,
      "裹": 4099,
      "褐": 4100,
      "褒": 4101,
      "褓": 4102,
      "褙": 4103,
      "褚": 4104,
      "褛": 4105,
      "褥": 4106,
      "褪": 4107,
      "褴": 4108,
      "褶": 4109,
      "襁": 4110,
      "襄": 4111,
      "襟": 4112,
      "西": 4113,
      "要": 4114,
      "覆": 4115,
      "见": 4116,
      "观": 4117,
      "规": 4118,
      "觅": 4119,
      "视": 4120,
      "览": 4121,
      "觉": 4122,
      "觊": 4123,
      "觎": 4124,
      "觐": 4125,
      "觑": 4126,
      "角": 4127,
      "觞": 4128,
      "解": 4129,
      "触": 4130,
      "言": 4131,
      "詹": 4132,
      "誉": 4133,
      "誊": 4134,
      "誓": 4135,
      "論": 4136,
      "諾": 4137,
      "謇": 4138,
      "識": 4139,
      "警": 4140,
      "譬": 4141,
      "计": 4142,
      "订": 4143,
      "讣": 4144,
      "认": 4145,
      "讥": 4146,
      "讧": 4147,
      "讨": 4148,
      "让": 4149,
      "讫": 4150,
      "讬": 4151,
      "训": 4152,
      "议": 4153,
      "讯": 4154,
      "记": 4155,
      "讲": 4156,
      "讳": 4157,
      "讴": 4158,
      "讶": 4159,
      "讷": 4160,
      "许": 4161,
      "论": 4162,
      "讼": 4163,
      "讽": 4164,
      "设": 4165,
      "访": 4166,
      "诀": 4167,
      "证": 4168,
      "评": 4169,
      "诅": 4170,
      "识": 4171,
      "诈": 4172,
      "诉": 4173,
      "诊": 4174,
      "诋": 4175,
      "词": 4176,
      "译": 4177,
      "诓": 4178,
      "试": 4179,
      "诗": 4180,
      "诙": 4181,
      "诚": 4182,
      "话": 4183,
      "诞": 4184,
      "诟": 4185,
      "诠": 4186,
      "诡": 4187,
      "询": 4188,
      "诣": 4189,
      "该": 4190,
      "详": 4191,
      "诧": 4192,
      "诨": 4193,
      "诫": 4194,
      "诬": 4195,
      "语": 4196,
      "诮": 4197,
      "误": 4198,
      "诱": 4199,
      "说": 4200,
      "诵": 4201,
      "诶": 4202,
      "请": 4203,
      "诸": 4204,
      "诺": 4205,
      "读": 4206,
      "诽": 4207,
      "课": 4208,
      "谀": 4209,
      "谁": 4210,
      "调": 4211,
      "谄": 4212,
      "谅": 4213,
      "谆": 4214,
      "谈": 4215,
      "谊": 4216,
      "谋": 4217,
      "谍": 4218,
      "谎": 4219,
      "谏": 4220,
      "谐": 4221,
      "谑": 4222,
      "谒": 4223,
      "谓": 4224,
      "谔": 4225,
      "谕": 4226,
      "谗": 4227,
      "谘": 4228,
      "谙": 4229,
      "谚": 4230,
      "谜": 4231,
      "谟": 4232,
      "谢": 4233,
      "谣": 4234,
      "谤": 4235,
      "谦": 4236,
      "谧": 4237,
      "谨": 4238,
      "谩": 4239,
      "谪": 4240,
      "谬": 4241,
      "谭": 4242,
      "谰": 4243,
      "谱": 4244,
      "谴": 4245,
      "谷": 4246,
      "豁": 4247,
      "豆": 4248,
      "豇": 4249,
      "豌": 4250,
      "豚": 4251,
      "象": 4252,
      "豢": 4253,
      "豪": 4254,
      "豫": 4255,
      "豹": 4256,
      "豺": 4257,
      "貂": 4258,
      "貌": 4259,
      "贝": 4260,
      "贞": 4261,
      "负": 4262,
      "贡": 4263,
      "财": 4264,
      "责": 4265,
      "贤": 4266,
      "败": 4267,
      "账": 4268,
      "货": 4269,
      "质": 4270,
      "贩": 4271,
      "贪": 4272,
      "贫": 4273,
      "贬": 4274,
      "购": 4275,
      "贮": 4276,
      "贯": 4277,
      "贱": 4278,
      "贲": 4279,
      "贴": 4280,
      "贵": 4281,
      "贷": 4282,
      "贸": 4283,
      "费": 4284,
      "贺": 4285,
      "贻": 4286,
      "贼": 4287,
      "贽": 4288,
      "贾": 4289,
      "贿": 4290,
      "赁": 4291,
      "赂": 4292,
      "赃": 4293,
      "资": 4294,
      "赅": 4295,
      "赈": 4296,
      "赋": 4297,
      "赌": 4298,
      "赎": 4299,
      "赏": 4300,
      "赐": 4301,
      "赔": 4302,
      "赖": 4303,
      "赘": 4304,
      "赚": 4305,
      "赛": 4306,
      "赝": 4307,
      "赞": 4308,
      "赠": 4309,
      "赢": 4310,
      "赣": 4311,
      "赤": 4312,
      "赦": 4313,
      "赫": 4314,
      "走": 4315,
      "赴": 4316,
      "赵": 4317,
      "赶": 4318,
      "起": 4319,
      "趁": 4320,
      "超": 4321,
      "越": 4322,
      "趋": 4323,
      "趟": 4324,
      "趣": 4325,
      "足": 4326,
      "趴": 4327,
      "趼": 4328,
      "趾": 4329,
      "跃": 4330,
      "跋": 4331,
      "跌": 4332,
      "跎": 4333,
      "跑": 4334,
      "跖": 4335,
      "跗": 4336,
      "跚": 4337,
      "跛": 4338,
      "距": 4339,
      "跟": 4340,
      "跣": 4341,
      "跤": 4342,
      "跨": 4343,
      "跪": 4344,
      "路": 4345,
      "跳": 4346,
      "践": 4347,
      "跺": 4348,
      "跻": 4349,
      "踊": 4350,
      "踌": 4351,
      "踏": 4352,
      "踝": 4353,
      "踞": 4354,
      "踢": 4355,
      "踩": 4356,
      "踪": 4357,
      "踮": 4358,
      "踵": 4359,
      "踹": 4360,
      "蹀": 4361,
      "蹂": 4362,
      "蹄": 4363,
      "蹈": 4364,
      "蹉": 4365,
      "蹑": 4366,
      "蹒": 4367,
      "蹙": 4368,
      "蹦": 4369,
      "蹩": 4370,
      "蹭": 4371,
      "蹲": 4372,
      "蹴": 4373,
      "蹶": 4374,
      "蹿": 4375,
      "躁": 4376,
      "躇": 4377,
      "躏": 4378,
      "躞": 4379,
      "身": 4380,
      "躬": 4381,
      "躯": 4382,
      "躲": 4383,
      "躺": 4384,
      "車": 4385,
      "车": 4386,
      "轧": 4387,
      "轨": 4388,
      "轩": 4389,
      "轫": 4390,
      "转": 4391,
      "轭": 4392,
      "轮": 4393,
      "软": 4394,
      "轰": 4395,
      "轴": 4396,
      "轶": 4397,
      "轻": 4398,
      "轼": 4399,
      "载": 4400,
      "轿": 4401,
      "较": 4402,
      "辄": 4403,
      "辅": 4404,
      "辆": 4405,
      "辈": 4406,
      "辉": 4407,
      "辊": 4408,
      "辍": 4409,
      "辐": 4410,
      "辑": 4411,
      "输": 4412,
      "辕": 4413,
      "辖": 4414,
      "辘": 4415,
      "辙": 4416,
      "辛": 4417,
      "辜": 4418,
      "辞": 4419,
      "辟": 4420,
      "辣": 4421,
      "辨": 4422,
      "辩": 4423,
      "辫": 4424,
      "辰": 4425,
      "辱": 4426,
      "边": 4427,
      "辽": 4428,
      "达": 4429,
      "迁": 4430,
      "迂": 4431,
      "迄": 4432,
      "迅": 4433,
      "过": 4434,
      "迈": 4435,
      "迎": 4436,
      "运": 4437,
      "近": 4438,
      "返": 4439,
      "还": 4440,
      "这": 4441,
      "进": 4442,
      "远": 4443,
      "违": 4444,
      "连": 4445,
      "迟": 4446,
      "迥": 4447,
      "迦": 4448,
      "迩": 4449,
      "迪": 4450,
      "迫": 4451,
      "迭": 4452,
      "述": 4453,
      "迳": 4454,
      "迴": 4455,
      "迷": 4456,
      "迸": 4457,
      "迹": 4458,
      "迺": 4459,
      "追": 4460,
      "退": 4461,
      "送": 4462,
      "适": 4463,
      "逃": 4464,
      "逅": 4465,
      "逆": 4466,
      "选": 4467,
      "逊": 4468,
      "逍": 4469,
      "透": 4470,
      "逐": 4471,
      "递": 4472,
      "途": 4473,
      "逗": 4474,
      "通": 4475,
      "逛": 4476,
      "逝": 4477,
      "逞": 4478,
      "速": 4479,
      "造": 4480,
      "逡": 4481,
      "逢": 4482,
      "連": 4483,
      "逨": 4484,
      "逮": 4485,
      "逸": 4486,
      "逹": 4487,
      "逻": 4488,
      "逼": 4489,
      "逾": 4490,
      "遁": 4491,
      "遂": 4492,
      "遄": 4493,
      "遇": 4494,
      "遍": 4495,
      "遏": 4496,
      "遐": 4497,
      "遑": 4498,
      "道": 4499,
      "遗": 4500,
      "遛": 4501,
      "遢": 4502,
      "遣": 4503,
      "遥": 4504,
      "遨": 4505,
      "遭": 4506,
      "遮": 4507,
      "遵": 4508,
      "避": 4509,
      "邀": 4510,
      "邂": 4511,
      "邃": 4512,
      "邋": 4513,
      "邑": 4514,
      "邓": 4515,
      "邢": 4516,
      "那": 4517,
      "邦": 4518,
      "邪": 4519,
      "邮": 4520,
      "邯": 4521,
      "邱": 4522,
      "邳": 4523,
      "邵": 4524,
      "邸": 4525,
      "邹": 4526,
      "邻": 4527,
      "郁": 4528,
      "郊": 4529,
      "郎": 4530,
      "郑": 4531,
      "郝": 4532,
      "郡": 4533,
      "郢": 4534,
      "部": 4535,
      "郭": 4536,
      "郴": 4537,
      "郸": 4538,
      "都": 4539,
      "鄂": 4540,
      "鄙": 4541,
      "鄞": 4542,
      "酊": 4543,
      "酋": 4544,
      "酌": 4545,
      "配": 4546,
      "酐": 4547,
      "酒": 4548,
      "酗": 4549,
      "酚": 4550,
      "酝": 4551,
      "酞": 4552,
      "酣": 4553,
      "酥": 4554,
      "酩": 4555,
      "酪": 4556,
      "酬": 4557,
      "酮": 4558,
      "酯": 4559,
      "酰": 4560,
      "酱": 4561,
      "酵": 4562,
      "酶": 4563,
      "酷": 4564,
      "酸": 4565,
      "酿": 4566,
      "醅": 4567,
      "醇": 4568,
      "醉": 4569,
      "醋": 4570,
      "醌": 4571,
      "醒": 4572,
      "醚": 4573,
      "醛": 4574,
      "醯": 4575,
      "醺": 4576,
      "釆": 4577,
      "采": 4578,
      "釉": 4579,
      "释": 4580,
      "里": 4581,
      "重": 4582,
      "野": 4583,
      "量": 4584,
      "金": 4585,
      "釜": 4586,
      "鉆": 4587,
      "鉴": 4588,
      "鍊": 4589,
      "鏖": 4590,
      "鑀": 4591,
      "鑑": 4592,
      "鑫": 4593,
      "钇": 4594,
      "针": 4595,
      "钉": 4596,
      "钊": 4597,
      "钒": 4598,
      "钓": 4599,
      "钕": 4600,
      "钗": 4601,
      "钙": 4602,
      "钚": 4603,
      "钛": 4604,
      "钜": 4605,
      "钝": 4606,
      "钞": 4607,
      "钟": 4608,
      "钠": 4609,
      "钡": 4610,
      "钢": 4611,
      "钣": 4612,
      "钥": 4613,
      "钦": 4614,
      "钨": 4615,
      "钩": 4616,
      "钮": 4617,
      "钯": 4618,
      "钰": 4619,
      "钱": 4620,
      "钳": 4621,
      "钴": 4622,
      "钵": 4623,
      "钻": 4624,
      "钼": 4625,
      "钽": 4626,
      "钾": 4627,
      "铀": 4628,
      "铁": 4629,
      "铂": 4630,
      "铃": 4631,
      "铄": 4632,
      "铅": 4633,
      "铇": 4634,
      "铈": 4635,
      "铉": 4636,
      "铌": 4637,
      "铎": 4638,
      "铐": 4639,
      "铙": 4640,
      "铛": 4641,
      "铜": 4642,
      "铝": 4643,
      "铟": 4644,
      "铠": 4645,
      "铣": 4646,
      "铪": 4647,
      "铬": 4648,
      "铭": 4649,
      "铮": 4650,
      "铯": 4651,
      "铰": 4652,
      "铲": 4653,
      "铵": 4654,
      "银": 4655,
      "铸": 4656,
      "铹": 4657,
      "铺": 4658,
      "链": 4659,
      "铿": 4660,
      "销": 4661,
      "锁": 4662,
      "锂": 4663,
      "锄": 4664,
      "锅": 4665,
      "锆": 4666,
      "锈": 4667,
      "锉": 4668,
      "锋": 4669,
      "锌": 4670,
      "锐": 4671,
      "锑": 4672,
      "锕": 4673,
      "锗": 4674,
      "错": 4675,
      "锚": 4676,
      "锝": 4677,
      "锡": 4678,
      "锣": 4679,
      "锤": 4680,
      "锥": 4681,
      "锦": 4682,
      "锭": 4683,
      "键": 4684,
      "锯": 4685,
      "锰": 4686,
      "锴": 4687,
      "锵": 4688,
      "锷": 4689,
      "锹": 4690,
      "锺": 4691,
      "锻": 4692,
      "镀": 4693,
      "镁": 4694,
      "镇": 4695,
      "镉": 4696,
      "镌": 4697,
      "镍": 4698,
      "镑": 4699,
      "镓": 4700,
      "镖": 4701,
      "镗": 4702,
      "镜": 4703,
      "镦": 4704,
      "镧": 4705,
      "镫": 4706,
      "镬": 4707,
      "镯": 4708,
      "镰": 4709,
      "镳": 4710,
      "镶": 4711,
      "长": 4712,
      "閒": 4713,
      "闆": 4714,
      "门": 4715,
      "闩": 4716,
      "闪": 4717,
      "闭": 4718,
      "问": 4719,
      "闯": 4720,
      "闲": 4721,
      "间": 4722,
      "闵": 4723,
      "闷": 4724,
      "闸": 4725,
      "闹": 4726,
      "闺": 4727,
      "闻": 4728,
      "闽": 4729,
      "阀": 4730,
      "阁": 4731,
      "阂": 4732,
      "阅": 4733,
      "阈": 4734,
      "阉": 4735,
      "阎": 4736,
      "阐": 4737,
      "阔": 4738,
      "阖": 4739,
      "阜": 4740,
      "队": 4741,
      "阡": 4742,
      "阪": 4743,
      "阮": 4744,
      "阱": 4745,
      "防": 4746,
      "阳": 4747,
      "阴": 4748,
      "阵": 4749,
      "阶": 4750,
      "阻": 4751,
      "阿": 4752,
      "陀": 4753,
      "附": 4754,
      "际": 4755,
      "陆": 4756,
      "陇": 4757,
      "陈": 4758,
      "陋": 4759,
      "陌": 4760,
      "降": 4761,
      "限": 4762,
      "陕": 4763,
      "陛": 4764,
      "陡": 4765,
      "院": 4766,
      "除": 4767,
      "陨": 4768,
      "险": 4769,
      "陪": 4770,
      "陲": 4771,
      "陵": 4772,
      "陶": 4773,
      "陷": 4774,
      "隅": 4775,
      "隆": 4776,
      "隋": 4777,
      "隍": 4778,
      "随": 4779,
      "隐": 4780,
      "隔": 4781,
      "隘": 4782,
      "隙": 4783,
      "障": 4784,
      "隧": 4785,
      "隶": 4786,
      "隼": 4787,
      "隽": 4788,
      "难": 4789,
      "雀": 4790,
      "雁": 4791,
      "雄": 4792,
      "雅": 4793,
      "集": 4794,
      "雇": 4795,
      "雉": 4796,
      "雌": 4797,
      "雍": 4798,
      "雎": 4799,
      "雏": 4800,
      "雕": 4801,
      "雨": 4802,
      "雪": 4803,
      "雯": 4804,
      "雳": 4805,
      "零": 4806,
      "雷": 4807,
      "雹": 4808,
      "雾": 4809,
      "需": 4810,
      "霄": 4811,
      "霆": 4812,
      "震": 4813,
      "霉": 4814,
      "霍": 4815,
      "霎": 4816,
      "霏": 4817,
      "霓": 4818,
      "霖": 4819,
      "霜": 4820,
      "霞": 4821,
      "霭": 4822,
      "露": 4823,
      "霸": 4824,
      "霹": 4825,
      "霾": 4826,
      "靈": 4827,
      "青": 4828,
      "靓": 4829,
      "靖": 4830,
      "静": 4831,
      "靛": 4832,
      "非": 4833,
      "靠": 4834,
      "靡": 4835,
      "面": 4836,
      "靥": 4837,
      "革": 4838,
      "靴": 4839,
      "靶": 4840,
      "靼": 4841,
      "鞋": 4842,
      "鞍": 4843,
      "鞑": 4844,
      "鞘": 4845,
      "鞠": 4846,
      "鞣": 4847,
      "鞭": 4848,
      "韦": 4849,
      "韧": 4850,
      "韩": 4851,
      "韫": 4852,
      "韭": 4853,
      "音": 4854,
      "韵": 4855,
      "韶": 4856,
      "領": 4857,
      "页": 4858,
      "顶": 4859,
      "顷": 4860,
      "项": 4861,
      "顺": 4862,
      "须": 4863,
      "顽": 4864,
      "顾": 4865,
      "顿": 4866,
      "颁": 4867,
      "颂": 4868,
      "预": 4869,
      "颅": 4870,
      "领": 4871,
      "颇": 4872,
      "颈": 4873,
      "颉": 4874,
      "颊": 4875,
      "颌": 4876,
      "颐": 4877,
      "频": 4878,
      "颓": 4879,
      "颖": 4880,
      "颗": 4881,
      "题": 4882,
      "颚": 4883,
      "颜": 4884,
      "额": 4885,
      "颞": 4886,
      "颠": 4887,
      "颡": 4888,
      "颤": 4889,
      "颦": 4890,
      "颧": 4891,
      "风": 4892,
      "飒": 4893,
      "飓": 4894,
      "飕": 4895,
      "飘": 4896,
      "飙": 4897,
      "飞": 4898,
      "食": 4899,
      "飨": 4900,
      "餐": 4901,
      "饥": 4902,
      "饨": 4903,
      "饪": 4904,
      "饭": 4905,
      "饮": 4906,
      "饯": 4907,
      "饰": 4908,
      "饱": 4909,
      "饲": 4910,
      "饵": 4911,
      "饶": 4912,
      "饺": 4913,
      "饼": 4914,
      "饽": 4915,
      "饿": 4916,
      "馀": 4917,
      "馁": 4918,
      "馄": 4919,
      "馅": 4920,
      "馆": 4921,
      "馈": 4922,
      "馋": 4923,
      "馏": 4924,
      "馑": 4925,
      "馒": 4926,
      "馕": 4927,
      "首": 4928,
      "馗": 4929,
      "香": 4930,
      "馥": 4931,
      "馨": 4932,
      "马": 4933,
      "驮": 4934,
      "驯": 4935,
      "驰": 4936,
      "驱": 4937,
      "驳": 4938,
      "驴": 4939,
      "驶": 4940,
      "驹": 4941,
      "驻": 4942,
      "驼": 4943,
      "驾": 4944,
      "驿": 4945,
      "骁": 4946,
      "骂": 4947,
      "骄": 4948,
      "骆": 4949,
      "骇": 4950,
      "骈": 4951,
      "骋": 4952,
      "验": 4953,
      "骏": 4954,
      "骑": 4955,
      "骗": 4956,
      "骚": 4957,
      "骝": 4958,
      "骠": 4959,
      "骡": 4960,
      "骤": 4961,
      "骨": 4962,
      "骰": 4963,
      "骶": 4964,
      "骷": 4965,
      "骸": 4966,
      "骹": 4967,
      "骺": 4968,
      "骼": 4969,
      "髂": 4970,
      "髅": 4971,
      "髋": 4972,
      "髌": 4973,
      "髓": 4974,
      "高": 4975,
      "髦": 4976,
      "髭": 4977,
      "髯": 4978,
      "髻": 4979,
      "鬃": 4980,
      "鬓": 4981,
      "鬣": 4982,
      "鬻": 4983,
      "鬼": 4984,
      "魁": 4985,
      "魂": 4986,
      "魄": 4987,
      "魅": 4988,
      "魆": 4989,
      "魇": 4990,
      "魏": 4991,
      "魔": 4992,
      "鯥": 4993,
      "鱆": 4994,
      "鱼": 4995,
      "鱿": 4996,
      "鲁": 4997,
      "鲆": 4998,
      "鲇": 4999,
      "鲈": 5000,
      "鲍": 5001,
      "鲎": 5002,
      "鲑": 5003,
      "鲔": 5004,
      "鲛": 5005,
      "鲜": 5006,
      "鲟": 5007,
      "鲠": 5008,
      "鲡": 5009,
      "鲣": 5010,
      "鲤": 5011,
      "鲨": 5012,
      "鲫": 5013,
      "鲱": 5014,
      "鲲": 5015,
      "鲳": 5016,
      "鲷": 5017,
      "鲸": 5018,
      "鲼": 5019,
      "鳃": 5020,
      "鳄": 5021,
      "鳌": 5022,
      "鳍": 5023,
      "鳏": 5024,
      "鳔": 5025,
      "鳕": 5026,
      "鳖": 5027,
      "鳗": 5028,
      "鳙": 5029,
      "鳞": 5030,
      "鳟": 5031,
      "鸟": 5032,
      "鸠": 5033,
      "鸡": 5034,
      "鸣": 5035,
      "鸥": 5036,
      "鸦": 5037,
      "鸪": 5038,
      "鸬": 5039,
      "鸭": 5040,
      "鸮": 5041,
      "鸯": 5042,
      "鸱": 5043,
      "鸳": 5044,
      "鸵": 5045,
      "鸽": 5046,
      "鸾": 5047,
      "鸿": 5048,
      "鹃": 5049,
      "鹅": 5050,
      "鹉": 5051,
      "鹊": 5052,
      "鹌": 5053,
      "鹎": 5054,
      "鹏": 5055,
      "鹑": 5056,
      "鹘": 5057,
      "鹚": 5058,
      "鹜": 5059,
      "鹟": 5060,
      "鹣": 5061,
      "鹤": 5062,
      "鹦": 5063,
      "鹧": 5064,
      "鹩": 5065,
      "鹪": 5066,
      "鹫": 5067,
      "鹬": 5068,
      "鹭": 5069,
      "鹰": 5070,
      "鹳": 5071,
      "鹿": 5072,
      "麋": 5073,
      "麒": 5074,
      "麓": 5075,
      "麝": 5076,
      "麟": 5077,
      "麦": 5078,
      "麻": 5079,
      "麽": 5080,
      "麾": 5081,
      "黄": 5082,
      "黉": 5083,
      "黍": 5084,
      "黎": 5085,
      "黏": 5086,
      "黑": 5087,
      "黒": 5088,
      "黔": 5089,
      "默": 5090,
      "黛": 5091,
      "黜": 5092,
      "黝": 5093,
      "黯": 5094,
      "黴": 5095,
      "鼎": 5096,
      "鼐": 5097,
      "鼓": 5098,
      "鼠": 5099,
      "鼩": 5100,
      "鼬": 5101,
      "鼱": 5102,
      "鼷": 5103,
      "鼻": 5104,
      "鼾": 5105,
      "齉": 5106,
      "齐": 5107,
      "齿": 5108,
      "龄": 5109,
      "龈": 5110,
      "龋": 5111,
      "龙": 5112,
      "龚": 5113,
      "龛": 5114,
      "龟": 5115,
      "ꄘ": 5116,
      "︰": 5117,
      "﹐": 5118,
      "﹑": 5119,
      "﹒": 5120,
      "﹕": 5121,
      "！": 5122,
      "＂": 5123,
      "＄": 5124,
      "％": 5125,
      "（": 5126,
      "）": 5127,
      "，": 5128,
      "．": 5129,
      "／": 5130,
      "０": 5131,
      "１": 5132,
      "２": 5133,
      "３": 5134,
      "４": 5135,
      "５": 5136,
      "：": 5137,
      "；": 5138,
      "＜": 5139,
      "＝": 5140,
      "＞": 5141,
      "？": 5142,
      "［": 5143,
      "］": 5144,
      "｀": 5145,
      "ａ": 5146,
      "ｂ": 5147,
      "ｃ": 5148,
      "ｓ": 5149,
      "～": 5150,
      "｢": 5151,
      "｣": 5152,
      "�": 5153,
      "一个": 5154,
      "我们": 5155,
      "他们": 5156,
      "可以": 5157,
      "▁在": 5158,
      "研究": 5159,
      "▁这": 5160,
      "进行": 5161,
      "00": 5162,
      "，这": 5163,
      "方法": 5164,
      "▁我": 5165,
      "中国": 5166,
      "，但": 5167,
      "系统": 5168,
      "，并": 5169,
      "没有": 5170,
      "公司": 5171,
      "问题": 5172,
      "使用": 5173,
      "可能": 5174,
      "一种": 5175,
      "工作": 5176,
      "分析": 5177,
      "，我": 5178,
      "的。": 5179,
      "如果": 5180,
      "，在": 5181,
      "美国": 5182,
      "自己": 5183,
      "通过": 5184,
      "中的": 5185,
      "▁本": 5186,
      "了。": 5187,
      "发展": 5188,
      "▁他": 5189,
      "这个": 5190,
      "因为": 5191,
      "设计": 5192,
      "技术": 5193,
      "提供": 5194,
      "已经": 5195,
      "的人": 5196,
      "影响": 5197,
      "，而": 5198,
      "时，": 5199,
      "应用": 5200,
      "中，": 5201,
      "一些": 5202,
      "需要": 5203,
      "说，": 5204,
      "结果": 5205,
      "以及": 5206,
      "主要": 5207,
      "时间": 5208,
      "他的": 5209,
      "就是": 5210,
      "现在": 5211,
      "什么": 5212,
      "目的": 5213,
      "世界": 5214,
      "具有": 5215,
      "经济": 5216,
      "的一": 5217,
      "国家": 5218,
      "数据": 5219,
      "所有": 5220,
      "不同": 5221,
      "的，": 5222,
      "部分": 5223,
      "后，": 5224,
      "▁但": 5225,
      "出了": 5226,
      "服务": 5227,
      "▁我们": 5228,
      "结构": 5229,
      "这些": 5230,
      "er": 5231,
      "你的": 5232,
      "控制": 5233,
      "200": 5234,
      "，他": 5235,
      "重要": 5236,
      "过程": 5237,
      "19": 5238,
      "开始": 5239,
      "▁本文": 5240,
      "in": 5241,
      "时候": 5242,
      "采用": 5243,
      "作用": 5244,
      "认为": 5245,
      "方面": 5246,
      "——": 5247,
      "▁你": 5248,
      "作为": 5249,
      "大的": 5250,
      "产品": 5251,
      "发现": 5252,
      "其他": 5253,
      "10": 5254,
      "▁如果": 5255,
      "，是": 5256,
      "管理": 5257,
      "上的": 5258,
      "▁当": 5259,
      "成为": 5260,
      "到了": 5261,
      "，我们": 5262,
      "▁目的": 5263,
      "政府": 5264,
      "知道": 5265,
      "▁“": 5266,
      "好的": 5267,
      "处理": 5268,
      "组织": 5269,
      "包括": 5270,
      "人的": 5271,
      "生活": 5272,
      "，你": 5273,
      "20": 5274,
      "发生": 5275,
      "市场": 5276,
      "生产": 5277,
      "上，": 5278,
      "对于": 5279,
      "介绍": 5280,
      "关系": 5281,
      "进行了": 5282,
      "或者": 5283,
      "非常": 5284,
      "情况": 5285,
      "存在": 5286,
      "是一个": 5287,
      "信息": 5288,
      "模型": 5289,
      "：“": 5290,
      "必须": 5291,
      "an": 5292,
      "选择": 5293,
      "计算": 5294,
      "，以": 5295,
      "任何": 5296,
      "，但是": 5297,
      "治疗": 5298,
      "这样": 5299,
      "了一": 5300,
      "，不": 5301,
      "，那": 5302,
      "人们": 5303,
      "它们": 5304,
      "，也": 5305,
      "社会": 5306,
      "我的": 5307,
      "企业": 5308,
      "表明": 5309,
      "新的": 5310,
      "细胞": 5311,
      "用于": 5312,
      "功能": 5313,
      "ar": 5314,
      "性。": 5315,
      "之间": 5316,
      "表示": 5317,
      "利用": 5318,
      "学生": 5319,
      "地区": 5320,
      "▁s": 5321,
      "两个": 5322,
      "产生": 5323,
      "是一": 5324,
      "提高": 5325,
      "环境": 5326,
      "要求": 5327,
      "能够": 5328,
      "，其": 5329,
      "on": 5330,
      "有效": 5331,
      "第一": 5332,
      "实现": 5333,
      "的时候": 5334,
      "网络": 5335,
      "安全": 5336,
      "的影响": 5337,
      "基础": 5338,
      "建立": 5339,
      "得到": 5340,
      "来，": 5341,
      "理论": 5342,
      "很多": 5343,
      "正在": 5344,
      "这一": 5345,
      "那些": 5346,
      "不会": 5347,
      "探讨": 5348,
      "计划": 5349,
      "，对": 5350,
      "许多": 5351,
      "孩子": 5352,
      "这种": 5353,
      "因此": 5354,
      "如何": 5355,
      "所以": 5356,
      "，因为": 5357,
      "为了": 5358,
      "。”": 5359,
      "显示": 5360,
      "不能": 5361,
      "由于": 5362,
      "然后": 5363,
      "相关": 5364,
      "程序": 5365,
      "应该": 5366,
      "自己的": 5367,
      "目前": 5368,
      "中心": 5369,
      "同时": 5370,
      "地方": 5371,
      "运动": 5372,
      "实验": 5373,
      "教育": 5374,
      "根据": 5375,
      "大学": 5376,
      "希望": 5377,
      "他们的": 5378,
      "获得": 5379,
      "美元": 5380,
      "，一": 5381,
      "方式": 5382,
      "）。": 5383,
      "，有": 5384,
      "支持": 5385,
      "的是": 5386,
      "▁但是": 5387,
      "性的": 5388,
      "文化": 5389,
      "能力": 5390,
      "方法。": 5391,
      "变化": 5392,
      "▁她": 5393,
      "之一": 5394,
      "来的": 5395,
      "开发": 5396,
      "科学": 5397,
      "，它": 5398,
      "国际": 5399,
      "▁一": 5400,
      "or": 5401,
      "”。": 5402,
      "基于": 5403,
      "还是": 5404,
      "活动": 5405,
      "测试": 5406,
      "▁不": 5407,
      "一样": 5408,
      "了，": 5409,
      "出现": 5410,
      "量的": 5411,
      "▁他们": 5412,
      "是在": 5413,
      "来。": 5414,
      "用户": 5415,
      "城市": 5416,
      "▁对": 5417,
      "问题。": 5418,
      "定的": 5419,
      "看到": 5420,
      "增加": 5421,
      "提出了": 5422,
      "有一": 5423,
      "，他们": 5424,
      "喜欢": 5425,
      "生物": 5426,
      "结论": 5427,
      "一起": 5428,
      "▁c": 5429,
      "形成": 5430,
      "le": 5431,
      "效果": 5432,
      "性能": 5433,
      "▁t": 5434,
      "历史": 5435,
      "原因": 5436,
      "提出": 5437,
      "有关": 5438,
      "吗？": 5439,
      "投资": 5440,
      "帮助": 5441,
      "第二": 5442,
      "at": 5443,
      "”的": 5444,
      "设备": 5445,
      "，从": 5446,
      "材料": 5447,
      "目标": 5448,
      "，就": 5449,
      "▁该": 5450,
      "标准": 5451,
      "项目": 5452,
      "价值": 5453,
      "工程": 5454,
      "解决": 5455,
      "▁而": 5456,
      "东西": 5457,
      "人员": 5458,
      "来自": 5459,
      "实际": 5460,
      "是否": 5461,
      "电子": 5462,
      "都是": 5463,
      "比较": 5464,
      "基本": 5465,
      "的大": 5466,
      "更多": 5467,
      "en": 5468,
      "传统": 5469,
      "年的": 5470,
      "下，": 5471,
      "反应": 5472,
      "模式": 5473,
      "--": 5474,
      "▁结果": 5475,
      "患者": 5476,
      "条件": 5477,
      "行为": 5478,
      "讨论": 5479,
      "介绍了": 5480,
      "es": 5481,
      "主义": 5482,
      "因素": 5483,
      "还有": 5484,
      "健康": 5485,
      "调查": 5486,
      "朋友": 5487,
      "资源": 5488,
      "个人": 5489,
      "意义": 5490,
      "▁有": 5491,
      "，她": 5492,
      "点。": 5493,
      "的事": 5494,
      "▁从": 5495,
      "英国": 5496,
      "我们的": 5497,
      "保护": 5498,
      "说：“": 5499,
      "随着": 5500,
      "试验": 5501,
      "今天": 5502,
      "成功": 5503,
      "甚至": 5504,
      "内容": 5505,
      "的一个": 5506,
      "▁m": 5507,
      "银行": 5508,
      "▁w": 5509,
      "▁p": 5510,
      "只有": 5511,
      "学习": 5512,
      "关于": 5513,
      "各种": 5514,
      "空间": 5515,
      "▁通过": 5516,
      "，而且": 5517,
      "▁最": 5518,
      "文件": 5519,
      "然而": 5520,
      "▁它": 5521,
      "质量": 5522,
      "一直": 5523,
      "的研究": 5524,
      "观察": 5525,
      "上。": 5526,
      "了解": 5527,
      "了一个": 5528,
      "拥有": 5529,
      "方案": 5530,
      "度的": 5531,
      "特别": 5532,
      "的最": 5533,
      "结合": 5534,
      "系统的": 5535,
      "▁那": 5536,
      "告诉": 5537,
      "接受": 5538,
      "自然": 5539,
      "艺术": 5540,
      "只是": 5541,
      "改变": 5542,
      "，并且": 5543,
      "水平": 5544,
      "，为": 5545,
      "12": 5546,
      "is": 5547,
      "之前": 5548,
      "全球": 5549,
      "及其": 5550,
      "体的": 5551,
      "年，": 5552,
      "al": 5553,
      "完成": 5554,
      "导致": 5555,
      "表现": 5556,
      "it": 5557,
      "50": 5558,
      "增长": 5559,
      "的“": 5560,
      "，然后": 5561,
      "▁结论": 5562,
      "完全": 5563,
      "as": 5564,
      "▁以": 5565,
      "说。": 5566,
      "决定": 5567,
      "人。": 5568,
      "▁这些": 5569,
      "虽然": 5570,
      "操作": 5571,
      "明显": 5572,
      "起来": 5573,
      "ac": 5574,
      "合作": 5575,
      "汽车": 5576,
      "组成": 5577,
      "蛋白": 5578,
      "▁这个": 5579,
      "特征": 5580,
      "直接": 5581,
      "进入": 5582,
      "领域": 5583,
      "后的": 5584,
      "准备": 5585,
      "检测": 5586,
      "状态": 5587,
      "的影响。": 5588,
      "报告": 5589,
      "11": 5590,
      "一次": 5591,
      "政治": 5592,
      "▁的": 5593,
      "中。": 5594,
      "作用。": 5595,
      "减少": 5596,
      "教学": 5597,
      "的话": 5598,
      "，使": 5599,
      "▁d": 5600,
      "是一种": 5601,
      "简单": 5602,
      "，可": 5603,
      "代表": 5604,
      "参数": 5605,
      "日本": 5606,
      "自由": 5607,
      "保持": 5608,
      "比赛": 5609,
      "考虑": 5610,
      "软件": 5611,
      "你们": 5612,
      "工艺": 5613,
      "30": 5614,
      "一步": 5615,
      "动物": 5616,
      "基因": 5617,
      "如此": 5618,
      "尽管": 5619,
      "政策": 5620,
      "确定": 5621,
      "执行": 5622,
      "神经": 5623,
      "）的": 5624,
      "ro": 5625,
      "客户": 5626,
      "无法": 5627,
      "语言": 5628,
      "不同的": 5629,
      "建议": 5630,
      "思想": 5631,
      "过去": 5632,
      "运行": 5633,
      "这里": 5634,
      "▁研究": 5635,
      "机构": 5636,
      "ic": 5637,
      "多数": 5638,
      "她的": 5639,
      "家庭": 5640,
      "联合": 5641,
      "▁目的：": 5642,
      "el": 5643,
      "学校": 5644,
      "et": 5645,
      "呢？": 5646,
      "我国": 5647,
      "面的": 5648,
      "，可以": 5649,
      "人，": 5650,
      "先生": 5651,
      "形式": 5652,
      "15": 5653,
      "通常": 5654,
      "表明，": 5655,
      "专业": 5656,
      "价格": 5657,
      "关键": 5658,
      "分布": 5659,
      "外，": 5660,
      "现代": 5661,
      "觉得": 5662,
      "▁然而": 5663,
      "世纪": 5664,
      "临床": 5665,
      "制造": 5666,
      "广泛": 5667,
      "法。": 5668,
      "生命": 5669,
      "▁大": 5670,
      "建筑": 5671,
      "每个": 5672,
      "精神": 5673,
      "继续": 5674,
      "自动": 5675,
      "下的": 5676,
      "类型": 5677,
      "人类": 5678,
      "位于": 5679,
      "的新": 5680,
      "述了": 5681,
      "总统": 5682,
      "欧洲": 5683,
      "达到": 5684,
      "音乐": 5685,
      "，这些": 5686,
      "超过": 5687,
      "造成": 5688,
      "▁此": 5689,
      "区域": 5690,
      "电影": 5691,
      "针对": 5692,
      "风险": 5693,
      "re": 5694,
      "▁其": 5695,
      "几个": 5696,
      "感到": 5697,
      "里的": 5698,
      "建设": 5699,
      "也是": 5700,
      "化的": 5701,
      "网站": 5702,
      "降低": 5703,
      "之间的": 5704,
      "▁因此": 5705,
      "不断": 5706,
      "业务": 5707,
      "例如": 5708,
      "子。": 5709,
      "度。": 5710,
      "性，": 5711,
      "容易": 5712,
      "18": 5713,
      "▁b": 5714,
      "力。": 5715,
      "有限": 5716,
      "氧化": 5717,
      "严重": 5718,
      "复杂": 5719,
      "稳定": 5720,
      "，所以": 5721,
      "▁方法": 5722,
      "将会": 5723,
      "的小": 5724,
      "参加": 5725,
      "就会": 5726,
      "法律": 5727,
      "系列": 5728,
      "里，": 5729,
      "性和": 5730,
      "，”": 5731,
      "机会": 5732,
      "点，": 5733,
      "用的": 5734,
      "连接": 5735,
      "，如果": 5736,
      "”，": 5737,
      "人民": 5738,
      "体系": 5739,
      "资料": 5740,
      "需求": 5741,
      "并不": 5742,
      "感觉": 5743,
      "199": 5744,
      "ap": 5745,
      "其它": 5746,
      "化学": 5747,
      "注意": 5748,
      "电视": 5749,
      "的主要": 5750,
      "重新": 5751,
      "000": 5752,
      "提供了": 5753,
      "之一。": 5754,
      "%。": 5755,
      "om": 5756,
      "位置": 5757,
      "对象": 5758,
      "有一个": 5759,
      "检查": 5760,
      "▁中国": 5761,
      "工具": 5762,
      "整个": 5763,
      "文章": 5764,
      "的方法": 5765,
      "药物": 5766,
      "研究。": 5767,
      "一下": 5768,
      "器的": 5769,
      "星期": 5770,
      "知识": 5771,
      "，将": 5772,
      "▁对于": 5773,
      "同样": 5774,
      "工业": 5775,
      "成本": 5776,
      "者的": 5777,
      "长期": 5778,
      "，当": 5779,
      "的地方": 5780,
      "程度": 5781,
      "▁现在": 5782,
      "▁为了": 5783,
      "会议": 5784,
      "动力": 5785,
      "数字": 5786,
      "等。": 5787,
      "色的": 5788,
      "解释": 5789,
      "方向": 5790,
      "更加": 5791,
      "第三": 5792,
      "所有的": 5793,
      "▁为": 5794,
      "取得": 5795,
      "报道": 5796,
      "范围": 5797,
      "分析了": 5798,
      "▁由于": 5799,
      "儿童": 5800,
      "措施": 5801,
      "是个": 5802,
      "仍然": 5803,
      "出的": 5804,
      "利亚": 5805,
      "时期": 5806,
      "消息": 5807,
      "的特": 5808,
      "金属": 5809,
      "，如": 5810,
      "，那么": 5811,
      "▁据": 5812,
      "保证": 5813,
      "分子": 5814,
      "创造": 5815,
      "测量": 5816,
      "的发展": 5817,
      "联系": 5818,
      "阶段": 5819,
      "he": 5820,
      "找到": 5821,
      "疾病": 5822,
      "进一步": 5823,
      "含量": 5824,
      "的重要": 5825,
      "经验": 5826,
      "可能会": 5827,
      "▁根据": 5828,
      "几乎": 5829,
      "受到": 5830,
      "一定": 5831,
      "交易": 5832,
      "另一": 5833,
      "机制": 5834,
      "行业": 5835,
      "表达": 5836,
      "，大": 5837,
      "信号": 5838,
      "模拟": 5839,
      "电话": 5840,
      "速度": 5841,
      "▁如果你": 5842,
      "▁f": 5843,
      "▁o": 5844,
      "它的": 5845,
      "手术": 5846,
      "指出": 5847,
      "机的": 5848,
      "比如": 5849,
      "ad": 5850,
      "am": 5851,
      "之后": 5852,
      "创建": 5853,
      "参与": 5854,
      "定义": 5855,
      "带来": 5856,
      "心理": 5857,
      "时代": 5858,
      "说明": 5859,
      "销售": 5860,
      "，这个": 5861,
      "关系。": 5862,
      "不可": 5863,
      "令人": 5864,
      "共同": 5865,
      "北京": 5866,
      "算法": 5867,
      "表面": 5868,
      "评价": 5869,
      "诊断": 5870,
      "，即": 5871,
      "任务": 5872,
      "引起": 5873,
      "那个": 5874,
      "%的": 5875,
      "学家": 5876,
      "怎么": 5877,
      "的工作": 5878,
      "身体": 5879,
      "），": 5880,
      "▁是": 5881,
      "加工": 5882,
      "才能": 5883,
      "这样的": 5884,
      "三个": 5885,
      "努力": 5886,
      "年轻": 5887,
      "快速": 5888,
      "收入": 5889,
      "植物": 5890,
      "相信": 5891,
      "竞争": 5892,
      "卫生": 5893,
      "概念": 5894,
      "证明": 5895,
      "除了": 5896,
      "领导": 5897,
      "首先": 5898,
      "0.": 5899,
      "▁美国": 5900,
      "不仅": 5901,
      "意识": 5902,
      "避免": 5903,
      "，包括": 5904,
      "il": 5905,
      "▁g": 5906,
      "似乎": 5907,
      "压力": 5908,
      "国内": 5909,
      "岁的": 5910,
      "移动": 5911,
      "综合": 5912,
      "，其中": 5913,
      "▁与": 5914,
      "分钟": 5915,
      "消费": 5916,
      "装置": 5917,
      "▁这是": 5918,
      "14": 5919,
      "16": 5920,
      "▁l": 5921,
      "变得": 5922,
      "女性": 5923,
      "时的": 5924,
      "采取": 5925,
      "过程中": 5926,
      "st": 5927,
      "▁和": 5928,
      "▁一个": 5929,
      "之后，": 5930,
      "代码": 5931,
      "包含": 5932,
      "持续": 5933,
      "集团": 5934,
      "死亡": 5935,
      "行动": 5936,
      "食物": 5937,
      "高的": 5938,
      "，以及": 5939,
      "分析。": 5940,
      "eb": 5941,
      "事件": 5942,
      "显著": 5943,
      "来越": 5944,
      "温度": 5945,
      "纽约": 5946,
      "应用程序": 5947,
      "关注": 5948,
      "在一": 5949,
      "新闻": 5950,
      "混合": 5951,
      "现象": 5952,
      "类似": 5953,
      "经过": 5954,
      "▁这种": 5955,
      "效果。": 5956,
      "游戏": 5957,
      "贸易": 5958,
      "越来越": 5959,
      "运用": 5960,
      "实施": 5961,
      "测定": 5962,
      "者。": 5963,
      "，让": 5964,
      "ou": 5965,
      "▁h": 5966,
      "事实": 5967,
      "办公": 5968,
      "平均": 5969,
      "并且": 5970,
      "经常": 5971,
      "记录": 5972,
      "13": 5973,
      "图像": 5974,
      "差异": 5975,
      "最终": 5976,
      "，“": 5977,
      "也许": 5978,
      "小的": 5979,
      "正确": 5980,
      "部门": 5981,
      "印度": 5982,
      "好。": 5983,
      "战争": 5984,
      "故事": 5985,
      "有的": 5986,
      "物质": 5987,
      "公司的": 5988,
      "专家": 5989,
      "力的": 5990,
      "原理": 5991,
      "多的": 5992,
      "委员": 5993,
      "学院": 5994,
      "来说": 5995,
      "相同": 5996,
      "，中国": 5997,
      "基金": 5998,
      "官员": 5999,
      "实践": 6000,
      "法国": 6001,
      "结束": 6002,
      "里。": 6003,
      "17": 6004,
      "▁上": 6005,
      "▁随着": 6006,
      "元素": 6007,
      "加入": 6008,
      "描述": 6009,
      "期间": 6010,
      "真正": 6011,
      "课程": 6012,
      "内部": 6013,
      "子，": 6014,
      "意味": 6015,
      "成了": 6016,
      "改进": 6017,
      "未来": 6018,
      "负责": 6019,
      "▁采用": 6020,
      "十分": 6021,
      "同时，": 6022,
      "子的": 6023,
      "最后": 6024,
      "核心": 6025,
      "生长": 6026,
      "电脑": 6027,
      "的问题": 6028,
      "相互": 6029,
      "ml": 6030,
      "今年": 6031,
      "媒体": 6032,
      "性、": 6033,
      "相当": 6034,
      "经历": 6035,
      "规模": 6036,
      "适合": 6037,
      "那么": 6038,
      "25": 6039,
      "▁因为": 6040,
      "作品": 6041,
      "动态": 6042,
      "商业": 6043,
      "好，": 6044,
      "总是": 6045,
      "的时间": 6046,
      "两种": 6047,
      "合理": 6048,
      "改善": 6049,
      "本文": 6050,
      "的高": 6051,
      "空气": 6052,
      "购买": 6053,
      "资金": 6054,
      "错误": 6055,
      "预测": 6056,
      "，因此": 6057,
      "研究了": 6058,
      "计算机": 6059,
      "0年": 6060,
      "ip": 6061,
      "▁中": 6062,
      "个月": 6063,
      "也不": 6064,
      "效率": 6065,
      "最近": 6066,
      "正常": 6067,
      "物。": 6068,
      "相对": 6069,
      "访问": 6070,
      "，该": 6071,
      "▁就": 6072,
      "一般": 6073,
      "为什么": 6074,
      "分别": 6075,
      "制作": 6076,
      "来说，": 6077,
      "至少": 6078,
      "英语": 6079,
      "认识": 6080,
      "，从而": 6081,
      "公共": 6082,
      "困难": 6083,
      "尤其": 6084,
      "巴马": 6085,
      "想要": 6086,
      "病毒": 6087,
      "这么": 6088,
      "ed": 6089,
      "▁用": 6090,
      "丰富": 6091,
      "允许": 6092,
      "您的": 6093,
      "感染": 6094,
      "改革": 6095,
      "满足": 6096,
      "葡萄": 6097,
      "ct": 6098,
      "优势": 6099,
      "优化": 6100,
      "制度": 6101,
      "另一个": 6102,
      "必要": 6103,
      "指标": 6104,
      "设置": 6105,
      "，这样": 6106,
      "全国": 6107,
      "太阳": 6108,
      "德国": 6109,
      "教授": 6110,
      "数量": 6111,
      "欢迎": 6112,
      "的主": 6113,
      "的情况": 6114,
      "统计": 6115,
      "金融": 6116,
      "限制": 6117,
      "，每": 6118,
      "id": 6119,
      "im": 6120,
      "▁尽管": 6121,
      "举行": 6122,
      "产业": 6123,
      "培养": 6124,
      "斯特": 6125,
      "纤维": 6126,
      "职业": 6127,
      "那样": 6128,
      "都有": 6129,
      "食品": 6130,
      "，这是": 6131,
      "系统。": 6132,
      "委员会": 6133,
      "8年": 6134,
      "ch": 6135,
      "下降": 6136,
      "依据": 6137,
      "危险": 6138,
      "型的": 6139,
      "成员": 6140,
      "斯坦": 6141,
      "状况": 6142,
      "连续": 6143,
      "（p": 6144,
      "，还": 6145,
      "更多的": 6146,
      "位。": 6147,
      "函数": 6148,
      "小时": 6149,
      "添加": 6150,
      "详细": 6151,
      "，用": 6152,
      "科学家": 6153,
      "医生": 6154,
      "名字": 6155,
      "在一起": 6156,
      "奥巴马": 6157,
      "的原因": 6158,
      "面对": 6159,
      "，一个": 6160,
      "的事情": 6161,
      "▁介绍了": 6162,
      "医院": 6163,
      "去年": 6164,
      "名的": 6165,
      "处于": 6166,
      "教师": 6167,
      "无论": 6168,
      "某些": 6169,
      "玻璃": 6170,
      "理解": 6171,
      "科技": 6172,
      "，同时": 6173,
      "工作。": 6174,
      "▁每": 6175,
      "▁虽然": 6176,
      "于是": 6177,
      "促进": 6178,
      "医疗": 6179,
      "团队": 6180,
      "土地": 6181,
      "提取": 6182,
      "独立": 6183,
      "称为": 6184,
      "都会": 6185,
      "可以在": 6186,
      "100": 6187,
      "24": 6188,
      "▁n": 6189,
      "▁r": 6190,
      "▁。": 6191,
      "▁《": 6192,
      "▁阿": 6193,
      "一位": 6194,
      "亿美元": 6195,
      "安装": 6196,
      "属于": 6197,
      "开放": 6198,
      "策略": 6199,
      "罗斯": 6200,
      "意味着": 6201,
      "原则": 6202,
      "去。": 6203,
      "大。": 6204,
      "大量": 6205,
      "机器": 6206,
      "照片": 6207,
      "的不": 6208,
      "试图": 6209,
      "适应": 6210,
      "▁目的探讨": 6211,
      "品牌": 6212,
      "在于": 6213,
      "地球": 6214,
      "平衡": 6215,
      "抑制": 6216,
      "曾经": 6217,
      "污染": 6218,
      "球员": 6219,
      "服务器": 6220,
      "▁200": 6221,
      "▁目前": 6222,
      "不到": 6223,
      "不要": 6224,
      "农业": 6225,
      "只要": 6226,
      "旅游": 6227,
      "普通": 6228,
      "生态": 6229,
      "训练": 6230,
      "▁请": 6231,
      "协议": 6232,
      "另外": 6233,
      "特殊": 6234,
      "线性": 6235,
      "距离": 6236,
      "这是": 6237,
      "的时候，": 6238,
      "oo": 6239,
      "▁所以": 6240,
      "出口": 6241,
      "可靠": 6242,
      "大多数": 6243,
      "展示": 6244,
      "广告": 6245,
      "是由": 6246,
      "物的": 6247,
      "组合": 6248,
      "重点": 6249,
      "?。": 6250,
      "▁将": 6251,
      "▁小": 6252,
      "一点": 6253,
      "唯一": 6254,
      "怎样": 6255,
      "的基础": 6256,
      "规则": 6257,
      "规定": 6258,
      "飞机": 6259,
      "，或者": 6260,
      "1.": 6261,
      "交通": 6262,
      "以来": 6263,
      "兴趣": 6264,
      "具体": 6265,
      "反对": 6266,
      "发明": 6267,
      "大家": 6268,
      "尼亚": 6269,
      "当地": 6270,
      "早期": 6271,
      "母亲": 6272,
      "物理": 6273,
      "申请": 6274,
      "眼睛": 6275,
      "老师": 6276,
      "自我": 6277,
      "角度": 6278,
      "趋势": 6279,
      "那里": 6280,
      "，和": 6281,
      "，把": 6282,
      "，这种": 6283,
      "意义。": 6284,
      "▁x": 6285,
      "加强": 6286,
      "吸引": 6287,
      "员工": 6288,
      "恢复": 6289,
      "永远": 6290,
      "活性": 6291,
      "清楚": 6292,
      "父亲": 6293,
      "生成": 6294,
      "的东西": 6295,
      "直到": 6296,
      "经营": 6297,
      "设施": 6298,
      "发展的": 6299,
      "40": 6300,
      "9年": 6301,
      "▁作为": 6302,
      "人口": 6303,
      "博士": 6304,
      "发布": 6305,
      "平台": 6306,
      "战略": 6307,
      "良好的": 6308,
      "面临": 6309,
      "验证": 6310,
      "，请": 6311,
      "部分。": 6312,
      "ing": 6313,
      "▁要": 6314,
      "人在": 6315,
      "成分": 6316,
      "效应": 6317,
      "文学": 6318,
      "相比": 6319,
      "评估": 6320,
      "责任": 6321,
      "事情": 6322,
      "公园": 6323,
      "十年": 6324,
      "增强": 6325,
      "挑战": 6326,
      "放在": 6327,
      "现实": 6328,
      "的前": 6329,
      "的设计": 6330,
      "真的": 6331,
      "确保": 6332,
      "社区": 6333,
      "背景": 6334,
      "198": 6335,
      "2010": 6336,
      "us": 6337,
      "▁第二": 6338,
      "准确": 6339,
      "和其他": 6340,
      "多少": 6341,
      "用。": 6342,
      "积极": 6343,
      "调整": 6344,
      "阅读": 6345,
      "应用。": 6346,
      "数据库": 6347,
      "2.": 6348,
      "▁a": 6349,
      "力量": 6350,
      "周期": 6351,
      "声音": 6352,
      "尝试": 6353,
      "接触": 6354,
      "有着": 6355,
      "的一种": 6356,
      "皮肤": 6357,
      "营养": 6358,
      "视频": 6359,
      "资本": 6360,
      "酒店": 6361,
      "，提出了": 6362,
      "▁不过": 6363,
      "▁j": 6364,
      "出来": 6365,
      "搜索": 6366,
      "民族": 6367,
      "父母": 6368,
      "看见": 6369,
      "石油": 6370,
      "第一个": 6371,
      "方面的": 6372,
      "▁in": 6373,
      "▁例如": 6374,
      "以前": 6375,
      "供应": 6376,
      "分离": 6377,
      "将在": 6378,
      "强度": 6379,
      "或是": 6380,
      "独特": 6381,
      "的、": 6382,
      "全部": 6383,
      "发表": 6384,
      "只能": 6385,
      "合成": 6386,
      "大利": 6387,
      "失去": 6388,
      "当前": 6389,
      "得到了": 6390,
      "是因为": 6391,
      "涉及": 6392,
      "版本": 6393,
      "离开": 6394,
      "逐渐": 6395,
      "道。": 6396,
      "颜色": 6397,
      "驱动": 6398,
      "问题的": 6399,
      "5年": 6400,
      "▁正": 6401,
      "使得": 6402,
      "循环": 6403,
      "机械": 6404,
      "的地": 6405,
      "长的": 6406,
      "风格": 6407,
      "应用于": 6408,
      "建立了": 6409,
      "作者": 6410,
      "充满": 6411,
      "内的": 6412,
      "到的": 6413,
      "她们": 6414,
      "年龄": 6415,
      "并没有": 6416,
      "按照": 6417,
      "最大": 6418,
      "构成": 6419,
      "电路": 6420,
      "配置": 6421,
      "面。": 6422,
      "▁他的": 6423,
      "lo": 6424,
      "▁高": 6425,
      "交流": 6426,
      "器。": 6427,
      "在一个": 6428,
      "手机": 6429,
      "最佳": 6430,
      "流行": 6431,
      "病人": 6432,
      "约翰": 6433,
      "适用于": 6434,
      "说，“": 6435,
      "60": 6436,
      "7年": 6437,
      "分类": 6438,
      "多个": 6439,
      "天然": 6440,
      "最大的": 6441,
      "框架": 6442,
      "用来": 6443,
      "破坏": 6444,
      "给出了": 6445,
      "难以": 6446,
      "办公室": 6447,
      "上海": 6448,
      "拒绝": 6449,
      "特点": 6450,
      "看起来": 6451,
      "肿瘤": 6452,
      "规划": 6453,
      "调节": 6454,
      "香港": 6455,
      "第一次": 6456,
      "▁如": 6457,
      "上升": 6458,
      "估计": 6459,
      "充分": 6460,
      "免疫": 6461,
      "分为": 6462,
      "咖啡": 6463,
      "大约": 6464,
      "意大利": 6465,
      "手段": 6466,
      "攻击": 6467,
      "根本": 6468,
      "理想": 6469,
      "输入": 6470,
      "，通过": 6471,
      "特别是": 6472,
      "un": 6473,
      "▁第": 6474,
      "也有": 6475,
      "会在": 6476,
      "免费": 6477,
      "再次": 6478,
      "创新": 6479,
      "单位": 6480,
      "安排": 6481,
      "完善": 6482,
      "气候": 6483,
      "识别": 6484,
      "问题，": 6485,
      "世界上": 6486,
      "过程。": 6487,
      "价值。": 6488,
      "讨论了": 6489,
      "80": 6490,
      "▁-": 6491,
      "习惯": 6492,
      "儿子": 6493,
      "其中": 6494,
      "参考": 6495,
      "地。": 6496,
      "女孩": 6497,
      "妇女": 6498,
      "巨大的": 6499,
      "年前": 6500,
      "担心": 6501,
      "拉克": 6502,
      "来到": 6503,
      "球队": 6504,
      "疗效": 6505,
      "的数据": 6506,
      "看看": 6507,
      "经理": 6508,
      "飞行": 6509,
      "可能是": 6510,
      "iv": 6511,
      "▁自": 6512,
      "不知道": 6513,
      "做出": 6514,
      "即使": 6515,
      "固定": 6516,
      "复合": 6517,
      "大，": 6518,
      "寻找": 6519,
      "打开": 6520,
      "扩展": 6521,
      "的水": 6522,
      "突然": 6523,
      "血管": 6524,
      "贷款": 6525,
      "，要": 6526,
      "重要的": 6527,
      "ion": 6528,
      "sp": 6529,
      "▁您": 6530,
      "一家": 6531,
      "仅仅": 6532,
      "制备": 6533,
      "居民": 6534,
      "或许": 6535,
      "承认": 6536,
      "指导": 6537,
      "损伤": 6538,
      "构建": 6539,
      "的那": 6540,
      "论文": 6541,
      "迅速": 6542,
      "，与": 6543,
      "▁e": 6544,
      "▁可": 6545,
      "一名": 6546,
      "亚洲": 6547,
      "俄罗斯": 6548,
      "助于": 6549,
      "和华": 6550,
      "地震": 6551,
      "多种": 6552,
      "小说": 6553,
      "就像": 6554,
      "就可以": 6555,
      "成熟": 6556,
      "旅行": 6557,
      "有些": 6558,
      "杂志": 6559,
      "率。": 6560,
      "给我": 6561,
      "航空": 6562,
      "请求": 6563,
      "资产": 6564,
      "转换": 6565,
      "附近": 6566,
      "模型。": 6567,
      "3年": 6568,
      "一致": 6569,
      "他在": 6570,
      "伦敦": 6571,
      "制的": 6572,
      "动机": 6573,
      "周围": 6574,
      "商品": 6575,
      "图书": 6576,
      "外的": 6577,
      "天，": 6578,
      "失败": 6579,
      "幸福": 6580,
      "心。": 6581,
      "接近": 6582,
      "现状": 6583,
      "男人": 6584,
      "相应": 6585,
      "让人": 6586,
      "相关的": 6587,
      "ag": 6588,
      "ol": 6589,
      "▁利用": 6590,
      "会有": 6591,
      "例，": 6592,
      "可行": 6593,
      "妈妈": 6594,
      "对其": 6595,
      "很快": 6596,
      "性质": 6597,
      "总结": 6598,
      "放弃": 6599,
      "整体": 6600,
      "权利": 6601,
      "构造": 6602,
      "民主": 6603,
      "特性": 6604,
      "翻译": 6605,
      "而言": 6606,
      "自身": 6607,
      "节目": 6608,
      "角色": 6609,
      "记忆": 6610,
      "，又": 6611,
      "and": 6612,
      "有效的": 6613,
      "▁结论：": 6614,
      "动脉": 6615,
      "回到": 6616,
      "回答": 6617,
      "大量的": 6618,
      "威胁": 6619,
      "往往": 6620,
      "很有": 6621,
      "指数": 6622,
      "方便": 6623,
      "是最": 6624,
      "机场": 6625,
      "生的": 6626,
      "真实": 6627,
      "起来。": 6628,
      "非洲": 6629,
      "中国的": 6630,
      "▁v": 6631,
      "出版": 6632,
      "刺激": 6633,
      "应当": 6634,
      "愿意": 6635,
      "普遍": 6636,
      "每天": 6637,
      "男性": 6638,
      "的方式": 6639,
      "足够": 6640,
      "都在": 6641,
      "防止": 6642,
      "集中": 6643,
      "高。": 6644,
      "，却": 6645,
      "表示，": 6646,
      "有限公司": 6647,
      "ab": 6648,
      "▁新": 6649,
      "不再": 6650,
      "伤害": 6651,
      "体育": 6652,
      "原料": 6653,
      "变成": 6654,
      "命令": 6655,
      "年来": 6656,
      "形象": 6657,
      "意思": 6658,
      "符合": 6659,
      "能源": 6660,
      "能量": 6661,
      "规范": 6662,
      "通信": 6663,
      "，具有": 6664,
      "，甚至": 6665,
      "结构的": 6666,
      "▁当然": 6667,
      "一切": 6668,
      "一只": 6669,
      "人士": 6670,
      "仿真": 6671,
      "依赖": 6672,
      "保险": 6673,
      "值得": 6674,
      "决策": 6675,
      "危机": 6676,
      "含有": 6677,
      "培训": 6678,
      "有人": 6679,
      "格兰": 6680,
      "深入": 6681,
      "的生活": 6682,
      "联邦": 6683,
      "肯定": 6684,
      "色列": 6685,
      "记者": 6686,
      "邮件": 6687,
      "间的": 6688,
      "研究的": 6689,
      "的人。": 6690,
      "影响。": 6691,
      "ent": 6692,
      "3.": 6693,
      "6年": 6694,
      "ay": 6695,
      "ur": 6696,
      "▁并": 6697,
      "不过": 6698,
      "体。": 6699,
      "出。": 6700,
      "完美": 6701,
      "更好的": 6702,
      "期的": 6703,
      "耶和华": 6704,
      "障碍": 6705,
      "结果。": 6706,
      "2010年": 6707,
      "os": 6708,
      "▁今天": 6709,
      "上了": 6710,
      "创作": 6711,
      "品种": 6712,
      "在这": 6713,
      "地的": 6714,
      "宣布": 6715,
      "数学": 6716,
      "曲线": 6717,
      "让我们": 6718,
      "身份": 6719,
      "国家的": 6720,
      "产生的": 6721,
      "▁1": 6722,
      "下来": 6723,
      "也会": 6724,
      "化。": 6725,
      "坐在": 6726,
      "大部分": 6727,
      "展开": 6728,
      "常见": 6729,
      "高速": 6730,
      "，现在": 6731,
      "4年": 6732,
      "ig": 6733,
      "▁基于": 6734,
      "俱乐": 6735,
      "单元": 6736,
      "合同": 6737,
      "吧。": 6738,
      "品质": 6739,
      "宗教": 6740,
      "式。": 6741,
      "感谢": 6742,
      "比例": 6743,
      "的外": 6744,
      "监测": 6745,
      "相似": 6746,
      "编辑": 6747,
      "警察": 6748,
      "赛季": 6749,
      "运输": 6750,
      "面积": 6751,
      "）和": 6752,
      "▁the": 6753,
      "实际上": 6754,
      "▁然而，": 6755,
      "▁同时，": 6756,
      "一项": 6757,
      "为“": 6758,
      "停止": 6759,
      "区的": 6760,
      "发出": 6761,
      "后来": 6762,
      "存储": 6763,
      "成立": 6764,
      "收集": 6765,
      "敏感": 6766,
      "是什么": 6767,
      "更为": 6768,
      "有所": 6769,
      "股票": 6770,
      "观点": 6771,
      "规律": 6772,
      "转移": 6773,
      "逻辑": 6774,
      "，采用": 6775,
      "设计的": 6776,
      "技术。": 6777,
      "联合国": 6778,
      "俱乐部": 6779,
      "500": 6780,
      "pl": 6781,
      "上述": 6782,
      "不足": 6783,
      "也可以": 6784,
      "交换": 6785,
      "人都": 6786,
      "办法": 6787,
      "反映": 6788,
      "发挥": 6789,
      "合物": 6790,
      "合金": 6791,
      "处。": 6792,
      "多。": 6793,
      "大鼠": 6794,
      "家。": 6795,
      "异常": 6796,
      "式的": 6797,
      "明确": 6798,
      "症状": 6799,
      "给了": 6800,
      "西方": 6801,
      "预防": 6802,
      "，没有": 6803,
      "信息。": 6804,
      "孩子们": 6805,
      "▁因此，": 6806,
      "ib": 6807,
      "th": 6808,
      "上帝": 6809,
      "事务": 6810,
      "代理": 6811,
      "会的": 6812,
      "修改": 6813,
      "农村": 6814,
      "土壤": 6815,
      "大型": 6816,
      "引发": 6817,
      "很难": 6818,
      "快乐": 6819,
      "想象": 6820,
      "我在": 6821,
      "提升": 6822,
      "更新": 6823,
      "正是": 6824,
      "混凝": 6825,
      "燃烧": 6826,
      "离子": 6827,
      "称，": 6828,
      "衣服": 6829,
      "进展": 6830,
      "通用": 6831,
      "高兴": 6832,
      "高级": 6833,
      "▁我的": 6834,
      "分析，": 6835,
      "能力。": 6836,
      "▁最后，": 6837,
      "ms": 6838,
      "……": 6839,
      "▁针对": 6840,
      "以来，": 6841,
      "做的": 6842,
      "全面": 6843,
      "南部": 6844,
      "发育": 6845,
      "场。": 6846,
      "女人": 6847,
      "定位": 6848,
      "开展": 6849,
      "形态": 6850,
      "毕业": 6851,
      "爱的": 6852,
      "的问题。": 6853,
      "首次": 6854,
      "，比如": 6855,
      "▁这一": 6856,
      "服务。": 6857,
      "，不过": 6858,
      "▁2": 6859,
      "▁3": 6860,
      "▁（": 6861,
      "以为": 6862,
      "保障": 6863,
      "农民": 6864,
      "图片": 6865,
      "在那": 6866,
      "好地": 6867,
      "年。": 6868,
      "文档": 6869,
      "智能": 6870,
      "本身": 6871,
      "机理": 6872,
      "森林": 6873,
      "流程": 6874,
      "电池": 6875,
      "的成": 6876,
      "的方法。": 6877,
      "的基本": 6878,
      "节点": 6879,
      "让你": 6880,
      "贡献": 6881,
      "道路": 6882,
      "显示，": 6883,
      "混凝土": 6884,
      "%，": 6885,
      "ce": 6886,
      "▁人": 6887,
      "▁马": 6888,
      "▁，": 6889,
      "▁首先": 6890,
      "丈夫": 6891,
      "为止": 6892,
      "事。": 6893,
      "劳动": 6894,
      "双方": 6895,
      "各个": 6896,
      "同一": 6897,
      "在这个": 6898,
      "坚持": 6899,
      "完整": 6900,
      "将其": 6901,
      "工厂": 6902,
      "报》": 6903,
      "标志": 6904,
      "检验": 6905,
      "演员": 6906,
      "留下": 6907,
      "的关键": 6908,
      "确实": 6909,
      "话。": 6910,
      "说：": 6911,
      "量。": 6912,
      "题。": 6913,
      "高，": 6914,
      "，它们": 6915,
      "▁of": 6916,
      "od": 6917,
      "ut": 6918,
      "▁前": 6919,
      "▁所": 6920,
      "▁公司": 6921,
      "▁同时": 6922,
      "传播": 6923,
      "出来。": 6924,
      "吸收": 6925,
      "和他的": 6926,
      "四个": 6927,
      "实例": 6928,
      "强调": 6929,
      "房子": 6930,
      "振动": 6931,
      "支付": 6932,
      "是不": 6933,
      "的对": 6934,
      "的心": 6935,
      "的海": 6936,
      "研制": 6937,
      "系数": 6938,
      "缺乏": 6939,
      "脂肪": 6940,
      "苹果": 6941,
      "起了": 6942,
      "，或": 6943,
      "，被": 6944,
      "，尤其": 6945,
      "使用。": 6946,
      "产品的": 6947,
      "一样，": 6948,
      "传统的": 6949,
      "up": 6950,
      "了一些": 6951,
      "别人": 6952,
      "听到": 6953,
      "就能": 6954,
      "损失": 6955,
      "新型": 6956,
      "明白": 6957,
      "是对": 6958,
      "百万": 6959,
      "统一": 6960,
      "美丽": 6961,
      "证据": 6962,
      "费用": 6963,
      "追求": 6964,
      "链接": 6965,
      "鼓励": 6966,
      "（m": 6967,
      "，且": 6968,
      "下。": 6969,
      "二十": 6970,
      "会。": 6971,
      "传感": 6972,
      "公开": 6973,
      "典型": 6974,
      "军事": 6975,
      "分配": 6976,
      "北部": 6977,
      "原子": 6978,
      "呈现": 6979,
      "在中国": 6980,
      "奥运": 6981,
      "女儿": 6982,
      "寻求": 6983,
      "左右": 6984,
      "当时": 6985,
      "扫描": 6986,
      "技巧": 6987,
      "探索": 6988,
      "树脂": 6989,
      "样的": 6990,
      "激光": 6991,
      "燃料": 6992,
      "的经济": 6993,
      "耶稣": 6994,
      "这项": 6995,
      "都要": 6996,
      "阐述了": 6997,
      "预计": 6998,
      "高度": 6999,
      "，更": 7000,
      "ers": 7001,
      "功能。": 7002,
      "2年": 7003,
      "专门": 7004,
      "例子": 7005,
      "名称": 7006,
      "启动": 7007,
      "和平": 7008,
      "密切": 7009,
      "希腊": 7010,
      "拍摄": 7011,
      "文字": 7012,
      "最好的": 7013,
      "来源": 7014,
      "比亚": 7015,
      "法的": 7016,
      "电压": 7017,
      "男孩": 7018,
      "编码": 7019,
      "考察": 7020,
      "让我": 7021,
      "途径": 7022,
      "重视": 7023,
      "阿拉": 7024,
      "革命": 7025,
      "，就是": 7026,
      "，也是": 7027,
      "要求。": 7028,
      "变化。": 7029,
      "之前，": 7030,
      "21": 7031,
      "if": 7032,
      "op": 7033,
      "ow": 7034,
      "以色列": 7035,
      "先进": 7036,
      "包装": 7037,
      "压缩": 7038,
      "名。": 7039,
      "密度": 7040,
      "层的": 7041,
      "很大": 7042,
      "很少": 7043,
      "思考": 7044,
      "投入": 7045,
      "方程": 7046,
      "施工": 7047,
      "有可能": 7048,
      "某种": 7049,
      "现场": 7050,
      "红色": 7051,
      "纳米": 7052,
      "考试": 7053,
      "评论": 7054,
      "这次": 7055,
      "频率": 7056,
      "高于": 7057,
      "发展。": 7058,
      "过程中，": 7059,
      "▁st": 7060,
      "因素。": 7061,
      "▁web": 7062,
      "简单的": 7063,
      "▁方法：": 7064,
      "消费者": 7065,
      "27": 7066,
      "a）": 7067,
      "▁k": 7068,
      "▁两": 7069,
      "▁文章": 7070,
      "。我": 7071,
      "中央": 7072,
      "主席": 7073,
      "发射": 7074,
      "呼吸": 7075,
      "回顾": 7076,
      "学的": 7077,
      "实用": 7078,
      "对此": 7079,
      "小组": 7080,
      "强烈": 7081,
      "房间": 7082,
      "日，": 7083,
      "朝鲜": 7084,
      "正式": 7085,
      "消失": 7086,
      "班牙": 7087,
      "给你": 7088,
      "网上": 7089,
      "胜利": 7090,
      "补充": 7091,
      "西班牙": 7092,
      "财政": 7093,
      "选举": 7094,
      "197": 7095,
      "0.0": 7096,
      "▁然后": 7097,
      "不起": 7098,
      "催化": 7099,
      "利益": 7100,
      "到达": 7101,
      "对照": 7102,
      "层次": 7103,
      "常常": 7104,
      "把它": 7105,
      "数值": 7106,
      "是“": 7107,
      "消除": 7108,
      "的多": 7109,
      "看着": 7110,
      "绿色": 7111,
      "输出": 7112,
      "通知": 7113,
      "遗传": 7114,
      "页面": 7115,
      "，主要": 7116,
      "▁我想": 7117,
      "使用的": 7118,
      "技术的": 7119,
      "产品。": 7120,
      "▁而且": 7121,
      "▁结果表明，": 7122,
      "方案。": 7123,
      "26": 7124,
      "29": 7125,
      "em": 7126,
      "ir": 7127,
      "▁下": 7128,
      "▁行": 7129,
      "▁事实": 7130,
      "一条": 7131,
      "了一种": 7132,
      "人和": 7133,
      "住在": 7134,
      "体验": 7135,
      "债务": 7136,
      "假设": 7137,
      "前景": 7138,
      "前，": 7139,
      "加拿": 7140,
      "地下": 7141,
      "基督": 7142,
      "塑料": 7143,
      "声明": 7144,
      "头。": 7145,
      "尺寸": 7146,
      "情绪": 7147,
      "意。": 7148,
      "步骤": 7149,
      "沉积": 7150,
      "犯罪": 7151,
      "的好": 7152,
      "给予": 7153,
      "返回": 7154,
      "里斯": 7155,
      "铁路": 7156,
      "顾客": 7157,
      "颗粒": 7158,
      "▁此外，": 7159,
      "23": 7160,
      "4.": 7161,
      "▁没有": 7162,
      "▁所有": 7163,
      "▁除了": 7164,
      "》的": 7165,
      "一份": 7166,
      "一定的": 7167,
      "上去": 7168,
      "不需要": 7169,
      "你在": 7170,
      "克斯": 7171,
      "军队": 7172,
      "动作": 7173,
      "协会": 7174,
      "地，": 7175,
      "外交": 7176,
      "大利亚": 7177,
      "急性": 7178,
      "批评": 7179,
      "教练": 7180,
      "月份": 7181,
      "有了": 7182,
      "澳大利亚": 7183,
      "生存": 7184,
      "的一些": 7185,
      "盛顿": 7186,
      "看，": 7187,
      "组件": 7188,
      "绝对": 7189,
      "维护": 7190,
      "虚拟": 7191,
      "见。": 7192,
      "货币": 7193,
      "质的": 7194,
      "身上": 7195,
      "辐射": 7196,
      "过的": 7197,
      "释放": 7198,
      "，由": 7199,
      "表明：": 7200,
      "地区的": 7201,
      "▁研究了": 7202,
      "90": 7203,
      "com": 7204,
      "ot": 7205,
      "pc": 7206,
      "▁到": 7207,
      "▁近": 7208,
      "▁人们": 7209,
      "上面": 7210,
      "了！": 7211,
      "传输": 7212,
      "公路": 7213,
      "刚刚": 7214,
      "华盛顿": 7215,
      "协调": 7216,
      "响应": 7217,
      "学会": 7218,
      "心的": 7219,
      "成果": 7220,
      "是我": 7221,
      "晚上": 7222,
      "有点": 7223,
      "流动": 7224,
      "漂亮": 7225,
      "物，": 7226,
      "生。": 7227,
      "精度": 7228,
      "罗马": 7229,
      "覆盖": 7230,
      "谷歌": 7231,
      "边界": 7232,
      "还要": 7233,
      "进了": 7234,
      "进口": 7235,
      "进程": 7236,
      "阳光": 7237,
      "预期": 7238,
      "方法，": 7239,
      "工作的": 7240,
      "▁本发明": 7241,
      "认为，": 7242,
      "▁你们": 7243,
      "情况。": 7244,
      "▁但是，": 7245,
      "▁最后": 7246,
      "▁使用": 7247,
      "▁第一": 7248,
      "▁第三": 7249,
      "中间": 7250,
      "主题": 7251,
      "事业": 7252,
      "公布": 7253,
      "共和": 7254,
      "列表": 7255,
      "判断": 7256,
      "制定": 7257,
      "匹配": 7258,
      "医学": 7259,
      "发言": 7260,
      "商务": 7261,
      "在线": 7262,
      "学者": 7263,
      "家的": 7264,
      "应力": 7265,
      "所在": 7266,
      "推广": 7267,
      "故障": 7268,
      "文本": 7269,
      "替代": 7270,
      "最高": 7271,
      "有趣": 7272,
      "有助于": 7273,
      "武器": 7274,
      "的热": 7275,
      "的国家": 7276,
      "目录": 7277,
      "致力": 7278,
      "良好": 7279,
      "观众": 7280,
      "道德": 7281,
      "重大": 7282,
      "，我的": 7283,
      "如果你": 7284,
      "情况下": 7285,
      "投资者": 7286,
      "广泛的": 7287,
      "依据。": 7288,
      "cd": 7289,
      "ec": 7290,
      "▁可以": 7291,
      "不想": 7292,
      "享受": 7293,
      "以后": 7294,
      "伊拉克": 7295,
      "位的": 7296,
      "作业": 7297,
      "作出": 7298,
      "出生": 7299,
      "利的": 7300,
      "力和": 7301,
      "在此": 7302,
      "对比": 7303,
      "州的": 7304,
      "很好的": 7305,
      "我。": 7306,
      "所谓": 7307,
      "接收": 7308,
      "有机": 7309,
      "杰克": 7310,
      "点的": 7311,
      "的日": 7312,
      "穿着": 7313,
      "经典": 7314,
      "缺陷": 7315,
      "获取": 7316,
      "袭击": 7317,
      "起来，": 7318,
      "部队": 7319,
      "，他的": 7320,
      "，还有": 7321,
      "政府的": 7322,
      "的是，": 7323,
      "ess": 7324,
      "ter": 7325,
      "▁于是": 7326,
      "、高": 7327,
      "人工": 7328,
      "体内": 7329,
      "加速": 7330,
      "同意": 7331,
      "咨询": 7332,
      "国的": 7333,
      "妻子": 7334,
      "强的": 7335,
      "所需": 7336,
      "机。": 7337,
      "查询": 7338,
      "模块": 7339,
      "爱情": 7340,
      "痛苦": 7341,
      "移民": 7342,
      "立法": 7343,
      "类的": 7344,
      "里面": 7345,
      "长。": 7346,
      "提供的": 7347,
      "发生的": 7348,
      "选择。": 7349,
      "材料的": 7350,
      "不久": 7351,
      "互联": 7352,
      "产量": 7353,
      "伙伴": 7354,
      "保存": 7355,
      "关节": 7356,
      "冲击": 7357,
      "前的": 7358,
      "发电": 7359,
      "变的": 7360,
      "同步": 7361,
      "名为": 7362,
      "哲学": 7363,
      "天的": 7364,
      "字符": 7365,
      "带着": 7366,
      "带来的": 7367,
      "开关": 7368,
      "引擎": 7369,
      "弹性": 7370,
      "很大的": 7371,
      "律师": 7372,
      "推动": 7373,
      "有什么": 7374,
      "期待": 7375,
      "某个": 7376,
      "标记": 7377,
      "注射": 7378,
      "理念": 7379,
      "理由": 7380,
      "糖尿": 7381,
      "维持": 7382,
      "肌肉": 7383,
      "色。": 7384,
      "财务": 7385,
      "，您": 7386,
      "，例如": 7387,
      "结构。": 7388,
      "重要。": 7389,
      "组织的": 7390,
      "▁不要": 7391,
      "▁通过对": 7392,
      "▁目的：探讨": 7393,
      "独特的": 7394,
      "35": 7395,
      "oc": 7396,
      "▁它们": 7397,
      "▁英国": 7398,
      "为基础": 7399,
      "你可以": 7400,
      "倾向": 7401,
      "做了": 7402,
      "出现在": 7403,
      "卫星": 7404,
      "回归": 7405,
      "垃圾": 7406,
      "外部": 7407,
      "头，": 7408,
      "婚姻": 7409,
      "官方": 7410,
      "家里": 7411,
      "局部": 7412,
      "巨大": 7413,
      "干扰": 7414,
      "平面": 7415,
      "想法": 7416,
      "打算": 7417,
      "掌握": 7418,
      "排放": 7419,
      "提示": 7420,
      "旋转": 7421,
      "时刻": 7422,
      "是指": 7423,
      "是中国": 7424,
      "本质": 7425,
      "标签": 7426,
      "每一个": 7427,
      "清单": 7428,
      "清晰": 7429,
      "电流": 7430,
      "病的": 7431,
      "百分": 7432,
      "的三": 7433,
      "相反": 7434,
      "自行": 7435,
      "表演": 7436,
      "被称为": 7437,
      "谈判": 7438,
      "赢得": 7439,
      "转化": 7440,
      "进步": 7441,
      "集成": 7442,
      "，只": 7443,
      "，都": 7444,
      "，直到": 7445,
      "美国的": 7446,
      "▁我们的": 7447,
      "▁你可以": 7448,
      "发现了": 7449,
      "产生了": 7450,
      "运动员": 7451,
      "实验室": 7452,
      "70": 7453,
      "8.": 7454,
      "ps": 7455,
      "ul": 7456,
      "▁0": 7457,
      "▁克": 7458,
      "从未": 7459,
      "他。": 7460,
      "住宅": 7461,
      "作了": 7462,
      "全世界": 7463,
      "内，": 7464,
      "出发": 7465,
      "利于": 7466,
      "剂。": 7467,
      "变量": 7468,
      "在这里": 7469,
      "大小": 7470,
      "大脑": 7471,
      "婴儿": 7472,
      "家族": 7473,
      "就业": 7474,
      "工人": 7475,
      "扩大": 7476,
      "接着": 7477,
      "收益": 7478,
      "无线": 7479,
      "模糊": 7480,
      "水。": 7481,
      "注册": 7482,
      "深刻": 7483,
      "清洗": 7484,
      "潜在": 7485,
      "爆炸": 7486,
      "硬件": 7487,
      "精确": 7488,
      "紧张": 7489,
      "而不": 7490,
      "见到": 7491,
      "认知": 7492,
      "论述": 7493,
      "财富": 7494,
      "超级": 7495,
      "还在": 7496,
      "阻止": 7497,
      "非线性": 7498,
      "预算": 7499,
      "：我": 7500,
      "时间。": 7501,
      "模型的": 7502,
      "学生的": 7503,
      "美元。": 7504,
      "方式。": 7505,
      "活动。": 7506,
      "内容。": 7507,
      "类型的": 7508,
      "措施。": 7509,
      "0年代": 7510,
      "丰富的": 7511,
      "22": 7512,
      "75": 7513,
      "ht": 7514,
      "ph": 7515,
      "▁多": 7516,
      "▁把": 7517,
      "▁海": 7518,
      "一段": 7519,
      "不在": 7520,
      "不错": 7521,
      "作家": 7522,
      "依然": 7523,
      "信用": 7524,
      "公众": 7525,
      "关闭": 7526,
      "兴奋": 7527,
      "冠军": 7528,
      "化、": 7529,
      "区别": 7530,
      "十二": 7531,
      "取消": 7532,
      "品。": 7533,
      "品的": 7534,
      "头发": 7535,
      "实时": 7536,
      "对手": 7537,
      "序列": 7538,
      "心脏": 7539,
      "总体": 7540,
      "批准": 7541,
      "收到": 7542,
      "水的": 7543,
      "治理": 7544,
      "的临床": 7545,
      "移植": 7546,
      "立即": 7547,
      "终于": 7548,
      "血压": 7549,
      "行。": 7550,
      "西部": 7551,
      "说的": 7552,
      "达成": 7553,
      "适当": 7554,
      "选项": 7555,
      "配合": 7556,
      "随机": 7557,
      "面向": 7558,
      "（s": 7559,
      "，则": 7560,
      "，无": 7561,
      "，美国": 7562,
      "，对于": 7563,
      "，人们": 7564,
      "，提出": 7565,
      "，特别是": 7566,
      "，就像": 7567,
      "的地方。": 7568,
      "取得了": 7569,
      "联系。": 7570,
      "真正的": 7571,
      "致力于": 7572,
      "▁(": 7573,
      "▁由": 7574,
      "▁应用": 7575,
      "▁re": 7576,
      "▁无论": 7577,
      "一年": 7578,
      "下了": 7579,
      "中所": 7580,
      "中最": 7581,
      "切尔": 7582,
      "好像": 7583,
      "宇宙": 7584,
      "家，": 7585,
      "寿命": 7586,
      "已成为": 7587,
      "恐怖": 7588,
      "承担": 7589,
      "担任": 7590,
      "收购": 7591,
      "数。": 7592,
      "整合": 7593,
      "是有": 7594,
      "欧元": 7595,
      "浓度": 7596,
      "清洁": 7597,
      "现有": 7598,
      "的光": 7599,
      "约束": 7600,
      "细节": 7601,
      "结婚": 7602,
      "血清": 7603,
      "边的": 7604,
      "采访": 7605,
      "韩国": 7606,
      "首席": 7607,
      "（c": 7608,
      "可以通过": 7609,
      "工作，": 7610,
      "探讨了": 7611,
      "大学的": 7612,
      "支持。": 7613,
      "状态。": 7614,
      "”、": 7615,
      "▁还有": 7616,
      "不良": 7617,
      "人才": 7618,
      "传递": 7619,
      "关联": 7620,
      "制成": 7621,
      "剂的": 7622,
      "地面": 7623,
      "埃及": 7624,
      "尔斯": 7625,
      "巴西": 7626,
      "技能": 7627,
      "护理": 7628,
      "损害": 7629,
      "接口": 7630,
      "数的": 7631,
      "日益": 7632,
      "本书": 7633,
      "本地": 7634,
      "欧盟": 7635,
      "毫无": 7636,
      "环保": 7637,
      "疫苗": 7638,
      "疼痛": 7639,
      "的《": 7640,
      "的可": 7641,
      "监控": 7642,
      "监督": 7643,
      "纪录": 7644,
      "者们": 7645,
      "脉冲": 7646,
      "记得": 7647,
      "证券": 7648,
      "证实": 7649,
      "走向": 7650,
      "阿尔": 7651,
      "高效": 7652,
      "！”": 7653,
      "，像": 7654,
      "，提高": 7655,
      "发展，": 7656,
      "的人们": 7657,
      "ind": 7658,
      "治疗。": 7659,
      "程度上": 7660,
      "机器人": 7661,
      "图书馆": 7662,
      "300": 7663,
      "se": 7664,
      "▁5": 7665,
      "▁年": 7666,
      "▁文": 7667,
      "▁无": 7668,
      "▁一些": 7669,
      "下一": 7670,
      "为主": 7671,
      "他人": 7672,
      "代谢": 7673,
      "低于": 7674,
      "共享": 7675,
      "其实": 7676,
      "分解": 7677,
      "取代": 7678,
      "和“": 7679,
      "商店": 7680,
      "学科": 7681,
      "对方": 7682,
      "少年": 7683,
      "常规": 7684,
      "建造": 7685,
      "必然": 7686,
      "忽视": 7687,
      "怀疑": 7688,
      "探测": 7689,
      "日常": 7690,
      "是如何": 7691,
      "有多": 7692,
      "橡胶": 7693,
      "的后": 7694,
      "的作用": 7695,
      "禁止": 7696,
      "站在": 7697,
      "等方面": 7698,
      "线。": 7699,
      "线的": 7700,
      "联盟": 7701,
      "足球": 7702,
      "转变": 7703,
      "轻松": 7704,
      "部长": 7705,
      "都可以": 7706,
      "里有": 7707,
      "重复": 7708,
      "饮食": 7709,
      "，再": 7710,
      "，因": 7711,
      "美国人": 7712,
      "2008年": 7713,
      "发现，": 7714,
      "▁当你": 7715,
      "进行了研究。": 7716,
      "一样。": 7717,
      "▁to": 7718,
      "目标。": 7719,
      "---": 7720,
      "▁结果：": 7721,
      "条件。": 7722,
      "▁有些": 7723,
      "复杂的": 7724,
      "机会。": 7725,
      "报道，": 7726,
      "，即使": 7727,
      "互联网": 7728,
      "31": 7729,
      "qu": 7730,
      "ver": 7731,
      "▁布": 7732,
      "▁很多": 7733,
      "▁提出了": 7734,
      "三种": 7735,
      "严格": 7736,
      "争议": 7737,
      "事故": 7738,
      "从事": 7739,
      "优秀": 7740,
      "但是": 7741,
      "体现": 7742,
      "你。": 7743,
      "保留": 7744,
      "内存": 7745,
      "出去": 7746,
      "别的": 7747,
      "动。": 7748,
      "句话": 7749,
      "合适": 7750,
      "基地": 7751,
      "墨西": 7752,
      "大大": 7753,
      "姆斯": 7754,
      "导弹": 7755,
      "属性": 7756,
      "平方": 7757,
      "并非": 7758,
      "应对": 7759,
      "情感": 7760,
      "感兴趣": 7761,
      "手，": 7762,
      "指定": 7763,
      "明的": 7764,
      "是，": 7765,
      "显得": 7766,
      "演讲": 7767,
      "激素": 7768,
      "熟悉": 7769,
      "生素": 7770,
      "电力": 7771,
      "的两": 7772,
      "的确": 7773,
      "的角度": 7774,
      "聚集": 7775,
      "至于": 7776,
      "色彩": 7777,
      "英文": 7778,
      "血液": 7779,
      "行的": 7780,
      "警告": 7781,
      "调用": 7782,
      "超声": 7783,
      "路。": 7784,
      "车辆": 7785,
      "还没有": 7786,
      "这类": 7787,
      "都不": 7788,
      "顾问": 7789,
      "马克": 7790,
      "黑暗": 7791,
      "，两": 7792,
      "，能": 7793,
      "▁在此": 7794,
      "▁这项": 7795,
      "公司。": 7796,
      "的人，": 7797,
      "的一项": 7798,
      "生活的": 7799,
      "明显的": 7800,
      "意识到": 7801,
      "糖尿病": 7802,
      "-1": 7803,
      "6.": 7804,
      "▁也": 7805,
      "▁水": 7806,
      "▁许多": 7807,
      "一块": 7808,
      "一天": 7809,
      "上下": 7810,
      "不可能": 7811,
      "人物": 7812,
      "人群": 7813,
      "件事": 7814,
      "体外": 7815,
      "修复": 7816,
      "克的": 7817,
      "公民": 7818,
      "写作": 7819,
      "分享": 7820,
      "发送": 7821,
      "同事": 7822,
      "因子": 7823,
      "士兵": 7824,
      "复制": 7825,
      "夏天": 7826,
      "度、": 7827,
      "战斗": 7828,
      "投票": 7829,
      "拉斯": 7830,
      "期望": 7831,
      "权。": 7832,
      "气体": 7833,
      "淋巴": 7834,
      "的天": 7835,
      "的结果": 7836,
      "的学生": 7837,
      "相结合": 7838,
      "着。": 7839,
      "种植": 7840,
      "联赛": 7841,
      "营销": 7842,
      "著名": 7843,
      "著名的": 7844,
      "董事": 7845,
      "行政": 7846,
      "被认为": 7847,
      "谢谢": 7848,
      "车。": 7849,
      "运作": 7850,
      "还可以": 7851,
      "进球": 7852,
      "零售": 7853,
      "）、": 7854,
      "这样做": 7855,
      "one": 7856,
      "获得了": 7857,
      "性能。": 7858,
      "成功的": 7859,
      "ist": 7860,
      "特征。": 7861,
      "建议。": 7862,
      "人民币": 7863,
      "国内外": 7864,
      "加拿大": 7865,
      "墨西哥": 7866,
      "28": 7867,
      "ia": 7868,
      "ke": 7869,
      "ub": 7870,
      "um": 7871,
      "ve": 7872,
      "▁图": 7873,
      "一场": 7874,
      "下午": 7875,
      "不用": 7876,
      "中学": 7877,
      "中有": 7878,
      "产物": 7879,
      "以上": 7880,
      "会上": 7881,
      "例。": 7882,
      "初步": 7883,
      "化，": 7884,
      "博客": 7885,
      "参观": 7886,
      "器，": 7887,
      "地质": 7888,
      "大规模": 7889,
      "女士": 7890,
      "它。": 7891,
      "实在": 7892,
      "密码": 7893,
      "对我": 7894,
      "引导": 7895,
      "引用": 7896,
      "得以": 7897,
      "性别": 7898,
      "想到": 7899,
      "摩擦": 7900,
      "支撑": 7901,
      "显然": 7902,
      "未来的": 7903,
      "法院": 7904,
      "海岸": 7905,
      "男子": 7906,
      "癌症": 7907,
      "的美": 7908,
      "的环境": 7909,
      "种子": 7910,
      "细菌": 7911,
      "而且": 7912,
      "英尺": 7913,
      "补偿": 7914,
      "观念": 7915,
      "议员": 7916,
      "较好的": 7917,
      "运营": 7918,
      "适用": 7919,
      "通道": 7920,
      "道：“": 7921,
      "阐述": 7922,
      "防治": 7923,
      "静脉": 7924,
      "（d": 7925,
      "，此": 7926,
      "设计。": 7927,
      "▁“我": 7928,
      "存在着": 7929,
      "art": 7930,
      "是一家": 7931,
      "实现了": 7932,
      "行为。": 7933,
      "领导人": 7934,
      "▁xml": 7935,
      "阿拉伯": 7936,
      "1年": 7937,
      "cl": 7938,
      "ie": 7939,
      "ud": 7940,
      "▁y": 7941,
      "▁加": 7942,
      "▁卡": 7943,
      "▁巴": 7944,
      "▁即使": 7945,
      "以后，": 7946,
      "兄弟": 7947,
      "内。": 7948,
      "出一": 7949,
      "分散": 7950,
      "力学": 7951,
      "力，": 7952,
      "功率": 7953,
      "加热": 7954,
      "受伤": 7955,
      "国王": 7956,
      "宣传": 7957,
      "小鼠": 7958,
      "尔·": 7959,
      "度和": 7960,
      "引入": 7961,
      "感。": 7962,
      "成绩": 7963,
      "斯科": 7964,
      "明天": 7965,
      "梦想": 7966,
      "民间": 7967,
      "流量": 7968,
      "海洋": 7969,
      "灵活": 7970,
      "电站": 7971,
      "的书": 7972,
      "的家": 7973,
      "的世界": 7974,
      "的发生": 7975,
      "的比赛": 7976,
      "看到了": 7977,
      "矛盾": 7978,
      "突出": 7979,
      "舒适": 7980,
      "花园": 7981,
      "花费": 7982,
      "记住": 7983,
      "读者": 7984,
      "购物": 7985,
      "边缘": 7986,
      "过滤": 7987,
      "都能": 7988,
      "重的": 7989,
      "重量": 7990,
      "钱。": 7991,
      "，多": 7992,
      "，来": 7993,
      "，给": 7994,
      "，研究": 7995,
      "一个人": 7996,
      "▁这就是": 7997,
      "方法的": 7998,
      "，并在": 7999
    },
    "merges": [
      "一 个",
      "我 们",
      "他 们",
      "可 以",
      "▁ 在",
      "研 究",
      "▁ 这",
      "进 行",
      "0 0",
      "， 这",
      "方 法",
      "▁ 我",
      "中 国",
      "， 但",
      "系 统",
      "， 并",
      "没 有",
      "公 司",
      "问 题",
      "使 用",
      "可 能",
      "一 种",
      "工 作",
      "分 析",
      "， 我",
      "的 。",
      "如 果",
      "， 在",
      "美 国",
      "自 己",
      "通 过",
      "中 的",
      "▁ 本",
      "了 。",
      "发 展",
      "▁ 他",
      "这 个",
      "因 为",
      "设 计",
      "技 术",
      "提 供",
      "已 经",
      "的 人",
      "影 响",
      "， 而",
      "时 ，",
      "应 用",
      "中 ，",
      "一 些",
      "需 要",
      "说 ，",
      "结 果",
      "以 及",
      "主 要",
      "时 间",
      "他 的",
      "就 是",
      "现 在",
      "什 么",
      "目 的",
      "世 界",
      "具 有",
      "经 济",
      "的 一",
      "国 家",
      "数 据",
      "所 有",
      "不 同",
      "的 ，",
      "部 分",
      "后 ，",
      "▁ 但",
      "出 了",
      "服 务",
      "▁ 我们",
      "结 构",
      "这 些",
      "e r",
      "你 的",
      "控 制",
      "2 00",
      "， 他",
      "重 要",
      "过 程",
      "1 9",
      "开 始",
      "▁本 文",
      "i n",
      "时 候",
      "采 用",
      "作 用",
      "认 为",
      "方 面",
      "— —",
      "▁ 你",
      "作 为",
      "大 的",
      "产 品",
      "发 现",
      "其 他",
      "1 0",
      "▁ 如果",
      "， 是",
      "管 理",
      "上 的",
      "▁ 当",
      "成 为",
      "到 了",
      "， 我们",
      "▁ 目的",
      "政 府",
      "知 道",
      "▁ “",
      "好 的",
      "处 理",
      "组 织",
      "包 括",
      "人 的",
      "生 活",
      "， 你",
      "2 0",
      "发 生",
      "市 场",
      "生 产",
      "上 ，",
      "对 于",
      "介 绍",
      "关 系",
      "进行 了",
      "或 者",
      "非 常",
      "情 况",
      "存 在",
      "是 一个",
      "信 息",
      "模 型",
      "： “",
      "必 须",
      "a n",
      "选 择",
      "计 算",
      "， 以",
      "任 何",
      "，但 是",
      "治 疗",
      "这 样",
      "了 一",
      "， 不",
      "， 那",
      "人 们",
      "它 们",
      "， 也",
      "社 会",
      "我 的",
      "企 业",
      "表 明",
      "新 的",
      "细 胞",
      "用 于",
      "功 能",
      "a r",
      "性 。",
      "之 间",
      "表 示",
      "利 用",
      "学 生",
      "地 区",
      "▁ s",
      "两 个",
      "产 生",
      "是 一",
      "提 高",
      "环 境",
      "要 求",
      "能 够",
      "， 其",
      "o n",
      "有 效",
      "第 一",
      "实 现",
      "的 时候",
      "网 络",
      "安 全",
      "的 影响",
      "基 础",
      "建 立",
      "得 到",
      "来 ，",
      "理 论",
      "很 多",
      "正 在",
      "这 一",
      "那 些",
      "不 会",
      "探 讨",
      "计 划",
      "， 对",
      "许 多",
      "孩 子",
      "这 种",
      "因 此",
      "如 何",
      "所 以",
      "， 因为",
      "为 了",
      "。 ”",
      "显 示",
      "不 能",
      "由 于",
      "然 后",
      "相 关",
      "程 序",
      "应 该",
      "自己 的",
      "目 前",
      "中 心",
      "同 时",
      "地 方",
      "运 动",
      "实 验",
      "教 育",
      "根 据",
      "大 学",
      "希 望",
      "他们 的",
      "获 得",
      "美 元",
      "， 一",
      "方 式",
      "） 。",
      "， 有",
      "支 持",
      "的 是",
      "▁但 是",
      "性 的",
      "文 化",
      "能 力",
      "方法 。",
      "变 化",
      "▁ 她",
      "之 一",
      "来 的",
      "开 发",
      "科 学",
      "， 它",
      "国 际",
      "▁ 一",
      "o r",
      "” 。",
      "基 于",
      "还 是",
      "活 动",
      "测 试",
      "▁ 不",
      "一 样",
      "了 ，",
      "出 现",
      "量 的",
      "▁ 他们",
      "是 在",
      "来 。",
      "用 户",
      "城 市",
      "▁ 对",
      "问题 。",
      "定 的",
      "看 到",
      "增 加",
      "提 出了",
      "有 一",
      "， 他们",
      "喜 欢",
      "生 物",
      "结 论",
      "一 起",
      "▁ c",
      "形 成",
      "l e",
      "效 果",
      "性 能",
      "▁ t",
      "历 史",
      "原 因",
      "提 出",
      "有 关",
      "吗 ？",
      "投 资",
      "帮 助",
      "第 二",
      "a t",
      "” 的",
      "设 备",
      "， 从",
      "材 料",
      "目 标",
      "， 就",
      "▁ 该",
      "标 准",
      "项 目",
      "价 值",
      "工 程",
      "解 决",
      "▁ 而",
      "东 西",
      "人 员",
      "来 自",
      "实 际",
      "是 否",
      "电 子",
      "都 是",
      "比 较",
      "基 本",
      "的 大",
      "更 多",
      "e n",
      "传 统",
      "年 的",
      "下 ，",
      "反 应",
      "模 式",
      "- -",
      "▁ 结果",
      "患 者",
      "条 件",
      "行 为",
      "讨 论",
      "介绍 了",
      "e s",
      "主 义",
      "因 素",
      "还 有",
      "健 康",
      "调 查",
      "朋 友",
      "资 源",
      "个 人",
      "意 义",
      "▁ 有",
      "， 她",
      "点 。",
      "的 事",
      "▁ 从",
      "英 国",
      "我们 的",
      "保 护",
      "说 ：“",
      "随 着",
      "试 验",
      "今 天",
      "成 功",
      "甚 至",
      "内 容",
      "的 一个",
      "▁ m",
      "银 行",
      "▁ w",
      "▁ p",
      "只 有",
      "学 习",
      "关 于",
      "各 种",
      "空 间",
      "▁ 通过",
      "，而 且",
      "▁ 最",
      "文 件",
      "然 而",
      "▁ 它",
      "质 量",
      "一 直",
      "的 研究",
      "观 察",
      "上 。",
      "了 解",
      "了 一个",
      "拥 有",
      "方 案",
      "度 的",
      "特 别",
      "的 最",
      "结 合",
      "系统 的",
      "▁ 那",
      "告 诉",
      "接 受",
      "自 然",
      "艺 术",
      "只 是",
      "改 变",
      "，并 且",
      "水 平",
      "， 为",
      "1 2",
      "i s",
      "之 前",
      "全 球",
      "及 其",
      "体 的",
      "年 ，",
      "a l",
      "完 成",
      "导 致",
      "表 现",
      "i t",
      "5 0",
      "增 长",
      "的 “",
      "， 然后",
      "▁ 结论",
      "完 全",
      "a s",
      "▁ 以",
      "说 。",
      "决 定",
      "人 。",
      "▁这 些",
      "虽 然",
      "操 作",
      "明 显",
      "起 来",
      "a c",
      "合 作",
      "汽 车",
      "组 成",
      "蛋 白",
      "▁这 个",
      "特 征",
      "直 接",
      "进 入",
      "领 域",
      "后 的",
      "准 备",
      "检 测",
      "状 态",
      "的影响 。",
      "报 告",
      "1 1",
      "一 次",
      "政 治",
      "▁ 的",
      "中 。",
      "作用 。",
      "减 少",
      "教 学",
      "的 话",
      "， 使",
      "▁ d",
      "是 一种",
      "简 单",
      "， 可",
      "代 表",
      "参 数",
      "日 本",
      "自 由",
      "保 持",
      "比 赛",
      "考 虑",
      "软 件",
      "你 们",
      "工 艺",
      "3 0",
      "一 步",
      "动 物",
      "基 因",
      "如 此",
      "尽 管",
      "政 策",
      "确 定",
      "执 行",
      "神 经",
      "） 的",
      "r o",
      "客 户",
      "无 法",
      "语 言",
      "不同 的",
      "建 议",
      "思 想",
      "过 去",
      "运 行",
      "这 里",
      "▁ 研究",
      "机 构",
      "i c",
      "多 数",
      "她 的",
      "家 庭",
      "联 合",
      "▁目的 ：",
      "e l",
      "学 校",
      "e t",
      "呢 ？",
      "我 国",
      "面 的",
      "， 可以",
      "人 ，",
      "先 生",
      "形 式",
      "1 5",
      "通 常",
      "表明 ，",
      "专 业",
      "价 格",
      "关 键",
      "分 布",
      "外 ，",
      "现 代",
      "觉 得",
      "▁ 然而",
      "世 纪",
      "临 床",
      "制 造",
      "广 泛",
      "法 。",
      "生 命",
      "▁ 大",
      "建 筑",
      "每 个",
      "精 神",
      "继 续",
      "自 动",
      "下 的",
      "类 型",
      "人 类",
      "位 于",
      "的 新",
      "述 了",
      "总 统",
      "欧 洲",
      "达 到",
      "音 乐",
      "，这 些",
      "超 过",
      "造 成",
      "▁ 此",
      "区 域",
      "电 影",
      "针 对",
      "风 险",
      "r e",
      "▁ 其",
      "几 个",
      "感 到",
      "里 的",
      "建 设",
      "也 是",
      "化 的",
      "网 站",
      "降 低",
      "之间 的",
      "▁ 因此",
      "不 断",
      "业 务",
      "例 如",
      "子 。",
      "度 。",
      "性 ，",
      "容 易",
      "1 8",
      "▁ b",
      "力 。",
      "有 限",
      "氧 化",
      "严 重",
      "复 杂",
      "稳 定",
      "， 所以",
      "▁ 方法",
      "将 会",
      "的 小",
      "参 加",
      "就 会",
      "法 律",
      "系 列",
      "里 ，",
      "性 和",
      "， ”",
      "机 会",
      "点 ，",
      "用 的",
      "连 接",
      "， 如果",
      "” ，",
      "人 民",
      "体 系",
      "资 料",
      "需 求",
      "并 不",
      "感 觉",
      "19 9",
      "a p",
      "其 它",
      "化 学",
      "注 意",
      "电 视",
      "的 主要",
      "重 新",
      "00 0",
      "提供 了",
      "之一 。",
      "% 。",
      "o m",
      "位 置",
      "对 象",
      "有 一个",
      "检 查",
      "▁ 中国",
      "工 具",
      "整 个",
      "文 章",
      "的 方法",
      "药 物",
      "研究 。",
      "一 下",
      "器 的",
      "星 期",
      "知 识",
      "， 将",
      "▁ 对于",
      "同 样",
      "工 业",
      "成 本",
      "者 的",
      "长 期",
      "， 当",
      "的 地方",
      "程 度",
      "▁ 现在",
      "▁ 为了",
      "会 议",
      "动 力",
      "数 字",
      "等 。",
      "色 的",
      "解 释",
      "方 向",
      "更 加",
      "第 三",
      "所有 的",
      "▁ 为",
      "取 得",
      "报 道",
      "范 围",
      "分析 了",
      "▁ 由于",
      "儿 童",
      "措 施",
      "是 个",
      "仍 然",
      "出 的",
      "利 亚",
      "时 期",
      "消 息",
      "的 特",
      "金 属",
      "， 如",
      "，那 么",
      "▁ 据",
      "保 证",
      "分 子",
      "创 造",
      "测 量",
      "的 发展",
      "联 系",
      "阶 段",
      "h e",
      "找 到",
      "疾 病",
      "进 一步",
      "含 量",
      "的 重要",
      "经 验",
      "可能 会",
      "▁ 根据",
      "几 乎",
      "受 到",
      "一 定",
      "交 易",
      "另 一",
      "机 制",
      "行 业",
      "表 达",
      "， 大",
      "信 号",
      "模 拟",
      "电 话",
      "速 度",
      "▁如果 你",
      "▁ f",
      "▁ o",
      "它 的",
      "手 术",
      "指 出",
      "机 的",
      "比 如",
      "a d",
      "a m",
      "之 后",
      "创 建",
      "参 与",
      "定 义",
      "带 来",
      "心 理",
      "时 代",
      "说 明",
      "销 售",
      "，这 个",
      "关系 。",
      "不 可",
      "令 人",
      "共 同",
      "北 京",
      "算 法",
      "表 面",
      "评 价",
      "诊 断",
      "， 即",
      "任 务",
      "引 起",
      "那 个",
      "% 的",
      "学 家",
      "怎 么",
      "的 工作",
      "身 体",
      "） ，",
      "▁ 是",
      "加 工",
      "才 能",
      "这样 的",
      "三 个",
      "努 力",
      "年 轻",
      "快 速",
      "收 入",
      "植 物",
      "相 信",
      "竞 争",
      "卫 生",
      "概 念",
      "证 明",
      "除 了",
      "领 导",
      "首 先",
      "0 .",
      "▁ 美国",
      "不 仅",
      "意 识",
      "避 免",
      "， 包括",
      "i l",
      "▁ g",
      "似 乎",
      "压 力",
      "国 内",
      "岁 的",
      "移 动",
      "综 合",
      "，其 中",
      "▁ 与",
      "分 钟",
      "消 费",
      "装 置",
      "▁这 是",
      "1 4",
      "1 6",
      "▁ l",
      "变 得",
      "女 性",
      "时 的",
      "采 取",
      "过程 中",
      "s t",
      "▁ 和",
      "▁ 一个",
      "之 后，",
      "代 码",
      "包 含",
      "持 续",
      "集 团",
      "死 亡",
      "行 动",
      "食 物",
      "高 的",
      "， 以及",
      "分析 。",
      "e b",
      "事 件",
      "显 著",
      "来 越",
      "温 度",
      "纽 约",
      "应用 程序",
      "关 注",
      "在 一",
      "新 闻",
      "混 合",
      "现 象",
      "类 似",
      "经 过",
      "▁这 种",
      "效果 。",
      "游 戏",
      "贸 易",
      "越 来越",
      "运 用",
      "实 施",
      "测 定",
      "者 。",
      "， 让",
      "o u",
      "▁ h",
      "事 实",
      "办 公",
      "平 均",
      "并 且",
      "经 常",
      "记 录",
      "1 3",
      "图 像",
      "差 异",
      "最 终",
      "， “",
      "也 许",
      "小 的",
      "正 确",
      "部 门",
      "印 度",
      "好 。",
      "战 争",
      "故 事",
      "有 的",
      "物 质",
      "公司 的",
      "专 家",
      "力 的",
      "原 理",
      "多 的",
      "委 员",
      "学 院",
      "来 说",
      "相 同",
      "， 中国",
      "基 金",
      "官 员",
      "实 践",
      "法 国",
      "结 束",
      "里 。",
      "1 7",
      "▁ 上",
      "▁ 随着",
      "元 素",
      "加 入",
      "描 述",
      "期 间",
      "真 正",
      "课 程",
      "内 部",
      "子 ，",
      "意 味",
      "成 了",
      "改 进",
      "未 来",
      "负 责",
      "▁ 采用",
      "十 分",
      "同 时，",
      "子 的",
      "最 后",
      "核 心",
      "生 长",
      "电 脑",
      "的 问题",
      "相 互",
      "m l",
      "今 年",
      "媒 体",
      "性 、",
      "相 当",
      "经 历",
      "规 模",
      "适 合",
      "那 么",
      "2 5",
      "▁ 因为",
      "作 品",
      "动 态",
      "商 业",
      "好 ，",
      "总 是",
      "的 时间",
      "两 种",
      "合 理",
      "改 善",
      "本 文",
      "的 高",
      "空 气",
      "购 买",
      "资 金",
      "错 误",
      "预 测",
      "， 因此",
      "研究 了",
      "计算 机",
      "0 年",
      "i p",
      "▁ 中",
      "个 月",
      "也 不",
      "效 率",
      "最 近",
      "正 常",
      "物 。",
      "相 对",
      "访 问",
      "， 该",
      "▁ 就",
      "一 般",
      "为 什么",
      "分 别",
      "制 作",
      "来 说，",
      "至 少",
      "英 语",
      "认 识",
      "，从 而",
      "公 共",
      "困 难",
      "尤 其",
      "巴 马",
      "想 要",
      "病 毒",
      "这 么",
      "e d",
      "▁ 用",
      "丰 富",
      "允 许",
      "您 的",
      "感 染",
      "改 革",
      "满 足",
      "葡 萄",
      "c t",
      "优 势",
      "优 化",
      "制 度",
      "另 一个",
      "必 要",
      "指 标",
      "设 置",
      "，这 样",
      "全 国",
      "太 阳",
      "德 国",
      "教 授",
      "数 量",
      "欢 迎",
      "的 主",
      "的 情况",
      "统 计",
      "金 融",
      "限 制",
      "， 每",
      "i d",
      "i m",
      "▁ 尽管",
      "举 行",
      "产 业",
      "培 养",
      "斯 特",
      "纤 维",
      "职 业",
      "那 样",
      "都 有",
      "食 品",
      "，这 是",
      "系统 。",
      "委员 会",
      "8 年",
      "c h",
      "下 降",
      "依 据",
      "危 险",
      "型 的",
      "成 员",
      "斯 坦",
      "状 况",
      "连 续",
      "（ p",
      "， 还",
      "更多 的",
      "位 。",
      "函 数",
      "小 时",
      "添 加",
      "详 细",
      "， 用",
      "科学 家",
      "医 生",
      "名 字",
      "在 一起",
      "奥 巴马",
      "的 原因",
      "面 对",
      "， 一个",
      "的事 情",
      "▁ 介绍了",
      "医 院",
      "去 年",
      "名 的",
      "处 于",
      "教 师",
      "无 论",
      "某 些",
      "玻 璃",
      "理 解",
      "科 技",
      "， 同时",
      "工作 。",
      "▁ 每",
      "▁ 虽然",
      "于 是",
      "促 进",
      "医 疗",
      "团 队",
      "土 地",
      "提 取",
      "独 立",
      "称 为",
      "都 会",
      "可以 在",
      "1 00",
      "2 4",
      "▁ n",
      "▁ r",
      "▁ 。",
      "▁ 《",
      "▁ 阿",
      "一 位",
      "亿 美元",
      "安 装",
      "属 于",
      "开 放",
      "策 略",
      "罗 斯",
      "意味 着",
      "原 则",
      "去 。",
      "大 。",
      "大 量",
      "机 器",
      "照 片",
      "的 不",
      "试 图",
      "适 应",
      "▁目的 探讨",
      "品 牌",
      "在 于",
      "地 球",
      "平 衡",
      "抑 制",
      "曾 经",
      "污 染",
      "球 员",
      "服务 器",
      "▁ 200",
      "▁ 目前",
      "不 到",
      "不 要",
      "农 业",
      "只 要",
      "旅 游",
      "普 通",
      "生 态",
      "训 练",
      "▁ 请",
      "协 议",
      "另 外",
      "特 殊",
      "线 性",
      "距 离",
      "这 是",
      "的时候 ，",
      "o o",
      "▁ 所以",
      "出 口",
      "可 靠",
      "大 多数",
      "展 示",
      "广 告",
      "是 由",
      "物 的",
      "组 合",
      "重 点",
      "? 。",
      "▁ 将",
      "▁ 小",
      "一 点",
      "唯 一",
      "怎 样",
      "的 基础",
      "规 则",
      "规 定",
      "飞 机",
      "， 或者",
      "1 .",
      "交 通",
      "以 来",
      "兴 趣",
      "具 体",
      "反 对",
      "发 明",
      "大 家",
      "尼 亚",
      "当 地",
      "早 期",
      "母 亲",
      "物 理",
      "申 请",
      "眼 睛",
      "老 师",
      "自 我",
      "角 度",
      "趋 势",
      "那 里",
      "， 和",
      "， 把",
      "，这 种",
      "意义 。",
      "▁ x",
      "加 强",
      "吸 引",
      "员 工",
      "恢 复",
      "永 远",
      "活 性",
      "清 楚",
      "父 亲",
      "生 成",
      "的 东西",
      "直 到",
      "经 营",
      "设 施",
      "发展 的",
      "4 0",
      "9 年",
      "▁ 作为",
      "人 口",
      "博 士",
      "发 布",
      "平 台",
      "战 略",
      "良 好的",
      "面 临",
      "验 证",
      "， 请",
      "部分 。",
      "in g",
      "▁ 要",
      "人 在",
      "成 分",
      "效 应",
      "文 学",
      "相 比",
      "评 估",
      "责 任",
      "事 情",
      "公 园",
      "十 年",
      "增 强",
      "挑 战",
      "放 在",
      "现 实",
      "的 前",
      "的 设计",
      "真 的",
      "确 保",
      "社 区",
      "背 景",
      "19 8",
      "20 10",
      "u s",
      "▁ 第二",
      "准 确",
      "和 其他",
      "多 少",
      "用 。",
      "积 极",
      "调 整",
      "阅 读",
      "应用 。",
      "数据 库",
      "2 .",
      "▁ a",
      "力 量",
      "周 期",
      "声 音",
      "尝 试",
      "接 触",
      "有 着",
      "的 一种",
      "皮 肤",
      "营 养",
      "视 频",
      "资 本",
      "酒 店",
      "， 提出了",
      "▁不 过",
      "▁ j",
      "出 来",
      "搜 索",
      "民 族",
      "父 母",
      "看 见",
      "石 油",
      "第 一个",
      "方面 的",
      "▁ in",
      "▁ 例如",
      "以 前",
      "供 应",
      "分 离",
      "将 在",
      "强 度",
      "或 是",
      "独 特",
      "的 、",
      "全 部",
      "发 表",
      "只 能",
      "合 成",
      "大 利",
      "失 去",
      "当 前",
      "得 到了",
      "是 因为",
      "涉 及",
      "版 本",
      "离 开",
      "逐 渐",
      "道 。",
      "颜 色",
      "驱 动",
      "问题 的",
      "5 年",
      "▁ 正",
      "使 得",
      "循 环",
      "机 械",
      "的 地",
      "长 的",
      "风 格",
      "应用 于",
      "建立 了",
      "作 者",
      "充 满",
      "内 的",
      "到 的",
      "她 们",
      "年 龄",
      "并 没有",
      "按 照",
      "最 大",
      "构 成",
      "电 路",
      "配 置",
      "面 。",
      "▁他 的",
      "l o",
      "▁ 高",
      "交 流",
      "器 。",
      "在 一个",
      "手 机",
      "最 佳",
      "流 行",
      "病 人",
      "约 翰",
      "适 用于",
      "说， “",
      "6 0",
      "7 年",
      "分 类",
      "多 个",
      "天 然",
      "最 大的",
      "框 架",
      "用 来",
      "破 坏",
      "给 出了",
      "难 以",
      "办公 室",
      "上 海",
      "拒 绝",
      "特 点",
      "看 起来",
      "肿 瘤",
      "规 划",
      "调 节",
      "香 港",
      "第一 次",
      "▁ 如",
      "上 升",
      "估 计",
      "充 分",
      "免 疫",
      "分 为",
      "咖 啡",
      "大 约",
      "意 大利",
      "手 段",
      "攻 击",
      "根 本",
      "理 想",
      "输 入",
      "， 通过",
      "特别 是",
      "u n",
      "▁ 第",
      "也 有",
      "会 在",
      "免 费",
      "再 次",
      "创 新",
      "单 位",
      "安 排",
      "完 善",
      "气 候",
      "识 别",
      "问题 ，",
      "世界 上",
      "过程 。",
      "价值 。",
      "讨论 了",
      "8 0",
      "▁ -",
      "习 惯",
      "儿 子",
      "其 中",
      "参 考",
      "地 。",
      "女 孩",
      "妇 女",
      "巨 大的",
      "年 前",
      "担 心",
      "拉 克",
      "来 到",
      "球 队",
      "疗 效",
      "的 数据",
      "看 看",
      "经 理",
      "飞 行",
      "可能 是",
      "i v",
      "▁ 自",
      "不 知道",
      "做 出",
      "即 使",
      "固 定",
      "复 合",
      "大 ，",
      "寻 找",
      "打 开",
      "扩 展",
      "的 水",
      "突 然",
      "血 管",
      "贷 款",
      "， 要",
      "重要 的",
      "i on",
      "s p",
      "▁ 您",
      "一 家",
      "仅 仅",
      "制 备",
      "居 民",
      "或 许",
      "承 认",
      "指 导",
      "损 伤",
      "构 建",
      "的 那",
      "论 文",
      "迅 速",
      "， 与",
      "▁ e",
      "▁ 可",
      "一 名",
      "亚 洲",
      "俄 罗斯",
      "助 于",
      "和 华",
      "地 震",
      "多 种",
      "小 说",
      "就 像",
      "就 可以",
      "成 熟",
      "旅 行",
      "有 些",
      "杂 志",
      "率 。",
      "给 我",
      "航 空",
      "请 求",
      "资 产",
      "转 换",
      "附 近",
      "模型 。",
      "3 年",
      "一 致",
      "他 在",
      "伦 敦",
      "制 的",
      "动 机",
      "周 围",
      "商 品",
      "图 书",
      "外 的",
      "天 ，",
      "失 败",
      "幸 福",
      "心 。",
      "接 近",
      "现 状",
      "男 人",
      "相 应",
      "让 人",
      "相关 的",
      "a g",
      "o l",
      "▁ 利用",
      "会 有",
      "例 ，",
      "可 行",
      "妈 妈",
      "对 其",
      "很 快",
      "性 质",
      "总 结",
      "放 弃",
      "整 体",
      "权 利",
      "构 造",
      "民 主",
      "特 性",
      "翻 译",
      "而 言",
      "自 身",
      "节 目",
      "角 色",
      "记 忆",
      "， 又",
      "an d",
      "有效 的",
      "▁结论 ：",
      "动 脉",
      "回 到",
      "回 答",
      "大 量的",
      "威 胁",
      "往 往",
      "很 有",
      "指 数",
      "方 便",
      "是 最",
      "机 场",
      "生 的",
      "真 实",
      "起 来。",
      "非 洲",
      "中国 的",
      "▁ v",
      "出 版",
      "刺 激",
      "应 当",
      "愿 意",
      "普 遍",
      "每 天",
      "男 性",
      "的 方式",
      "足 够",
      "都 在",
      "防 止",
      "集 中",
      "高 。",
      "， 却",
      "表示 ，",
      "有限 公司",
      "a b",
      "▁ 新",
      "不 再",
      "伤 害",
      "体 育",
      "原 料",
      "变 成",
      "命 令",
      "年 来",
      "形 象",
      "意 思",
      "符 合",
      "能 源",
      "能 量",
      "规 范",
      "通 信",
      "， 具有",
      "， 甚至",
      "结构 的",
      "▁当 然",
      "一 切",
      "一 只",
      "人 士",
      "仿 真",
      "依 赖",
      "保 险",
      "值 得",
      "决 策",
      "危 机",
      "含 有",
      "培 训",
      "有 人",
      "格 兰",
      "深 入",
      "的 生活",
      "联 邦",
      "肯 定",
      "色 列",
      "记 者",
      "邮 件",
      "间 的",
      "研究 的",
      "的人 。",
      "影响 。",
      "en t",
      "3 .",
      "6 年",
      "a y",
      "u r",
      "▁ 并",
      "不 过",
      "体 。",
      "出 。",
      "完 美",
      "更 好的",
      "期 的",
      "耶 和华",
      "障 碍",
      "结果 。",
      "2010 年",
      "o s",
      "▁ 今天",
      "上 了",
      "创 作",
      "品 种",
      "在 这",
      "地 的",
      "宣 布",
      "数 学",
      "曲 线",
      "让 我们",
      "身 份",
      "国家 的",
      "产生 的",
      "▁ 1",
      "下 来",
      "也 会",
      "化 。",
      "坐 在",
      "大 部分",
      "展 开",
      "常 见",
      "高 速",
      "， 现在",
      "4 年",
      "i g",
      "▁ 基于",
      "俱 乐",
      "单 元",
      "合 同",
      "吧 。",
      "品 质",
      "宗 教",
      "式 。",
      "感 谢",
      "比 例",
      "的 外",
      "监 测",
      "相 似",
      "编 辑",
      "警 察",
      "赛 季",
      "运 输",
      "面 积",
      "） 和",
      "▁t he",
      "实际 上",
      "▁然而 ，",
      "▁ 同时，",
      "一 项",
      "为 “",
      "停 止",
      "区 的",
      "发 出",
      "后 来",
      "存 储",
      "成 立",
      "收 集",
      "敏 感",
      "是 什么",
      "更 为",
      "有 所",
      "股 票",
      "观 点",
      "规 律",
      "转 移",
      "逻 辑",
      "， 采用",
      "设计 的",
      "技术 。",
      "联合 国",
      "俱乐 部",
      "5 00",
      "p l",
      "上 述",
      "不 足",
      "也 可以",
      "交 换",
      "人 都",
      "办 法",
      "反 映",
      "发 挥",
      "合 物",
      "合 金",
      "处 。",
      "多 。",
      "大 鼠",
      "家 。",
      "异 常",
      "式 的",
      "明 确",
      "症 状",
      "给 了",
      "西 方",
      "预 防",
      "， 没有",
      "信息 。",
      "孩子 们",
      "▁因此 ，",
      "i b",
      "t h",
      "上 帝",
      "事 务",
      "代 理",
      "会 的",
      "修 改",
      "农 村",
      "土 壤",
      "大 型",
      "引 发",
      "很 难",
      "快 乐",
      "想 象",
      "我 在",
      "提 升",
      "更 新",
      "正 是",
      "混 凝",
      "燃 烧",
      "离 子",
      "称 ，",
      "衣 服",
      "进 展",
      "通 用",
      "高 兴",
      "高 级",
      "▁我 的",
      "分析 ，",
      "能力 。",
      "▁最 后，",
      "m s",
      "… …",
      "▁ 针对",
      "以 来，",
      "做 的",
      "全 面",
      "南 部",
      "发 育",
      "场 。",
      "女 人",
      "定 位",
      "开 展",
      "形 态",
      "毕 业",
      "爱 的",
      "的 问题。",
      "首 次",
      "， 比如",
      "▁这 一",
      "服务 。",
      "，不 过",
      "▁ 2",
      "▁ 3",
      "▁ （",
      "以 为",
      "保 障",
      "农 民",
      "图 片",
      "在 那",
      "好 地",
      "年 。",
      "文 档",
      "智 能",
      "本 身",
      "机 理",
      "森 林",
      "流 程",
      "电 池",
      "的 成",
      "的 方法。",
      "的 基本",
      "节 点",
      "让 你",
      "贡 献",
      "道 路",
      "显示 ，",
      "混凝 土",
      "% ，",
      "c e",
      "▁ 人",
      "▁ 马",
      "▁ ，",
      "▁ 首先",
      "丈 夫",
      "为 止",
      "事 。",
      "劳 动",
      "双 方",
      "各 个",
      "同 一",
      "在 这个",
      "坚 持",
      "完 整",
      "将 其",
      "工 厂",
      "报 》",
      "标 志",
      "检 验",
      "演 员",
      "留 下",
      "的 关键",
      "确 实",
      "话 。",
      "说 ：",
      "量 。",
      "题 。",
      "高 ，",
      "， 它们",
      "▁o f",
      "o d",
      "u t",
      "▁ 前",
      "▁ 所",
      "▁ 公司",
      "▁ 同时",
      "传 播",
      "出 来。",
      "吸 收",
      "和 他的",
      "四 个",
      "实 例",
      "强 调",
      "房 子",
      "振 动",
      "支 付",
      "是 不",
      "的 对",
      "的 心",
      "的 海",
      "研 制",
      "系 数",
      "缺 乏",
      "脂 肪",
      "苹 果",
      "起 了",
      "， 或",
      "， 被",
      "， 尤其",
      "使用 。",
      "产品 的",
      "一样 ，",
      "传统 的",
      "u p",
      "了 一些",
      "别 人",
      "听 到",
      "就 能",
      "损 失",
      "新 型",
      "明 白",
      "是 对",
      "百 万",
      "统 一",
      "美 丽",
      "证 据",
      "费 用",
      "追 求",
      "链 接",
      "鼓 励",
      "（ m",
      "， 且",
      "下 。",
      "二 十",
      "会 。",
      "传 感",
      "公 开",
      "典 型",
      "军 事",
      "分 配",
      "北 部",
      "原 子",
      "呈 现",
      "在 中国",
      "奥 运",
      "女 儿",
      "寻 求",
      "左 右",
      "当 时",
      "扫 描",
      "技 巧",
      "探 索",
      "树 脂",
      "样 的",
      "激 光",
      "燃 料",
      "的 经济",
      "耶 稣",
      "这 项",
      "都 要",
      "阐 述了",
      "预 计",
      "高 度",
      "， 更",
      "er s",
      "功能 。",
      "2 年",
      "专 门",
      "例 子",
      "名 称",
      "启 动",
      "和 平",
      "密 切",
      "希 腊",
      "拍 摄",
      "文 字",
      "最 好的",
      "来 源",
      "比 亚",
      "法 的",
      "电 压",
      "男 孩",
      "编 码",
      "考 察",
      "让 我",
      "途 径",
      "重 视",
      "阿 拉",
      "革 命",
      "， 就是",
      "，也 是",
      "要求 。",
      "变化 。",
      "之前 ，",
      "2 1",
      "i f",
      "o p",
      "o w",
      "以 色列",
      "先 进",
      "包 装",
      "压 缩",
      "名 。",
      "密 度",
      "层 的",
      "很 大",
      "很 少",
      "思 考",
      "投 入",
      "方 程",
      "施 工",
      "有 可能",
      "某 种",
      "现 场",
      "红 色",
      "纳 米",
      "考 试",
      "评 论",
      "这 次",
      "频 率",
      "高 于",
      "发展 。",
      "过程 中，",
      "▁s t",
      "因素 。",
      "▁w eb",
      "简单 的",
      "▁方法 ：",
      "消费 者",
      "2 7",
      "a ）",
      "▁ k",
      "▁ 两",
      "▁ 文章",
      "。 我",
      "中 央",
      "主 席",
      "发 射",
      "呼 吸",
      "回 顾",
      "学 的",
      "实 用",
      "对 此",
      "小 组",
      "强 烈",
      "房 间",
      "日 ，",
      "朝 鲜",
      "正 式",
      "消 失",
      "班 牙",
      "给 你",
      "网 上",
      "胜 利",
      "补 充",
      "西 班牙",
      "财 政",
      "选 举",
      "19 7",
      "0. 0",
      "▁ 然后",
      "不 起",
      "催 化",
      "利 益",
      "到 达",
      "对 照",
      "层 次",
      "常 常",
      "把 它",
      "数 值",
      "是 “",
      "消 除",
      "的 多",
      "看 着",
      "绿 色",
      "输 出",
      "通 知",
      "遗 传",
      "页 面",
      "， 主要",
      "▁我 想",
      "使用 的",
      "技术 的",
      "产品 。",
      "▁而 且",
      "▁结果 表明，",
      "方案 。",
      "2 6",
      "2 9",
      "e m",
      "i r",
      "▁ 下",
      "▁ 行",
      "▁ 事实",
      "一 条",
      "了 一种",
      "人 和",
      "住 在",
      "体 验",
      "债 务",
      "假 设",
      "前 景",
      "前 ，",
      "加 拿",
      "地 下",
      "基 督",
      "塑 料",
      "声 明",
      "头 。",
      "尺 寸",
      "情 绪",
      "意 。",
      "步 骤",
      "沉 积",
      "犯 罪",
      "的 好",
      "给 予",
      "返 回",
      "里 斯",
      "铁 路",
      "顾 客",
      "颗 粒",
      "▁此 外，",
      "2 3",
      "4 .",
      "▁ 没有",
      "▁ 所有",
      "▁ 除了",
      "》 的",
      "一 份",
      "一 定的",
      "上 去",
      "不 需要",
      "你 在",
      "克 斯",
      "军 队",
      "动 作",
      "协 会",
      "地 ，",
      "外 交",
      "大 利亚",
      "急 性",
      "批 评",
      "教 练",
      "月 份",
      "有 了",
      "澳 大利亚",
      "生 存",
      "的 一些",
      "盛 顿",
      "看 ，",
      "组 件",
      "绝 对",
      "维 护",
      "虚 拟",
      "见 。",
      "货 币",
      "质 的",
      "身 上",
      "辐 射",
      "过 的",
      "释 放",
      "， 由",
      "表明 ：",
      "地区 的",
      "▁研究 了",
      "9 0",
      "c om",
      "o t",
      "p c",
      "▁ 到",
      "▁ 近",
      "▁ 人们",
      "上 面",
      "了 ！",
      "传 输",
      "公 路",
      "刚 刚",
      "华 盛顿",
      "协 调",
      "响 应",
      "学 会",
      "心 的",
      "成 果",
      "是 我",
      "晚 上",
      "有 点",
      "流 动",
      "漂 亮",
      "物 ，",
      "生 。",
      "精 度",
      "罗 马",
      "覆 盖",
      "谷 歌",
      "边 界",
      "还 要",
      "进 了",
      "进 口",
      "进 程",
      "阳 光",
      "预 期",
      "方法 ，",
      "工作 的",
      "▁本 发明",
      "认为 ，",
      "▁你 们",
      "情况 。",
      "▁但是 ，",
      "▁最 后",
      "▁ 使用",
      "▁ 第一",
      "▁ 第三",
      "中 间",
      "主 题",
      "事 业",
      "公 布",
      "共 和",
      "列 表",
      "判 断",
      "制 定",
      "匹 配",
      "医 学",
      "发 言",
      "商 务",
      "在 线",
      "学 者",
      "家 的",
      "应 力",
      "所 在",
      "推 广",
      "故 障",
      "文 本",
      "替 代",
      "最 高",
      "有 趣",
      "有 助于",
      "武 器",
      "的 热",
      "的 国家",
      "目 录",
      "致 力",
      "良 好",
      "观 众",
      "道 德",
      "重 大",
      "，我 的",
      "如果 你",
      "情况 下",
      "投资 者",
      "广泛 的",
      "依据 。",
      "c d",
      "e c",
      "▁ 可以",
      "不 想",
      "享 受",
      "以 后",
      "伊 拉克",
      "位 的",
      "作 业",
      "作 出",
      "出 生",
      "利 的",
      "力 和",
      "在 此",
      "对 比",
      "州 的",
      "很 好的",
      "我 。",
      "所 谓",
      "接 收",
      "有 机",
      "杰 克",
      "点 的",
      "的 日",
      "穿 着",
      "经 典",
      "缺 陷",
      "获 取",
      "袭 击",
      "起 来，",
      "部 队",
      "， 他的",
      "， 还有",
      "政府 的",
      "的是 ，",
      "es s",
      "t er",
      "▁ 于是",
      "、 高",
      "人 工",
      "体 内",
      "加 速",
      "同 意",
      "咨 询",
      "国 的",
      "妻 子",
      "强 的",
      "所 需",
      "机 。",
      "查 询",
      "模 块",
      "爱 情",
      "痛 苦",
      "移 民",
      "立 法",
      "类 的",
      "里 面",
      "长 。",
      "提供 的",
      "发生 的",
      "选择 。",
      "材料 的",
      "不 久",
      "互 联",
      "产 量",
      "伙 伴",
      "保 存",
      "关 节",
      "冲 击",
      "前 的",
      "发 电",
      "变 的",
      "同 步",
      "名 为",
      "哲 学",
      "天 的",
      "字 符",
      "带 着",
      "带 来的",
      "开 关",
      "引 擎",
      "弹 性",
      "很 大的",
      "律 师",
      "推 动",
      "有 什么",
      "期 待",
      "某 个",
      "标 记",
      "注 射",
      "理 念",
      "理 由",
      "糖 尿",
      "维 持",
      "肌 肉",
      "色 。",
      "财 务",
      "， 您",
      "， 例如",
      "结构 。",
      "重要 。",
      "组织 的",
      "▁不 要",
      "▁通过 对",
      "▁目的： 探讨",
      "独特 的",
      "3 5",
      "o c",
      "▁ 它们",
      "▁ 英国",
      "为 基础",
      "你 可以",
      "倾 向",
      "做 了",
      "出 现在",
      "卫 星",
      "回 归",
      "垃 圾",
      "外 部",
      "头 ，",
      "婚 姻",
      "官 方",
      "家 里",
      "局 部",
      "巨 大",
      "干 扰",
      "平 面",
      "想 法",
      "打 算",
      "掌 握",
      "排 放",
      "提 示",
      "旋 转",
      "时 刻",
      "是 指",
      "是 中国",
      "本 质",
      "标 签",
      "每 一个",
      "清 单",
      "清 晰",
      "电 流",
      "病 的",
      "百 分",
      "的 三",
      "相 反",
      "自 行",
      "表 演",
      "被 称为",
      "谈 判",
      "赢 得",
      "转 化",
      "进 步",
      "集 成",
      "， 只",
      "， 都",
      "， 直到",
      "美国 的",
      "▁我们 的",
      "▁你 可以",
      "发现 了",
      "产生 了",
      "运动 员",
      "实验 室",
      "7 0",
      "8 .",
      "p s",
      "u l",
      "▁ 0",
      "▁ 克",
      "从 未",
      "他 。",
      "住 宅",
      "作 了",
      "全 世界",
      "内 ，",
      "出 发",
      "利 于",
      "剂 。",
      "变 量",
      "在 这里",
      "大 小",
      "大 脑",
      "婴 儿",
      "家 族",
      "就 业",
      "工 人",
      "扩 大",
      "接 着",
      "收 益",
      "无 线",
      "模 糊",
      "水 。",
      "注 册",
      "深 刻",
      "清 洗",
      "潜 在",
      "爆 炸",
      "硬 件",
      "精 确",
      "紧 张",
      "而 不",
      "见 到",
      "认 知",
      "论 述",
      "财 富",
      "超 级",
      "还 在",
      "阻 止",
      "非 线性",
      "预 算",
      "： 我",
      "时间 。",
      "模型 的",
      "学生 的",
      "美元 。",
      "方式 。",
      "活动 。",
      "内容 。",
      "类型 的",
      "措施 。",
      "0年 代",
      "丰富 的",
      "2 2",
      "7 5",
      "h t",
      "p h",
      "▁ 多",
      "▁ 把",
      "▁ 海",
      "一 段",
      "不 在",
      "不 错",
      "作 家",
      "依 然",
      "信 用",
      "公 众",
      "关 闭",
      "兴 奋",
      "冠 军",
      "化 、",
      "区 别",
      "十 二",
      "取 消",
      "品 。",
      "品 的",
      "头 发",
      "实 时",
      "对 手",
      "序 列",
      "心 脏",
      "总 体",
      "批 准",
      "收 到",
      "水 的",
      "治 理",
      "的 临床",
      "移 植",
      "立 即",
      "终 于",
      "血 压",
      "行 。",
      "西 部",
      "说 的",
      "达 成",
      "适 当",
      "选 项",
      "配 合",
      "随 机",
      "面 向",
      "（ s",
      "， 则",
      "， 无",
      "， 美国",
      "， 对于",
      "， 人们",
      "， 提出",
      "， 特别是",
      "，就 像",
      "的地方 。",
      "取得 了",
      "联系 。",
      "真正 的",
      "致力 于",
      "▁ (",
      "▁ 由",
      "▁ 应用",
      "▁ re",
      "▁ 无论",
      "一 年",
      "下 了",
      "中 所",
      "中 最",
      "切 尔",
      "好 像",
      "宇 宙",
      "家 ，",
      "寿 命",
      "已 成为",
      "恐 怖",
      "承 担",
      "担 任",
      "收 购",
      "数 。",
      "整 合",
      "是 有",
      "欧 元",
      "浓 度",
      "清 洁",
      "现 有",
      "的 光",
      "约 束",
      "细 节",
      "结 婚",
      "血 清",
      "边 的",
      "采 访",
      "韩 国",
      "首 席",
      "（ c",
      "可以 通过",
      "工作 ，",
      "探讨 了",
      "大学 的",
      "支持 。",
      "状态 。",
      "” 、",
      "▁ 还有",
      "不 良",
      "人 才",
      "传 递",
      "关 联",
      "制 成",
      "剂 的",
      "地 面",
      "埃 及",
      "尔 斯",
      "巴 西",
      "技 能",
      "护 理",
      "损 害",
      "接 口",
      "数 的",
      "日 益",
      "本 书",
      "本 地",
      "欧 盟",
      "毫 无",
      "环 保",
      "疫 苗",
      "疼 痛",
      "的 《",
      "的 可",
      "监 控",
      "监 督",
      "纪 录",
      "者 们",
      "脉 冲",
      "记 得",
      "证 券",
      "证 实",
      "走 向",
      "阿 尔",
      "高 效",
      "！ ”",
      "， 像",
      "， 提高",
      "发展 ，",
      "的人 们",
      "in d",
      "治疗 。",
      "程度 上",
      "机器 人",
      "图书 馆",
      "3 00",
      "s e",
      "▁ 5",
      "▁ 年",
      "▁ 文",
      "▁ 无",
      "▁ 一些",
      "下 一",
      "为 主",
      "他 人",
      "代 谢",
      "低 于",
      "共 享",
      "其 实",
      "分 解",
      "取 代",
      "和 “",
      "商 店",
      "学 科",
      "对 方",
      "少 年",
      "常 规",
      "建 造",
      "必 然",
      "忽 视",
      "怀 疑",
      "探 测",
      "日 常",
      "是 如何",
      "有 多",
      "橡 胶",
      "的 后",
      "的 作用",
      "禁 止",
      "站 在",
      "等 方面",
      "线 。",
      "线 的",
      "联 盟",
      "足 球",
      "转 变",
      "轻 松",
      "部 长",
      "都 可以",
      "里 有",
      "重 复",
      "饮 食",
      "， 再",
      "， 因",
      "美国 人",
      "200 8年",
      "发现 ，",
      "▁当 你",
      "进行了 研究。",
      "一样 。",
      "▁t o",
      "目标 。",
      "-- -",
      "▁结果 ：",
      "条件 。",
      "▁有 些",
      "复杂 的",
      "机会 。",
      "报道 ，",
      "，即 使",
      "互联 网",
      "3 1",
      "q u",
      "v er",
      "▁ 布",
      "▁ 很多",
      "▁ 提出了",
      "三 种",
      "严 格",
      "争 议",
      "事 故",
      "从 事",
      "优 秀",
      "但 是",
      "体 现",
      "你 。",
      "保 留",
      "内 存",
      "出 去",
      "别 的",
      "动 。",
      "句 话",
      "合 适",
      "基 地",
      "墨 西",
      "大 大",
      "姆 斯",
      "导 弹",
      "属 性",
      "平 方",
      "并 非",
      "应 对",
      "情 感",
      "感 兴趣",
      "手 ，",
      "指 定",
      "明 的",
      "是 ，",
      "显 得",
      "演 讲",
      "激 素",
      "熟 悉",
      "生 素",
      "电 力",
      "的 两",
      "的 确",
      "的 角度",
      "聚 集",
      "至 于",
      "色 彩",
      "英 文",
      "血 液",
      "行 的",
      "警 告",
      "调 用",
      "超 声",
      "路 。",
      "车 辆",
      "还 没有",
      "这 类",
      "都 不",
      "顾 问",
      "马 克",
      "黑 暗",
      "， 两",
      "， 能",
      "▁在 此",
      "▁这 项",
      "公司 。",
      "的人 ，",
      "的一 项",
      "生活 的",
      "明显 的",
      "意识 到",
      "糖尿 病",
      "- 1",
      "6 .",
      "▁ 也",
      "▁ 水",
      "▁ 许多",
      "一 块",
      "一 天",
      "上 下",
      "不 可能",
      "人 物",
      "人 群",
      "件 事",
      "体 外",
      "修 复",
      "克 的",
      "公 民",
      "写 作",
      "分 享",
      "发 送",
      "同 事",
      "因 子",
      "士 兵",
      "复 制",
      "夏 天",
      "度 、",
      "战 斗",
      "投 票",
      "拉 斯",
      "期 望",
      "权 。",
      "气 体",
      "淋 巴",
      "的 天",
      "的 结果",
      "的 学生",
      "相 结合",
      "着 。",
      "种 植",
      "联 赛",
      "营 销",
      "著 名",
      "著 名的",
      "董 事",
      "行 政",
      "被 认为",
      "谢 谢",
      "车 。",
      "运 作",
      "还 可以",
      "进 球",
      "零 售",
      "） 、",
      "这样 做",
      "on e",
      "获得 了",
      "性能 。",
      "成功 的",
      "is t",
      "特征 。",
      "建议 。",
      "人民 币",
      "国内 外",
      "加拿 大",
      "墨西 哥",
      "2 8",
      "i a",
      "k e",
      "u b",
      "u m",
      "v e",
      "▁ 图",
      "一 场",
      "下 午",
      "不 用",
      "中 学",
      "中 有",
      "产 物",
      "以 上",
      "会 上",
      "例 。",
      "初 步",
      "化 ，",
      "博 客",
      "参 观",
      "器 ，",
      "地 质",
      "大 规模",
      "女 士",
      "它 。",
      "实 在",
      "密 码",
      "对 我",
      "引 导",
      "引 用",
      "得 以",
      "性 别",
      "想 到",
      "摩 擦",
      "支 撑",
      "显 然",
      "未 来的",
      "法 院",
      "海 岸",
      "男 子",
      "癌 症",
      "的 美",
      "的 环境",
      "种 子",
      "细 菌",
      "而 且",
      "英 尺",
      "补 偿",
      "观 念",
      "议 员",
      "较 好的",
      "运 营",
      "适 用",
      "通 道",
      "道 ：“",
      "阐 述",
      "防 治",
      "静 脉",
      "（ d",
      "， 此",
      "设计 。",
      "▁“ 我",
      "存在 着",
      "ar t",
      "是一 家",
      "实现 了",
      "行为 。",
      "领导 人",
      "▁x ml",
      "阿拉 伯",
      "1 年",
      "c l",
      "i e",
      "u d",
      "▁ y",
      "▁ 加",
      "▁ 卡",
      "▁ 巴",
      "▁ 即使",
      "以 后，",
      "兄 弟",
      "内 。",
      "出 一",
      "分 散",
      "力 学",
      "力 ，",
      "功 率",
      "加 热",
      "受 伤",
      "国 王",
      "宣 传",
      "小 鼠",
      "尔 ·",
      "度 和",
      "引 入",
      "感 。",
      "成 绩",
      "斯 科",
      "明 天",
      "梦 想",
      "民 间",
      "流 量",
      "海 洋",
      "灵 活",
      "电 站",
      "的 书",
      "的 家",
      "的 世界",
      "的 发生",
      "的 比赛",
      "看 到了",
      "矛 盾",
      "突 出",
      "舒 适",
      "花 园",
      "花 费",
      "记 住",
      "读 者",
      "购 物",
      "边 缘",
      "过 滤",
      "都 能",
      "重 的",
      "重 量",
      "钱 。",
      "， 多",
      "， 来",
      "， 给",
      "， 研究",
      "一个 人",
      "▁这 就是",
      "方法 的",
      "，并 在"
    ]
  }
}