{
  "version": "1.0",
  "truncation": {
    "direction": "Right",
    "max_length": 64,
    "strategy": "LongestFirst",
    "stride": 0
  },
  "padding": {
    "strategy": {
      "Fixed": 64
    },
    "direction": "Right",
    "pad_to_multiple_of": null,
    "pad_id": 3,
    "pad_type_id": 0,
    "pad_token": "[PAD]"
  },
  "added_tokens": [
    {
      "id": 0,
      "content": "[UNK]",
      "single_word": false,
      "lstrip": false,
      "rstrip": false,
      "normalized": false,
      "special": true
    },
    {
      "id": 1,
      "content": "[BOS]",
      "single_word": false,
      "lstrip": false,
      "rstrip": false,
      "normalized": false,
      "special": true
    },
    {
      "id": 2,
      "content": "[EOS]",
      "single_word": false,
      "lstrip": false,
      "rstrip": false,
      "normalized": false,
      "special": true
    },
    {
      "id": 3,
      "content": "[PAD]",
      "single_word": false,
      "lstrip": false,
      "rstrip": false,
      "normalized": false,
      "special": true
    }
  ],
  "normalizer": {
    "type": "Sequence",
    "normalizers": [
      {
        "type": "NFD"
      },
      {
        "type": "Lowercase"
      },
      {
        "type": "StripAccents"
      }
    ]
  },
  "pre_tokenizer": {
    "type": "Whitespace"
  },
  "post_processor": {
    "type": "TemplateProcessing",
    "single": [
      {
        "SpecialToken": {
          "id": "[BOS]",
          "type_id": 0
        }
      },
      {
        "Sequence": {
          "id": "A",
          "type_id": 0
        }
      },
      {
        "SpecialToken": {
          "id": "[EOS]",
          "type_id": 0
        }
      }
    ],
    "pair": [
      {
        "Sequence": {
          "id": "A",
          "type_id": 0
        }
      },
      {
        "Sequence": {
          "id": "B",
          "type_id": 1
        }
      }
    ],
    "special_tokens": {
      "[BOS]": {
        "id": "[BOS]",
        "ids": [
          1
        ],
        "tokens": [
          "[BOS]"
        ]
      },
      "[EOS]": {
        "id": "[EOS]",
        "ids": [
          2
        ],
        "tokens": [
          "[EOS]"
        ]
      },
      "[PAD]": {
        "id": "[PAD]",
        "ids": [
          3
        ],
        "tokens": [
          "[PAD]"
        ]
      }
    }
  },
  "decoder": {
    "type": "BPEDecoder",
    "suffix": "</w>"
  },
  "model": {
    "type": "BPE",
    "dropout": null,
    "unk_token": "[UNK]",
    "continuing_subword_prefix": null,
    "end_of_word_suffix": null,
    "fuse_unk": false,
    "byte_fallback": false,
    "vocab": {
      "[UNK]": 0,
      "[BOS]": 1,
      "[EOS]": 2,
      "[PAD]": 3,
      "!": 4,
      "\"": 5,
      "#": 6,
      "$": 7,
      "%": 8,
      "&": 9,
      "'": 10,
      "(": 11,
      ")": 12,
      "*": 13,
      "+": 14,
      ",": 15,
      "-": 16,
      ".": 17,
      "/": 18,
      "0": 19,
      "1": 20,
      "2": 21,
      "3": 22,
      "4": 23,
      "5": 24,
      "6": 25,
      "7": 26,
      "8": 27,
      "9": 28,
      ":": 29,
      ";": 30,
      "<": 31,
      "=": 32,
      ">": 33,
      "?": 34,
      "@": 35,
      "[": 36,
      "\\": 37,
      "]": 38,
      "^": 39,
      "_": 40,
      "`": 41,
      "a": 42,
      "b": 43,
      "c": 44,
      "d": 45,
      "e": 46,
      "f": 47,
      "g": 48,
      "h": 49,
      "i": 50,
      "j": 51,
      "k": 52,
      "l": 53,
      "m": 54,
      "n": 55,
      "o": 56,
      "p": 57,
      "q": 58,
      "r": 59,
      "s": 60,
      "t": 61,
      "u": 62,
      "v": 63,
      "w": 64,
      "x": 65,
      "y": 66,
      "z": 67,
      "{": 68,
      "|": 69,
      "}": 70,
      "~": 71,
      "§": 72,
      "µ": 73,
      "·": 74,
      "¹": 75,
      "»": 76,
      "˙": 77,
      "α": 78,
      "β": 79,
      "γ": 80,
      "δ": 81,
      "ψ": 82,
      "ω": 83,
      "​": 84,
      "–": 85,
      "—": 86,
      "―": 87,
      "‘": 88,
      "’": 89,
      "“": 90,
      "”": 91,
      "•": 92,
      "…": 93,
      "‧": 94,
      "′": 95,
      "℃": 96,
      "→": 97,
      "∙": 98,
      "∶": 99,
      "⊙": 100,
      "①": 101,
      "②": 102,
      "③": 103,
      "⑦": 104,
      "⑺": 105,
      "─": 106,
      "□": 107,
      "▪": 108,
      "△": 109,
      "▽": 110,
      "○": 111,
      "◎": 112,
      "●": 113,
      "★": 114,
      "☆": 115,
      "、": 116,
      "。": 117,
      "〈": 118,
      "〉": 119,
      "《": 120,
      "》": 121,
      "「": 122,
      "」": 123,
      "『": 124,
      "』": 125,
      "【": 126,
      "】": 127,
      "〝": 128,
      "〞": 129,
      "・": 130,
      "䠐": 131,
      "一": 132,
      "丁": 133,
      "七": 134,
      "万": 135,
      "丈": 136,
      "三": 137,
      "上": 138,
      "下": 139,
      "丌": 140,
      "不": 141,
      "与": 142,
      "丐": 143,
      "丑": 144,
      "专": 145,
      "且": 146,
      "世": 147,
      "丘": 148,
      "丙": 149,
      "业": 150,
      "丛": 151,
      "东": 152,
      "丝": 153,
      "丢": 154,
      "两": 155,
      "严": 156,
      "丧": 157,
      "个": 158,
      "丫": 159,
      "中": 160,
      "丰": 161,
      "串": 162,
      "临": 163,
      "丶": 164,
      "丸": 165,
      "丹": 166,
      "为": 167,
      "主": 168,
      "丽": 169,
      "举": 170,
      "乃": 171,
      "久": 172,
      "么": 173,
      "义": 174,
      "之": 175,
      "乌": 176,
      "乍": 177,
      "乎": 178,
      "乏": 179,
      "乐": 180,
      "乒": 181,
      "乓": 182,
      "乔": 183,
      "乖": 184,
      "乘": 185,
      "乙": 186,
      "乜": 187,
      "九": 188,
      "乞": 189,
      "也": 190,
      "习": 191,
      "乡": 192,
      "书": 193,
      "买": 194,
      "乱": 195,
      "乳": 196,
      "乾": 197,
      "了": 198,
      "予": 199,
      "争": 200,
      "事": 201,
      "二": 202,
      "于": 203,
      "亏": 204,
      "云": 205,
      "互": 206,
      "五": 207,
      "井": 208,
      "亘": 209,
      "亚": 210,
      "些": 211,
      "亟": 212,
      "亡": 213,
      "亢": 214,
      "交": 215,
      "亥": 216,
      "亦": 217,
      "产": 218,
      "亨": 219,
      "亩": 220,
      "享": 221,
      "京": 222,
      "亭": 223,
      "亮": 224,
      "亲": 225,
      "亳": 226,
      "亵": 227,
      "人": 228,
      "亿": 229,
      "什": 230,
      "仁": 231,
      "仃": 232,
      "仄": 233,
      "仅": 234,
      "仆": 235,
      "仇": 236,
      "今": 237,
      "介": 238,
      "仍": 239,
      "从": 240,
      "仑": 241,
      "仓": 242,
      "仔": 243,
      "仕": 244,
      "他": 245,
      "仗": 246,
      "付": 247,
      "仙": 248,
      "仟": 249,
      "代": 250,
      "令": 251,
      "以": 252,
      "仪": 253,
      "仫": 254,
      "们": 255,
      "仰": 256,
      "仲": 257,
      "件": 258,
      "价": 259,
      "任": 260,
      "份": 261,
      "仿": 262,
      "企": 263,
      "伉": 264,
      "伊": 265,
      "伍": 266,
      "伎": 267,
      "伏": 268,
      "伐": 269,
      "休": 270,
      "众": 271,
      "优": 272,
      "伙": 273,
      "会": 274,
      "伛": 275,
      "伞": 276,
      "伟": 277,
      "传": 278,
      "伤": 279,
      "伦": 280,
      "伪": 281,
      "伯": 282,
      "估": 283,
      "伱": 284,
      "伴": 285,
      "伶": 286,
      "伸": 287,
      "伺": 288,
      "似": 289,
      "伽": 290,
      "但": 291,
      "位": 292,
      "低": 293,
      "住": 294,
      "佐": 295,
      "佑": 296,
      "体": 297,
      "佔": 298,
      "何": 299,
      "余": 300,
      "佛": 301,
      "作": 302,
      "你": 303,
      "佢": 304,
      "佣": 305,
      "佩": 306,
      "佬": 307,
      "佯": 308,
      "佳": 309,
      "使": 310,
      "侃": 311,
      "侄": 312,
      "來": 313,
      "侈": 314,
      "例": 315,
      "侍": 316,
      "侏": 317,
      "侑": 318,
      "供": 319,
      "依": 320,
      "侠": 321,
      "侣": 322,
      "侥": 323,
      "侦": 324,
      "侧": 325,
      "侨": 326,
      "侬": 327,
      "侮": 328,
      "侯": 329,
      "侵": 330,
      "便": 331,
      "促": 332,
      "俄": 333,
      "俊": 334,
      "俏": 335,
      "俐": 336,
      "俑": 337,
      "俗": 338,
      "俘": 339,
      "俚": 340,
      "保": 341,
      "俞": 342,
      "俟": 343,
      "信": 344,
      "俦": 345,
      "俨": 346,
      "俩": 347,
      "俪": 348,
      "俭": 349,
      "修": 350,
      "俯": 351,
      "俱": 352,
      "俳": 353,
      "俶": 354,
      "俸": 355,
      "俺": 356,
      "俾": 357,
      "倌": 358,
      "倍": 359,
      "倏": 360,
      "倒": 361,
      "倓": 362,
      "倔": 363,
      "倘": 364,
      "候": 365,
      "倚": 366,
      "借": 367,
      "倡": 368,
      "倦": 369,
      "倩": 370,
      "倪": 371,
      "倭": 372,
      "倶": 373,
      "债": 374,
      "值": 375,
      "倾": 376,
      "假": 377,
      "偎": 378,
      "偏": 379,
      "偕": 380,
      "做": 381,
      "停": 382,
      "健": 383,
      "偶": 384,
      "偷": 385,
      "偻": 386,
      "偾": 387,
      "偿": 388,
      "傀": 389,
      "傅": 390,
      "傈": 391,
      "傍": 392,
      "傢": 393,
      "傣": 394,
      "储": 395,
      "傩": 396,
      "催": 397,
      "傲": 398,
      "傻": 399,
      "像": 400,
      "僚": 401,
      "僧": 402,
      "僮": 403,
      "僳": 404,
      "僵": 405,
      "僻": 406,
      "儆": 407,
      "儒": 408,
      "儡": 409,
      "儿": 410,
      "兀": 411,
      "允": 412,
      "元": 413,
      "兄": 414,
      "充": 415,
      "兆": 416,
      "先": 417,
      "光": 418,
      "克": 419,
      "免": 420,
      "兑": 421,
      "兔": 422,
      "党": 423,
      "兜": 424,
      "兢": 425,
      "入": 426,
      "全": 427,
      "兩": 428,
      "八": 429,
      "公": 430,
      "六": 431,
      "兮": 432,
      "兰": 433,
      "共": 434,
      "兲": 435,
      "关": 436,
      "兴": 437,
      "兵": 438,
      "其": 439,
      "具": 440,
      "典": 441,
      "兹": 442,
      "养": 443,
      "兼": 444,
      "兽": 445,
      "冀": 446,
      "内": 447,
      "冈": 448,
      "冉": 449,
      "册": 450,
      "再": 451,
      "冒": 452,
      "冕": 453,
      "冗": 454,
      "写": 455,
      "军": 456,
      "农": 457,
      "冠": 458,
      "冢": 459,
      "冤": 460,
      "冥": 461,
      "冬": 462,
      "冯": 463,
      "冰": 464,
      "冲": 465,
      "决": 466,
      "况": 467,
      "冶": 468,
      "冷": 469,
      "冸": 470,
      "冻": 471,
      "冼": 472,
      "净": 473,
      "凄": 474,
      "准": 475,
      "凇": 476,
      "凉": 477,
      "凋": 478,
      "凌": 479,
      "减": 480,
      "凑": 481,
      "凖": 482,
      "凛": 483,
      "凝": 484,
      "几": 485,
      "凡": 486,
      "凤": 487,
      "凭": 488,
      "凯": 489,
      "凰": 490,
      "凳": 491,
      "凶": 492,
      "凸": 493,
      "凹": 494,
      "出": 495,
      "击": 496,
      "凼": 497,
      "函": 498,
      "凿": 499,
      "刀": 500,
      "刁": 501,
      "刃": 502,
      "分": 503,
      "切": 504,
      "刈": 505,
      "刊": 506,
      "刍": 507,
      "刑": 508,
      "划": 509,
      "列": 510,
      "刘": 511,
      "则": 512,
      "刚": 513,
      "创": 514,
      "初": 515,
      "删": 516,
      "判": 517,
      "刨": 518,
      "利": 519,
      "别": 520,
      "刮": 521,
      "到": 522,
      "制": 523,
      "刷": 524,
      "券": 525,
      "刹": 526,
      "刺": 527,
      "刻": 528,
      "刽": 529,
      "剁": 530,
      "剂": 531,
      "剃": 532,
      "削": 533,
      "前": 534,
      "剐": 535,
      "剑": 536,
      "剔": 537,
      "剖": 538,
      "剤": 539,
      "剥": 540,
      "剧": 541,
      "剩": 542,
      "剪": 543,
      "副": 544,
      "割": 545,
      "剽": 546,
      "劈": 547,
      "力": 548,
      "劝": 549,
      "办": 550,
      "功": 551,
      "加": 552,
      "务": 553,
      "劣": 554,
      "动": 555,
      "助": 556,
      "努": 557,
      "劫": 558,
      "励": 559,
      "劲": 560,
      "劳": 561,
      "劾": 562,
      "势": 563,
      "勃": 564,
      "勇": 565,
      "勉": 566,
      "勋": 567,
      "勐": 568,
      "勒": 569,
      "勘": 570,
      "募": 571,
      "勤": 572,
      "勰": 573,
      "勺": 574,
      "勾": 575,
      "勿": 576,
      "匀": 577,
      "包": 578,
      "匆": 579,
      "匈": 580,
      "匍": 581,
      "匐": 582,
      "匕": 583,
      "化": 584,
      "北": 585,
      "匙": 586,
      "匠": 587,
      "匡": 588,
      "匣": 589,
      "匪": 590,
      "匮": 591,
      "匹": 592,
      "区": 593,
      "医": 594,
      "匾": 595,
      "匿": 596,
      "十": 597,
      "千": 598,
      "卅": 599,
      "升": 600,
      "午": 601,
      "卉": 602,
      "半": 603,
      "卍": 604,
      "华": 605,
      "协": 606,
      "卑": 607,
      "卒": 608,
      "卓": 609,
      "单": 610,
      "卖": 611,
      "南": 612,
      "博": 613,
      "卜": 614,
      "卞": 615,
      "卟": 616,
      "占": 617,
      "卡": 618,
      "卢": 619,
      "卤": 620,
      "卦": 621,
      "卧": 622,
      "卫": 623,
      "卮": 624,
      "印": 625,
      "危": 626,
      "即": 627,
      "却": 628,
      "卵": 629,
      "卷": 630,
      "卸": 631,
      "卿": 632,
      "厂": 633,
      "厄": 634,
      "厅": 635,
      "历": 636,
      "厉": 637,
      "压": 638,
      "厌": 639,
      "厕": 640,
      "厘": 641,
      "厚": 642,
      "原": 643,
      "厡": 644,
      "厢": 645,
      "厥": 646,
      "厦": 647,
      "厨": 648,
      "厩": 649,
      "厮": 650,
      "去": 651,
      "县": 652,
      "叁": 653,
      "参": 654,
      "參": 655,
      "又": 656,
      "叉": 657,
      "及": 658,
      "友": 659,
      "双": 660,
      "反": 661,
      "发": 662,
      "叔": 663,
      "取": 664,
      "受": 665,
      "变": 666,
      "叙": 667,
      "叛": 668,
      "叟": 669,
      "叠": 670,
      "口": 671,
      "古": 672,
      "句": 673,
      "另": 674,
      "叨": 675,
      "叩": 676,
      "只": 677,
      "叫": 678,
      "召": 679,
      "叭": 680,
      "叮": 681,
      "可": 682,
      "台": 683,
      "叱": 684,
      "史": 685,
      "右": 686,
      "叶": 687,
      "号": 688,
      "司": 689,
      "叹": 690,
      "叻": 691,
      "叼": 692,
      "叽": 693,
      "吁": 694,
      "吃": 695,
      "各": 696,
      "合": 697,
      "吉": 698,
      "吊": 699,
      "吋": 700,
      "同": 701,
      "名": 702,
      "后": 703,
      "吏": 704,
      "吐": 705,
      "向": 706,
      "吓": 707,
      "吕": 708,
      "吗": 709,
      "君": 710,
      "吝": 711,
      "吞": 712,
      "吟": 713,
      "吠": 714,
      "吡": 715,
      "否": 716,
      "吧": 717,
      "吨": 718,
      "吩": 719,
      "含": 720,
      "听": 721,
      "吭": 722,
      "吮": 723,
      "启": 724,
      "吱": 725,
      "吲": 726,
      "吴": 727,
      "吵": 728,
      "吸": 729,
      "吹": 730,
      "吻": 731,
      "吼": 732,
      "吽": 733,
      "吾": 734,
      "呀": 735,
      "呃": 736,
      "呆": 737,
      "呈": 738,
      "告": 739,
      "呋": 740,
      "呎": 741,
      "呐": 742,
      "呓": 743,
      "呕": 744,
      "呗": 745,
      "员": 746,
      "呛": 747,
      "呜": 748,
      "呢": 749,
      "呤": 750,
      "呦": 751,
      "周": 752,
      "呯": 753,
      "呱": 754,
      "味": 755,
      "呵": 756,
      "呸": 757,
      "呼": 758,
      "命": 759,
      "咀": 760,
      "咁": 761,
      "咂": 762,
      "咄": 763,
      "咆": 764,
      "咋": 765,
      "和": 766,
      "咎": 767,
      "咏": 768,
      "咐": 769,
      "咒": 770,
      "咔": 771,
      "咕": 772,
      "咖": 773,
      "咙": 774,
      "咚": 775,
      "咜": 776,
      "咝": 777,
      "咤": 778,
      "咦": 779,
      "咧": 780,
      "咨": 781,
      "咩": 782,
      "咪": 783,
      "咫": 784,
      "咬": 785,
      "咯": 786,
      "咱": 787,
      "咳": 788,
      "咸": 789,
      "咻": 790,
      "咽": 791,
      "咿": 792,
      "哀": 793,
      "品": 794,
      "哄": 795,
      "哆": 796,
      "哇": 797,
      "哈": 798,
      "哉": 799,
      "哋": 800,
      "哌": 801,
      "响": 802,
      "哎": 803,
      "哑": 804,
      "哒": 805,
      "哔": 806,
      "哗": 807,
      "哚": 808,
      "哝": 809,
      "哞": 810,
      "哟": 811,
      "哥": 812,
      "哦": 813,
      "哧": 814,
      "哨": 815,
      "哩": 816,
      "哪": 817,
      "哭": 818,
      "哮": 819,
      "哲": 820,
      "哺": 821,
      "哼": 822,
      "唁": 823,
      "唆": 824,
      "唇": 825,
      "唉": 826,
      "唏": 827,
      "唐": 828,
      "唑": 829,
      "唔": 830,
      "唛": 831,
      "唠": 832,
      "唤": 833,
      "唧": 834,
      "售": 835,
      "唯": 836,
      "唱": 837,
      "唵": 838,
      "唾": 839,
      "啁": 840,
      "啃": 841,
      "啄": 842,
      "商": 843,
      "啉": 844,
      "啊": 845,
      "啜": 846,
      "啝": 847,
      "啡": 848,
      "啤": 849,
      "啥": 850,
      "啦": 851,
      "啧": 852,
      "啬": 853,
      "啮": 854,
      "啰": 855,
      "啲": 856,
      "啵": 857,
      "啶": 858,
      "啸": 859,
      "啼": 860,
      "啾": 861,
      "喀": 862,
      "喂": 863,
      "喃": 864,
      "善": 865,
      "喇": 866,
      "喉": 867,
      "喊": 868,
      "喋": 869,
      "喑": 870,
      "喔": 871,
      "喘": 872,
      "喙": 873,
      "喜": 874,
      "喝": 875,
      "喧": 876,
      "喱": 877,
      "喵": 878,
      "喷": 879,
      "喹": 880,
      "喺": 881,
      "喻": 882,
      "喽": 883,
      "嗅": 884,
      "嗑": 885,
      "嗒": 886,
      "嗓": 887,
      "嗔": 888,
      "嗖": 889,
      "嗜": 890,
      "嗝": 891,
      "嗡": 892,
      "嗣": 893,
      "嗤": 894,
      "嗥": 895,
      "嗦": 896,
      "嗨": 897,
      "嗪": 898,
      "嗬": 899,
      "嗯": 900,
      "嗰": 901,
      "嗳": 902,
      "嗽": 903,
      "嘀": 904,
      "嘅": 905,
      "嘈": 906,
      "嘉": 907,
      "嘌": 908,
      "嘎": 909,
      "嘘": 910,
      "嘛": 911,
      "嘞": 912,
      "嘟": 913,
      "嘦": 914,
      "嘧": 915,
      "嘱": 916,
      "嘲": 917,
      "嘴": 918,
      "嘶": 919,
      "嘻": 920,
      "嘿": 921,
      "噌": 922,
      "噎": 923,
      "噔": 924,
      "噗": 925,
      "噙": 926,
      "噜": 927,
      "噢": 928,
      "噤": 929,
      "器": 930,
      "噩": 931,
      "噪": 932,
      "噬": 933,
      "噱": 934,
      "噻": 935,
      "嚎": 936,
      "嚟": 937,
      "嚣": 938,
      "嚷": 939,
      "嚼": 940,
      "囊": 941,
      "囔": 942,
      "囚": 943,
      "四": 944,
      "回": 945,
      "因": 946,
      "囡": 947,
      "团": 948,
      "囤": 949,
      "园": 950,
      "困": 951,
      "囱": 952,
      "围": 953,
      "囹": 954,
      "固": 955,
      "国": 956,
      "图": 957,
      "囿": 958,
      "圃": 959,
      "圆": 960,
      "圈": 961,
      "圜": 962,
      "土": 963,
      "圣": 964,
      "在": 965,
      "圭": 966,
      "地": 967,
      "圳": 968,
      "场": 969,
      "圾": 970,
      "址": 971,
      "坂": 972,
      "均": 973,
      "坊": 974,
      "坍": 975,
      "坎": 976,
      "坏": 977,
      "坐": 978,
      "坑": 979,
      "块": 980,
      "坚": 981,
      "坛": 982,
      "坝": 983,
      "坞": 984,
      "坟": 985,
      "坠": 986,
      "坡": 987,
      "坤": 988,
      "坦": 989,
      "坨": 990,
      "坩": 991,
      "坪": 992,
      "坭": 993,
      "坯": 994,
      "坳": 995,
      "坷": 996,
      "垂": 997,
      "垃": 998,
      "垄": 999,
      "型": 1000,
      "垒": 1001,
      "垛": 1002,
      "垠": 1003,
      "垢": 1004,
      "垣": 1005,
      "垦": 1006,
      "垩": 1007,
      "垫": 1008,
      "垮": 1009,
      "埃": 1010,
      "埋": 1011,
      "城": 1012,
      "埔": 1013,
      "埚": 1014,
      "域": 1015,
      "埠": 1016,
      "埸": 1017,
      "培": 1018,
      "基": 1019,
      "埼": 1020,
      "堂": 1021,
      "堆": 1022,
      "堇": 1023,
      "堑": 1024,
      "堕": 1025,
      "堡": 1026,
      "堤": 1027,
      "堪": 1028,
      "堰": 1029,
      "堵": 1030,
      "塌": 1031,
      "塑": 1032,
      "塔": 1033,
      "塘": 1034,
      "塞": 1035,
      "填": 1036,
      "境": 1037,
      "墅": 1038,
      "墒": 1039,
      "墓": 1040,
      "墙": 1041,
      "增": 1042,
      "墟": 1043,
      "墨": 1044,
      "墩": 1045,
      "壁": 1046,
      "壑": 1047,
      "壕": 1048,
      "壤": 1049,
      "士": 1050,
      "壬": 1051,
      "壮": 1052,
      "声": 1053,
      "壳": 1054,
      "壶": 1055,
      "壹": 1056,
      "处": 1057,
      "备": 1058,
      "复": 1059,
      "夏": 1060,
      "夕": 1061,
      "外": 1062,
      "多": 1063,
      "夜": 1064,
      "够": 1065,
      "夥": 1066,
      "大": 1067,
      "天": 1068,
      "太": 1069,
      "夫": 1070,
      "夭": 1071,
      "央": 1072,
      "失": 1073,
      "头": 1074,
      "夷": 1075,
      "夸": 1076,
      "夹": 1077,
      "夺": 1078,
      "奂": 1079,
      "奄": 1080,
      "奇": 1081,
      "奈": 1082,
      "奉": 1083,
      "奋": 1084,
      "奎": 1085,
      "奏": 1086,
      "契": 1087,
      "奔": 1088,
      "奕": 1089,
      "奖": 1090,
      "套": 1091,
      "奚": 1092,
      "奠": 1093,
      "奢": 1094,
      "奥": 1095,
      "女": 1096,
      "奴": 1097,
      "奶": 1098,
      "奸": 1099,
      "她": 1100,
      "好": 1101,
      "如": 1102,
      "妃": 1103,
      "妄": 1104,
      "妆": 1105,
      "妇": 1106,
      "妈": 1107,
      "妊": 1108,
      "妒": 1109,
      "妓": 1110,
      "妖": 1111,
      "妙": 1112,
      "妞": 1113,
      "妥": 1114,
      "妨": 1115,
      "妮": 1116,
      "妯": 1117,
      "妲": 1118,
      "妳": 1119,
      "妹": 1120,
      "妻": 1121,
      "妾": 1122,
      "姆": 1123,
      "姊": 1124,
      "始": 1125,
      "姐": 1126,
      "姑": 1127,
      "姓": 1128,
      "委": 1129,
      "姗": 1130,
      "姚": 1131,
      "姜": 1132,
      "姝": 1133,
      "姥": 1134,
      "姨": 1135,
      "姬": 1136,
      "姻": 1137,
      "姿": 1138,
      "威": 1139,
      "娃": 1140,
      "娄": 1141,
      "娅": 1142,
      "娇": 1143,
      "娈": 1144,
      "娌": 1145,
      "娑": 1146,
      "娓": 1147,
      "娘": 1148,
      "娜": 1149,
      "娟": 1150,
      "娠": 1151,
      "娣": 1152,
      "娥": 1153,
      "娩": 1154,
      "娱": 1155,
      "娲": 1156,
      "娴": 1157,
      "娶": 1158,
      "娼": 1159,
      "婀": 1160,
      "婆": 1161,
      "婉": 1162,
      "婊": 1163,
      "婚": 1164,
      "婢": 1165,
      "婧": 1166,
      "婪": 1167,
      "婴": 1168,
      "婷": 1169,
      "婺": 1170,
      "婿": 1171,
      "媒": 1172,
      "媚": 1173,
      "媛": 1174,
      "媲": 1175,
      "媳": 1176,
      "媾": 1177,
      "嫁": 1178,
      "嫂": 1179,
      "嫉": 1180,
      "嫌": 1181,
      "嫖": 1182,
      "嫚": 1183,
      "嫣": 1184,
      "嫦": 1185,
      "嫩": 1186,
      "嫫": 1187,
      "嫲": 1188,
      "嬉": 1189,
      "嬖": 1190,
      "嬗": 1191,
      "嬷": 1192,
      "孀": 1193,
      "子": 1194,
      "孑": 1195,
      "孔": 1196,
      "孕": 1197,
      "字": 1198,
      "存": 1199,
      "孙": 1200,
      "孚": 1201,
      "孜": 1202,
      "孝": 1203,
      "孟": 1204,
      "孢": 1205,
      "季": 1206,
      "孤": 1207,
      "学": 1208,
      "孩": 1209,
      "孪": 1210,
      "孰": 1211,
      "孳": 1212,
      "孵": 1213,
      "孽": 1214,
      "宁": 1215,
      "它": 1216,
      "宅": 1217,
      "宇": 1218,
      "守": 1219,
      "安": 1220,
      "宋": 1221,
      "完": 1222,
      "宏": 1223,
      "宕": 1224,
      "宗": 1225,
      "官": 1226,
      "宙": 1227,
      "定": 1228,
      "宛": 1229,
      "宜": 1230,
      "宝": 1231,
      "实": 1232,
      "宠": 1233,
      "审": 1234,
      "客": 1235,
      "宣": 1236,
      "室": 1237,
      "宦": 1238,
      "宪": 1239,
      "宫": 1240,
      "宰": 1241,
      "害": 1242,
      "宴": 1243,
      "宵": 1244,
      "家": 1245,
      "容": 1246,
      "宽": 1247,
      "宾": 1248,
      "宿": 1249,
      "寂": 1250,
      "寄": 1251,
      "寅": 1252,
      "密": 1253,
      "寇": 1254,
      "富": 1255,
      "寐": 1256,
      "寒": 1257,
      "寓": 1258,
      "寝": 1259,
      "寞": 1260,
      "察": 1261,
      "寡": 1262,
      "寥": 1263,
      "寨": 1264,
      "寮": 1265,
      "寰": 1266,
      "寳": 1267,
      "寸": 1268,
      "对": 1269,
      "寺": 1270,
      "寻": 1271,
      "导": 1272,
      "寿": 1273,
      "封": 1274,
      "射": 1275,
      "将": 1276,
      "尉": 1277,
      "尊": 1278,
      "小": 1279,
      "少": 1280,
      "尒": 1281,
      "尔": 1282,
      "尖": 1283,
      "尘": 1284,
      "尚": 1285,
      "尝": 1286,
      "尤": 1287,
      "尧": 1288,
      "尬": 1289,
      "就": 1290,
      "尴": 1291,
      "尸": 1292,
      "尹": 1293,
      "尺": 1294,
      "尼": 1295,
      "尽": 1296,
      "尾": 1297,
      "尿": 1298,
      "局": 1299,
      "屁": 1300,
      "层": 1301,
      "居": 1302,
      "屈": 1303,
      "屉": 1304,
      "届": 1305,
      "屋": 1306,
      "屎": 1307,
      "屏": 1308,
      "屐": 1309,
      "屑": 1310,
      "展": 1311,
      "属": 1312,
      "屠": 1313,
      "屡": 1314,
      "履": 1315,
      "屯": 1316,
      "山": 1317,
      "屹": 1318,
      "屿": 1319,
      "岁": 1320,
      "岂": 1321,
      "岌": 1322,
      "岐": 1323,
      "岑": 1324,
      "岔": 1325,
      "岖": 1326,
      "岗": 1327,
      "岚": 1328,
      "岛": 1329,
      "岩": 1330,
      "岬": 1331,
      "岭": 1332,
      "岱": 1333,
      "岳": 1334,
      "岸": 1335,
      "岿": 1336,
      "峒": 1337,
      "峕": 1338,
      "峙": 1339,
      "峟": 1340,
      "峡": 1341,
      "峤": 1342,
      "峦": 1343,
      "峨": 1344,
      "峪": 1345,
      "峭": 1346,
      "峰": 1347,
      "峻": 1348,
      "崄": 1349,
      "崇": 1350,
      "崎": 1351,
      "崔": 1352,
      "崖": 1353,
      "崛": 1354,
      "崩": 1355,
      "崭": 1356,
      "崽": 1357,
      "崾": 1358,
      "嵊": 1359,
      "嵋": 1360,
      "嵌": 1361,
      "嵩": 1362,
      "嵬": 1363,
      "嵰": 1364,
      "嵵": 1365,
      "嶂": 1366,
      "嶋": 1367,
      "巅": 1368,
      "巍": 1369,
      "川": 1370,
      "州": 1371,
      "巡": 1372,
      "巢": 1373,
      "工": 1374,
      "左": 1375,
      "巧": 1376,
      "巨": 1377,
      "巩": 1378,
      "巫": 1379,
      "差": 1380,
      "巯": 1381,
      "己": 1382,
      "已": 1383,
      "巳": 1384,
      "巴": 1385,
      "巷": 1386,
      "巾": 1387,
      "巿": 1388,
      "币": 1389,
      "市": 1390,
      "布": 1391,
      "帅": 1392,
      "帆": 1393,
      "师": 1394,
      "希": 1395,
      "帐": 1396,
      "帕": 1397,
      "帖": 1398,
      "帘": 1399,
      "帚": 1400,
      "帛": 1401,
      "帜": 1402,
      "帝": 1403,
      "带": 1404,
      "帧": 1405,
      "席": 1406,
      "帮": 1407,
      "帷": 1408,
      "常": 1409,
      "帽": 1410,
      "幂": 1411,
      "幄": 1412,
      "幅": 1413,
      "幔": 1414,
      "幕": 1415,
      "幢": 1416,
      "干": 1417,
      "平": 1418,
      "年": 1419,
      "并": 1420,
      "幷": 1421,
      "幸": 1422,
      "幻": 1423,
      "幼": 1424,
      "幽": 1425,
      "广": 1426,
      "庄": 1427,
      "庆": 1428,
      "庇": 1429,
      "床": 1430,
      "序": 1431,
      "庐": 1432,
      "库": 1433,
      "应": 1434,
      "底": 1435,
      "店": 1436,
      "庙": 1437,
      "庚": 1438,
      "府": 1439,
      "庞": 1440,
      "废": 1441,
      "度": 1442,
      "座": 1443,
      "庭": 1444,
      "庶": 1445,
      "康": 1446,
      "庸": 1447,
      "廉": 1448,
      "廊": 1449,
      "廓": 1450,
      "廖": 1451,
      "延": 1452,
      "廷": 1453,
      "建": 1454,
      "廿": 1455,
      "开": 1456,
      "异": 1457,
      "弃": 1458,
      "弄": 1459,
      "弈": 1460,
      "弊": 1461,
      "弋": 1462,
      "弌": 1463,
      "式": 1464,
      "弑": 1465,
      "弓": 1466,
      "引": 1467,
      "弗": 1468,
      "弘": 1469,
      "弛": 1470,
      "弟": 1471,
      "张": 1472,
      "弥": 1473,
      "弦": 1474,
      "弧": 1475,
      "弩": 1476,
      "弭": 1477,
      "弯": 1478,
      "弱": 1479,
      "弹": 1480,
      "强": 1481,
      "弼": 1482,
      "彀": 1483,
      "归": 1484,
      "当": 1485,
      "录": 1486,
      "彗": 1487,
      "彝": 1488,
      "形": 1489,
      "彤": 1490,
      "彦": 1491,
      "彩": 1492,
      "彪": 1493,
      "彬": 1494,
      "彭": 1495,
      "彰": 1496,
      "影": 1497,
      "彷": 1498,
      "役": 1499,
      "彻": 1500,
      "彼": 1501,
      "往": 1502,
      "征": 1503,
      "径": 1504,
      "待": 1505,
      "很": 1506,
      "徉": 1507,
      "徊": 1508,
      "律": 1509,
      "徐": 1510,
      "徒": 1511,
      "得": 1512,
      "徘": 1513,
      "徙": 1514,
      "徜": 1515,
      "御": 1516,
      "徨": 1517,
      "循": 1518,
      "徬": 1519,
      "徭": 1520,
      "微": 1521,
      "徳": 1522,
      "徵": 1523,
      "德": 1524,
      "徽": 1525,
      "心": 1526,
      "必": 1527,
      "忆": 1528,
      "忌": 1529,
      "忍": 1530,
      "忏": 1531,
      "忒": 1532,
      "忖": 1533,
      "志": 1534,
      "忘": 1535,
      "忙": 1536,
      "忝": 1537,
      "忠": 1538,
      "忡": 1539,
      "忧": 1540,
      "忪": 1541,
      "快": 1542,
      "忱": 1543,
      "念": 1544,
      "忻": 1545,
      "忽": 1546,
      "忿": 1547,
      "怀": 1548,
      "态": 1549,
      "怂": 1550,
      "怅": 1551,
      "怆": 1552,
      "怎": 1553,
      "怏": 1554,
      "怒": 1555,
      "怕": 1556,
      "怖": 1557,
      "怜": 1558,
      "思": 1559,
      "怠": 1560,
      "怡": 1561,
      "急": 1562,
      "性": 1563,
      "怨": 1564,
      "怪": 1565,
      "怯": 1566,
      "怵": 1567,
      "总": 1568,
      "怼": 1569,
      "恃": 1570,
      "恋": 1571,
      "恍": 1572,
      "恐": 1573,
      "恒": 1574,
      "恕": 1575,
      "恙": 1576,
      "恢": 1577,
      "恣": 1578,
      "恤": 1579,
      "恨": 1580,
      "恩": 1581,
      "恪": 1582,
      "恬": 1583,
      "恭": 1584,
      "息": 1585,
      "恰": 1586,
      "恳": 1587,
      "恶": 1588,
      "恼": 1589,
      "恿": 1590,
      "悃": 1591,
      "悄": 1592,
      "悉": 1593,
      "悌": 1594,
      "悍": 1595,
      "悔": 1596,
      "悖": 1597,
      "悚": 1598,
      "悟": 1599,
      "悠": 1600,
      "患": 1601,
      "悦": 1602,
      "您": 1603,
      "悬": 1604,
      "悯": 1605,
      "悲": 1606,
      "悳": 1607,
      "悴": 1608,
      "悸": 1609,
      "悼": 1610,
      "情": 1611,
      "惆": 1612,
      "惇": 1613,
      "惊": 1614,
      "惋": 1615,
      "惑": 1616,
      "惕": 1617,
      "惘": 1618,
      "惚": 1619,
      "惜": 1620,
      "惟": 1621,
      "惠": 1622,
      "惦": 1623,
      "惧": 1624,
      "惨": 1625,
      "惩": 1626,
      "惫": 1627,
      "惬": 1628,
      "惭": 1629,
      "惯": 1630,
      "惰": 1631,
      "想": 1632,
      "惴": 1633,
      "惶": 1634,
      "惹": 1635,
      "惺": 1636,
      "愁": 1637,
      "愆": 1638,
      "愈": 1639,
      "愉": 1640,
      "意": 1641,
      "愕": 1642,
      "愚": 1643,
      "感": 1644,
      "愣": 1645,
      "愤": 1646,
      "愧": 1647,
      "愫": 1648,
      "愿": 1649,
      "慈": 1650,
      "慌": 1651,
      "慎": 1652,
      "慑": 1653,
      "慕": 1654,
      "慢": 1655,
      "慧": 1656,
      "慨": 1657,
      "慰": 1658,
      "慵": 1659,
      "慷": 1660,
      "憋": 1661,
      "憎": 1662,
      "憔": 1663,
      "憧": 1664,
      "憨": 1665,
      "憩": 1666,
      "憬": 1667,
      "憾": 1668,
      "懂": 1669,
      "懈": 1670,
      "懊": 1671,
      "懑": 1672,
      "懒": 1673,
      "懦": 1674,
      "懵": 1675,
      "懽": 1676,
      "懿": 1677,
      "戈": 1678,
      "戊": 1679,
      "戍": 1680,
      "戎": 1681,
      "戏": 1682,
      "成": 1683,
      "我": 1684,
      "戒": 1685,
      "或": 1686,
      "戗": 1687,
      "战": 1688,
      "戚": 1689,
      "戛": 1690,
      "戟": 1691,
      "截": 1692,
      "戮": 1693,
      "戳": 1694,
      "戴": 1695,
      "户": 1696,
      "戽": 1697,
      "戾": 1698,
      "房": 1699,
      "所": 1700,
      "扁": 1701,
      "扇": 1702,
      "扈": 1703,
      "扉": 1704,
      "手": 1705,
      "才": 1706,
      "扎": 1707,
      "扑": 1708,
      "扒": 1709,
      "打": 1710,
      "扔": 1711,
      "托": 1712,
      "扛": 1713,
      "扣": 1714,
      "扦": 1715,
      "执": 1716,
      "扩": 1717,
      "扪": 1718,
      "扫": 1719,
      "扬": 1720,
      "扭": 1721,
      "扮": 1722,
      "扯": 1723,
      "扰": 1724,
      "扳": 1725,
      "扶": 1726,
      "批": 1727,
      "扼": 1728,
      "找": 1729,
      "承": 1730,
      "技": 1731,
      "抄": 1732,
      "抉": 1733,
      "把": 1734,
      "抑": 1735,
      "抒": 1736,
      "抓": 1737,
      "投": 1738,
      "抖": 1739,
      "抗": 1740,
      "折": 1741,
      "抚": 1742,
      "抛": 1743,
      "抜": 1744,
      "抠": 1745,
      "抡": 1746,
      "抢": 1747,
      "护": 1748,
      "报": 1749,
      "抨": 1750,
      "披": 1751,
      "抬": 1752,
      "抱": 1753,
      "抵": 1754,
      "抹": 1755,
      "抺": 1756,
      "押": 1757,
      "抽": 1758,
      "抿": 1759,
      "拂": 1760,
      "拄": 1761,
      "担": 1762,
      "拆": 1763,
      "拇": 1764,
      "拉": 1765,
      "拌": 1766,
      "拍": 1767,
      "拎": 1768,
      "拐": 1769,
      "拒": 1770,
      "拓": 1771,
      "拔": 1772,
      "拖": 1773,
      "拗": 1774,
      "拘": 1775,
      "拙": 1776,
      "拚": 1777,
      "招": 1778,
      "拜": 1779,
      "拟": 1780,
      "拢": 1781,
      "拣": 1782,
      "拥": 1783,
      "拦": 1784,
      "拧": 1785,
      "拨": 1786,
      "择": 1787,
      "括": 1788,
      "拭": 1789,
      "拮": 1790,
      "拯": 1791,
      "拱": 1792,
      "拳": 1793,
      "拴": 1794,
      "拷": 1795,
      "拼": 1796,
      "拽": 1797,
      "拾": 1798,
      "拿": 1799,
      "持": 1800,
      "挂": 1801,
      "指": 1802,
      "挈": 1803,
      "按": 1804,
      "挎": 1805,
      "挑": 1806,
      "挖": 1807,
      "挚": 1808,
      "挛": 1809,
      "挝": 1810,
      "挞": 1811,
      "挟": 1812,
      "挠": 1813,
      "挡": 1814,
      "挣": 1815,
      "挤": 1816,
      "挥": 1817,
      "挨": 1818,
      "挪": 1819,
      "挫": 1820,
      "振": 1821,
      "挲": 1822,
      "挺": 1823,
      "挽": 1824,
      "捂": 1825,
      "捄": 1826,
      "捅": 1827,
      "捆": 1828,
      "捉": 1829,
      "捍": 1830,
      "捏": 1831,
      "捐": 1832,
      "捕": 1833,
      "捞": 1834,
      "损": 1835,
      "捡": 1836,
      "换": 1837,
      "捣": 1838,
      "捧": 1839,
      "捩": 1840,
      "据": 1841,
      "捶": 1842,
      "捷": 1843,
      "捻": 1844,
      "掀": 1845,
      "掂": 1846,
      "掇": 1847,
      "授": 1848,
      "掉": 1849,
      "掌": 1850,
      "掏": 1851,
      "掐": 1852,
      "排": 1853,
      "掖": 1854,
      "掘": 1855,
      "掠": 1856,
      "探": 1857,
      "接": 1858,
      "控": 1859,
      "推": 1860,
      "掩": 1861,
      "措": 1862,
      "掬": 1863,
      "掰": 1864,
      "掳": 1865,
      "掷": 1866,
      "掸": 1867,
      "掺": 1868,
      "掽": 1869,
      "揉": 1870,
      "揍": 1871,
      "描": 1872,
      "提": 1873,
      "插": 1874,
      "握": 1875,
      "揣": 1876,
      "揩": 1877,
      "揪": 1878,
      "揭": 1879,
      "援": 1880,
      "揽": 1881,
      "揾": 1882,
      "揿": 1883,
      "搁": 1884,
      "搂": 1885,
      "搅": 1886,
      "搏": 1887,
      "搐": 1888,
      "搓": 1889,
      "搔": 1890,
      "搜": 1891,
      "搞": 1892,
      "搪": 1893,
      "搬": 1894,
      "搭": 1895,
      "携": 1896,
      "摁": 1897,
      "摄": 1898,
      "摆": 1899,
      "摇": 1900,
      "摈": 1901,
      "摊": 1902,
      "摒": 1903,
      "摔": 1904,
      "摘": 1905,
      "摞": 1906,
      "摧": 1907,
      "摩": 1908,
      "摸": 1909,
      "摹": 1910,
      "摺": 1911,
      "撃": 1912,
      "撅": 1913,
      "撇": 1914,
      "撑": 1915,
      "撒": 1916,
      "撕": 1917,
      "撞": 1918,
      "撤": 1919,
      "撬": 1920,
      "播": 1921,
      "撮": 1922,
      "撰": 1923,
      "撵": 1924,
      "撷": 1925,
      "撼": 1926,
      "擅": 1927,
      "操": 1928,
      "擎": 1929,
      "擒": 1930,
      "擞": 1931,
      "擦": 1932,
      "攀": 1933,
      "攒": 1934,
      "攘": 1935,
      "攥": 1936,
      "攫": 1937,
      "支": 1938,
      "收": 1939,
      "攸": 1940,
      "改": 1941,
      "攻": 1942,
      "放": 1943,
      "政": 1944,
      "故": 1945,
      "效": 1946,
      "敌": 1947,
      "敏": 1948,
      "救": 1949,
      "敕": 1950,
      "敖": 1951,
      "教": 1952,
      "敛": 1953,
      "敝": 1954,
      "敞": 1955,
      "敢": 1956,
      "散": 1957,
      "敦": 1958,
      "敬": 1959,
      "数": 1960,
      "敲": 1961,
      "整": 1962,
      "敷": 1963,
      "文": 1964,
      "斋": 1965,
      "斌": 1966,
      "斎": 1967,
      "斐": 1968,
      "斑": 1969,
      "斓": 1970,
      "斗": 1971,
      "料": 1972,
      "斛": 1973,
      "斜": 1974,
      "斟": 1975,
      "斡": 1976,
      "斤": 1977,
      "斥": 1978,
      "斧": 1979,
      "斩": 1980,
      "断": 1981,
      "斯": 1982,
      "新": 1983,
      "方": 1984,
      "施": 1985,
      "旁": 1986,
      "旅": 1987,
      "旋": 1988,
      "旌": 1989,
      "族": 1990,
      "旗": 1991,
      "无": 1992,
      "既": 1993,
      "日": 1994,
      "旦": 1995,
      "旧": 1996,
      "旨": 1997,
      "早": 1998,
      "旬": 1999,
      "旭": 2000,
      "旱": 2001,
      "旳": 2002,
      "时": 2003,
      "旷": 2004,
      "旺": 2005,
      "昀": 2006,
      "昂": 2007,
      "昆": 2008,
      "昉": 2009,
      "昊": 2010,
      "昌": 2011,
      "明": 2012,
      "昏": 2013,
      "易": 2014,
      "昔": 2015,
      "昕": 2016,
      "昙": 2017,
      "星": 2018,
      "映": 2019,
      "春": 2020,
      "昧": 2021,
      "昨": 2022,
      "昭": 2023,
      "是": 2024,
      "昵": 2025,
      "昼": 2026,
      "显": 2027,
      "晁": 2028,
      "晃": 2029,
      "晋": 2030,
      "晌": 2031,
      "晏": 2032,
      "晒": 2033,
      "晓": 2034,
      "晕": 2035,
      "晖": 2036,
      "晚": 2037,
      "晟": 2038,
      "晤": 2039,
      "晦": 2040,
      "晨": 2041,
      "普": 2042,
      "景": 2043,
      "晰": 2044,
      "晴": 2045,
      "晶": 2046,
      "智": 2047,
      "晾": 2048,
      "暂": 2049,
      "暇": 2050,
      "暋": 2051,
      "暑": 2052,
      "暖": 2053,
      "暗": 2054,
      "暧": 2055,
      "暨": 2056,
      "暮": 2057,
      "暴": 2058,
      "暹": 2059,
      "曈": 2060,
      "曙": 2061,
      "曝": 2062,
      "曦": 2063,
      "曰": 2064,
      "曲": 2065,
      "曳": 2066,
      "更": 2067,
      "曹": 2068,
      "曼": 2069,
      "曾": 2070,
      "替": 2071,
      "最": 2072,
      "月": 2073,
      "有": 2074,
      "朊": 2075,
      "朋": 2076,
      "服": 2077,
      "朔": 2078,
      "朗": 2079,
      "望": 2080,
      "朝": 2081,
      "期": 2082,
      "朦": 2083,
      "木": 2084,
      "未": 2085,
      "末": 2086,
      "本": 2087,
      "札": 2088,
      "术": 2089,
      "朱": 2090,
      "朴": 2091,
      "朵": 2092,
      "机": 2093,
      "朼": 2094,
      "朽": 2095,
      "杀": 2096,
      "杂": 2097,
      "权": 2098,
      "杆": 2099,
      "杈": 2100,
      "杉": 2101,
      "李": 2102,
      "杏": 2103,
      "材": 2104,
      "村": 2105,
      "杖": 2106,
      "杜": 2107,
      "杞": 2108,
      "束": 2109,
      "杠": 2110,
      "条": 2111,
      "来": 2112,
      "杨": 2113,
      "杪": 2114,
      "杭": 2115,
      "杯": 2116,
      "杰": 2117,
      "松": 2118,
      "板": 2119,
      "极": 2120,
      "构": 2121,
      "枉": 2122,
      "枋": 2123,
      "析": 2124,
      "枕": 2125,
      "林": 2126,
      "枚": 2127,
      "果": 2128,
      "枝": 2129,
      "枞": 2130,
      "枢": 2131,
      "枣": 2132,
      "枪": 2133,
      "枫": 2134,
      "枭": 2135,
      "枯": 2136,
      "架": 2137,
      "枷": 2138,
      "枸": 2139,
      "柃": 2140,
      "柄": 2141,
      "柏": 2142,
      "某": 2143,
      "柑": 2144,
      "染": 2145,
      "柔": 2146,
      "柚": 2147,
      "柜": 2148,
      "柞": 2149,
      "柠": 2150,
      "柢": 2151,
      "查": 2152,
      "柩": 2153,
      "柬": 2154,
      "柯": 2155,
      "柰": 2156,
      "柱": 2157,
      "柳": 2158,
      "柴": 2159,
      "柿": 2160,
      "栀": 2161,
      "栅": 2162,
      "标": 2163,
      "栈": 2164,
      "栉": 2165,
      "栋": 2166,
      "栎": 2167,
      "栏": 2168,
      "树": 2169,
      "栓": 2170,
      "栖": 2171,
      "栗": 2172,
      "校": 2173,
      "栩": 2174,
      "株": 2175,
      "样": 2176,
      "核": 2177,
      "根": 2178,
      "格": 2179,
      "栽": 2180,
      "栾": 2181,
      "桁": 2182,
      "桂": 2183,
      "桃": 2184,
      "桅": 2185,
      "框": 2186,
      "案": 2187,
      "桉": 2188,
      "桌": 2189,
      "桎": 2190,
      "桐": 2191,
      "桑": 2192,
      "桓": 2193,
      "桔": 2194,
      "桠": 2195,
      "桡": 2196,
      "档": 2197,
      "桤": 2198,
      "桥": 2199,
      "桦": 2200,
      "桨": 2201,
      "桩": 2202,
      "桶": 2203,
      "梁": 2204,
      "梅": 2205,
      "梆": 2206,
      "梏": 2207,
      "梓": 2208,
      "梗": 2209,
      "梠": 2210,
      "梢": 2211,
      "梦": 2212,
      "梧": 2213,
      "梨": 2214,
      "梭": 2215,
      "梯": 2216,
      "械": 2217,
      "梳": 2218,
      "梵": 2219,
      "检": 2220,
      "棂": 2221,
      "棉": 2222,
      "棋": 2223,
      "棍": 2224,
      "棒": 2225,
      "棕": 2226,
      "棘": 2227,
      "棚": 2228,
      "棠": 2229,
      "棣": 2230,
      "森": 2231,
      "棱": 2232,
      "棵": 2233,
      "棺": 2234,
      "棼": 2235,
      "椅": 2236,
      "植": 2237,
      "椎": 2238,
      "椒": 2239,
      "椠": 2240,
      "椭": 2241,
      "椰": 2242,
      "椴": 2243,
      "椹": 2244,
      "椽": 2245,
      "椿": 2246,
      "楂": 2247,
      "楔": 2248,
      "楚": 2249,
      "楞": 2250,
      "楠": 2251,
      "楣": 2252,
      "楦": 2253,
      "楫": 2254,
      "楮": 2255,
      "楷": 2256,
      "楼": 2257,
      "概": 2258,
      "榄": 2259,
      "榆": 2260,
      "榈": 2261,
      "榉": 2262,
      "榔": 2263,
      "榕": 2264,
      "榜": 2265,
      "榨": 2266,
      "榫": 2267,
      "榭": 2268,
      "榴": 2269,
      "榷": 2270,
      "榻": 2271,
      "槁": 2272,
      "槃": 2273,
      "槌": 2274,
      "槐": 2275,
      "槛": 2276,
      "槟": 2277,
      "槠": 2278,
      "槲": 2279,
      "槽": 2280,
      "槿": 2281,
      "樂": 2282,
      "樊": 2283,
      "樟": 2284,
      "模": 2285,
      "横": 2286,
      "樯": 2287,
      "樱": 2288,
      "樽": 2289,
      "橄": 2290,
      "橇": 2291,
      "橘": 2292,
      "橙": 2293,
      "橛": 2294,
      "橡": 2295,
      "橱": 2296,
      "檀": 2297,
      "檐": 2298,
      "檗": 2299,
      "檩": 2300,
      "檬": 2301,
      "檵": 2302,
      "欠": 2303,
      "次": 2304,
      "欢": 2305,
      "欣": 2306,
      "欤": 2307,
      "欧": 2308,
      "欲": 2309,
      "欸": 2310,
      "欺": 2311,
      "款": 2312,
      "歇": 2313,
      "歉": 2314,
      "歌": 2315,
      "歙": 2316,
      "止": 2317,
      "正": 2318,
      "此": 2319,
      "步": 2320,
      "武": 2321,
      "歧": 2322,
      "歪": 2323,
      "歷": 2324,
      "歹": 2325,
      "死": 2326,
      "歼": 2327,
      "殃": 2328,
      "殆": 2329,
      "殇": 2330,
      "殉": 2331,
      "殊": 2332,
      "残": 2333,
      "殓": 2334,
      "殖": 2335,
      "殚": 2336,
      "殡": 2337,
      "殴": 2338,
      "段": 2339,
      "殷": 2340,
      "殿": 2341,
      "毁": 2342,
      "毂": 2343,
      "毅": 2344,
      "毋": 2345,
      "母": 2346,
      "每": 2347,
      "毒": 2348,
      "比": 2349,
      "毕": 2350,
      "毗": 2351,
      "毙": 2352,
      "毛": 2353,
      "毡": 2354,
      "毫": 2355,
      "毬": 2356,
      "毯": 2357,
      "氏": 2358,
      "民": 2359,
      "氓": 2360,
      "气": 2361,
      "氘": 2362,
      "氙": 2363,
      "氛": 2364,
      "氟": 2365,
      "氡": 2366,
      "氢": 2367,
      "氦": 2368,
      "氧": 2369,
      "氨": 2370,
      "氩": 2371,
      "氮": 2372,
      "氯": 2373,
      "氰": 2374,
      "水": 2375,
      "永": 2376,
      "汀": 2377,
      "汁": 2378,
      "求": 2379,
      "汇": 2380,
      "汉": 2381,
      "汊": 2382,
      "汐": 2383,
      "汕": 2384,
      "汗": 2385,
      "汛": 2386,
      "汝": 2387,
      "汞": 2388,
      "江": 2389,
      "池": 2390,
      "污": 2391,
      "汤": 2392,
      "汪": 2393,
      "汰": 2394,
      "汲": 2395,
      "汶": 2396,
      "汸": 2397,
      "汽": 2398,
      "汾": 2399,
      "沁": 2400,
      "沂": 2401,
      "沃": 2402,
      "沈": 2403,
      "沉": 2404,
      "沌": 2405,
      "沏": 2406,
      "沐": 2407,
      "沙": 2408,
      "沛": 2409,
      "沟": 2410,
      "没": 2411,
      "沣": 2412,
      "沥": 2413,
      "沦": 2414,
      "沧": 2415,
      "沪": 2416,
      "沫": 2417,
      "沮": 2418,
      "河": 2419,
      "沵": 2420,
      "沸": 2421,
      "油": 2422,
      "治": 2423,
      "沼": 2424,
      "沽": 2425,
      "沾": 2426,
      "沿": 2427,
      "泄": 2428,
      "泉": 2429,
      "泊": 2430,
      "泌": 2431,
      "泓": 2432,
      "泔": 2433,
      "法": 2434,
      "泖": 2435,
      "泗": 2436,
      "泛": 2437,
      "泞": 2438,
      "泡": 2439,
      "波": 2440,
      "泣": 2441,
      "泥": 2442,
      "注": 2443,
      "泪": 2444,
      "泮": 2445,
      "泯": 2446,
      "泰": 2447,
      "泳": 2448,
      "泵": 2449,
      "泸": 2450,
      "泻": 2451,
      "泼": 2452,
      "泽": 2453,
      "洁": 2454,
      "洋": 2455,
      "洒": 2456,
      "洗": 2457,
      "洛": 2458,
      "洞": 2459,
      "津": 2460,
      "洩": 2461,
      "洪": 2462,
      "洮": 2463,
      "洱": 2464,
      "洲": 2465,
      "活": 2466,
      "洼": 2467,
      "洽": 2468,
      "派": 2469,
      "流": 2470,
      "浅": 2471,
      "浆": 2472,
      "浇": 2473,
      "浊": 2474,
      "测": 2475,
      "济": 2476,
      "浏": 2477,
      "浑": 2478,
      "浒": 2479,
      "浓": 2480,
      "浙": 2481,
      "浚": 2482,
      "浜": 2483,
      "浣": 2484,
      "浦": 2485,
      "浩": 2486,
      "浪": 2487,
      "浮": 2488,
      "浴": 2489,
      "海": 2490,
      "浸": 2491,
      "涂": 2492,
      "涅": 2493,
      "消": 2494,
      "涉": 2495,
      "涌": 2496,
      "涎": 2497,
      "涐": 2498,
      "涓": 2499,
      "涕": 2500,
      "涛": 2501,
      "涝": 2502,
      "涟": 2503,
      "涡": 2504,
      "涣": 2505,
      "涤": 2506,
      "润": 2507,
      "涧": 2508,
      "涨": 2509,
      "涩": 2510,
      "涪": 2511,
      "涯": 2512,
      "液": 2513,
      "涵": 2514,
      "涸": 2515,
      "淀": 2516,
      "淄": 2517,
      "淆": 2518,
      "淇": 2519,
      "淋": 2520,
      "淌": 2521,
      "淑": 2522,
      "淘": 2523,
      "淞": 2524,
      "淡": 2525,
      "淤": 2526,
      "淩": 2527,
      "淫": 2528,
      "淬": 2529,
      "淮": 2530,
      "深": 2531,
      "淳": 2532,
      "混": 2533,
      "淹": 2534,
      "添": 2535,
      "清": 2536,
      "渊": 2537,
      "渍": 2538,
      "渎": 2539,
      "渐": 2540,
      "渔": 2541,
      "渗": 2542,
      "渝": 2543,
      "渠": 2544,
      "渡": 2545,
      "渣": 2546,
      "渤": 2547,
      "渥": 2548,
      "温": 2549,
      "渭": 2550,
      "港": 2551,
      "渲": 2552,
      "渴": 2553,
      "游": 2554,
      "渺": 2555,
      "湃": 2556,
      "湄": 2557,
      "湍": 2558,
      "湎": 2559,
      "湖": 2560,
      "湘": 2561,
      "湛": 2562,
      "湜": 2563,
      "湟": 2564,
      "湫": 2565,
      "湮": 2566,
      "湾": 2567,
      "湿": 2568,
      "溃": 2569,
      "溅": 2570,
      "溉": 2571,
      "源": 2572,
      "溜": 2573,
      "溢": 2574,
      "溥": 2575,
      "溧": 2576,
      "溪": 2577,
      "溯": 2578,
      "溴": 2579,
      "溶": 2580,
      "溺": 2581,
      "滁": 2582,
      "滇": 2583,
      "滋": 2584,
      "滑": 2585,
      "滔": 2586,
      "滕": 2587,
      "滘": 2588,
      "滚": 2589,
      "滞": 2590,
      "滠": 2591,
      "满": 2592,
      "滤": 2593,
      "滥": 2594,
      "滦": 2595,
      "滨": 2596,
      "滩": 2597,
      "滴": 2598,
      "漂": 2599,
      "漆": 2600,
      "漉": 2601,
      "漏": 2602,
      "漓": 2603,
      "演": 2604,
      "漕": 2605,
      "漠": 2606,
      "漩": 2607,
      "漪": 2608,
      "漫": 2609,
      "漯": 2610,
      "漱": 2611,
      "漳": 2612,
      "潇": 2613,
      "潍": 2614,
      "潘": 2615,
      "潜": 2616,
      "潞": 2617,
      "潟": 2618,
      "潢": 2619,
      "潦": 2620,
      "潭": 2621,
      "潮": 2622,
      "潺": 2623,
      "澄": 2624,
      "澈": 2625,
      "澍": 2626,
      "澎": 2627,
      "澜": 2628,
      "澡": 2629,
      "澳": 2630,
      "激": 2631,
      "濒": 2632,
      "濡": 2633,
      "瀑": 2634,
      "瀚": 2635,
      "灌": 2636,
      "火": 2637,
      "灭": 2638,
      "灯": 2639,
      "灰": 2640,
      "灵": 2641,
      "灶": 2642,
      "灸": 2643,
      "灼": 2644,
      "灾": 2645,
      "灿": 2646,
      "炉": 2647,
      "炊": 2648,
      "炎": 2649,
      "炒": 2650,
      "炔": 2651,
      "炖": 2652,
      "炙": 2653,
      "炤": 2654,
      "炫": 2655,
      "炬": 2656,
      "炭": 2657,
      "炮": 2658,
      "炯": 2659,
      "炳": 2660,
      "炸": 2661,
      "点": 2662,
      "炼": 2663,
      "炽": 2664,
      "烁": 2665,
      "烂": 2666,
      "烃": 2667,
      "烈": 2668,
      "烘": 2669,
      "烙": 2670,
      "烛": 2671,
      "烟": 2672,
      "烤": 2673,
      "烦": 2674,
      "烧": 2675,
      "烩": 2676,
      "烫": 2677,
      "烬": 2678,
      "热": 2679,
      "烯": 2680,
      "烷": 2681,
      "烹": 2682,
      "烽": 2683,
      "焊": 2684,
      "焓": 2685,
      "焕": 2686,
      "焗": 2687,
      "焘": 2688,
      "焙": 2689,
      "焚": 2690,
      "焦": 2691,
      "焰": 2692,
      "然": 2693,
      "煀": 2694,
      "煅": 2695,
      "煊": 2696,
      "煌": 2697,
      "煎": 2698,
      "煞": 2699,
      "煤": 2700,
      "煦": 2701,
      "照": 2702,
      "煮": 2703,
      "煲": 2704,
      "煳": 2705,
      "煺": 2706,
      "煽": 2707,
      "熄": 2708,
      "熊": 2709,
      "熏": 2710,
      "熔": 2711,
      "熘": 2712,
      "熙": 2713,
      "熟": 2714,
      "熠": 2715,
      "熨": 2716,
      "熬": 2717,
      "熵": 2718,
      "熹": 2719,
      "燃": 2720,
      "燊": 2721,
      "燎": 2722,
      "燔": 2723,
      "燕": 2724,
      "燥": 2725,
      "燧": 2726,
      "燮": 2727,
      "爆": 2728,
      "爪": 2729,
      "爬": 2730,
      "爱": 2731,
      "爵": 2732,
      "父": 2733,
      "爷": 2734,
      "爸": 2735,
      "爹": 2736,
      "爽": 2737,
      "片": 2738,
      "版": 2739,
      "牌": 2740,
      "牍": 2741,
      "牙": 2742,
      "牛": 2743,
      "牟": 2744,
      "牠": 2745,
      "牡": 2746,
      "牢": 2747,
      "牦": 2748,
      "牧": 2749,
      "物": 2750,
      "牲": 2751,
      "牵": 2752,
      "特": 2753,
      "牺": 2754,
      "犀": 2755,
      "犁": 2756,
      "犊": 2757,
      "犬": 2758,
      "犯": 2759,
      "犰": 2760,
      "状": 2761,
      "犷": 2762,
      "犸": 2763,
      "犹": 2764,
      "狂": 2765,
      "狄": 2766,
      "狐": 2767,
      "狒": 2768,
      "狗": 2769,
      "狙": 2770,
      "狞": 2771,
      "狠": 2772,
      "狡": 2773,
      "狩": 2774,
      "独": 2775,
      "狭": 2776,
      "狮": 2777,
      "狰": 2778,
      "狱": 2779,
      "狳": 2780,
      "狸": 2781,
      "狼": 2782,
      "猎": 2783,
      "猕": 2784,
      "猖": 2785,
      "猛": 2786,
      "猜": 2787,
      "猝": 2788,
      "猥": 2789,
      "猩": 2790,
      "猪": 2791,
      "猫": 2792,
      "猬": 2793,
      "献": 2794,
      "猴": 2795,
      "猾": 2796,
      "猿": 2797,
      "獐": 2798,
      "獒": 2799,
      "獭": 2800,
      "玄": 2801,
      "率": 2802,
      "玉": 2803,
      "玊": 2804,
      "王": 2805,
      "玍": 2806,
      "玛": 2807,
      "玡": 2808,
      "玢": 2809,
      "玥": 2810,
      "玩": 2811,
      "玫": 2812,
      "玮": 2813,
      "环": 2814,
      "现": 2815,
      "玲": 2816,
      "玷": 2817,
      "玻": 2818,
      "珀": 2819,
      "珂": 2820,
      "珈": 2821,
      "珉": 2822,
      "珊": 2823,
      "珍": 2824,
      "珐": 2825,
      "珑": 2826,
      "珞": 2827,
      "珠": 2828,
      "珥": 2829,
      "班": 2830,
      "珲": 2831,
      "珽": 2832,
      "球": 2833,
      "琅": 2834,
      "理": 2835,
      "琉": 2836,
      "琏": 2837,
      "琐": 2838,
      "琛": 2839,
      "琢": 2840,
      "琥": 2841,
      "琦": 2842,
      "琪": 2843,
      "琯": 2844,
      "琳": 2845,
      "琴": 2846,
      "琵": 2847,
      "琶": 2848,
      "琼": 2849,
      "瑄": 2850,
      "瑕": 2851,
      "瑙": 2852,
      "瑚": 2853,
      "瑜": 2854,
      "瑞": 2855,
      "瑟": 2856,
      "瑰": 2857,
      "瑶": 2858,
      "璀": 2859,
      "璁": 2860,
      "璃": 2861,
      "璇": 2862,
      "璋": 2863,
      "璐": 2864,
      "璜": 2865,
      "璞": 2866,
      "璧": 2867,
      "璨": 2868,
      "瓜": 2869,
      "瓢": 2870,
      "瓣": 2871,
      "瓦": 2872,
      "瓯": 2873,
      "瓶": 2874,
      "瓷": 2875,
      "甄": 2876,
      "甐": 2877,
      "甘": 2878,
      "甙": 2879,
      "甚": 2880,
      "甜": 2881,
      "生": 2882,
      "用": 2883,
      "甩": 2884,
      "甫": 2885,
      "甬": 2886,
      "甭": 2887,
      "甯": 2888,
      "田": 2889,
      "由": 2890,
      "甲": 2891,
      "申": 2892,
      "电": 2893,
      "男": 2894,
      "甸": 2895,
      "町": 2896,
      "画": 2897,
      "甾": 2898,
      "畅": 2899,
      "界": 2900,
      "畏": 2901,
      "畑": 2902,
      "畔": 2903,
      "留": 2904,
      "畜": 2905,
      "略": 2906,
      "畦": 2907,
      "番": 2908,
      "異": 2909,
      "畴": 2910,
      "畸": 2911,
      "疆": 2912,
      "疋": 2913,
      "疏": 2914,
      "疑": 2915,
      "疖": 2916,
      "疗": 2917,
      "疙": 2918,
      "疚": 2919,
      "疝": 2920,
      "疟": 2921,
      "疡": 2922,
      "疣": 2923,
      "疤": 2924,
      "疥": 2925,
      "疫": 2926,
      "疮": 2927,
      "疯": 2928,
      "疱": 2929,
      "疲": 2930,
      "疳": 2931,
      "疴": 2932,
      "疵": 2933,
      "疸": 2934,
      "疹": 2935,
      "疼": 2936,
      "疽": 2937,
      "疾": 2938,
      "痂": 2939,
      "痃": 2940,
      "病": 2941,
      "症": 2942,
      "痉": 2943,
      "痊": 2944,
      "痍": 2945,
      "痒": 2946,
      "痔": 2947,
      "痕": 2948,
      "痘": 2949,
      "痛": 2950,
      "痞": 2951,
      "痢": 2952,
      "痣": 2953,
      "痤": 2954,
      "痧": 2955,
      "痪": 2956,
      "痫": 2957,
      "痬": 2958,
      "痰": 2959,
      "痲": 2960,
      "痴": 2961,
      "痹": 2962,
      "痺": 2963,
      "痿": 2964,
      "瘀": 2965,
      "瘁": 2966,
      "瘊": 2967,
      "瘘": 2968,
      "瘙": 2969,
      "瘟": 2970,
      "瘠": 2971,
      "瘢": 2972,
      "瘤": 2973,
      "瘦": 2974,
      "瘩": 2975,
      "瘫": 2976,
      "瘴": 2977,
      "瘾": 2978,
      "瘿": 2979,
      "療": 2980,
      "癊": 2981,
      "癌": 2982,
      "癎": 2983,
      "癔": 2984,
      "癖": 2985,
      "癜": 2986,
      "癣": 2987,
      "癫": 2988,
      "癯": 2989,
      "癸": 2990,
      "登": 2991,
      "白": 2992,
      "百": 2993,
      "皂": 2994,
      "的": 2995,
      "皆": 2996,
      "皇": 2997,
      "皈": 2998,
      "皎": 2999,
      "皑": 3000,
      "皒": 3001,
      "皓": 3002,
      "皖": 3003,
      "皙": 3004,
      "皮": 3005,
      "皱": 3006,
      "皿": 3007,
      "盂": 3008,
      "盃": 3009,
      "盅": 3010,
      "盆": 3011,
      "盈": 3012,
      "益": 3013,
      "盍": 3014,
      "盎": 3015,
      "盏": 3016,
      "盐": 3017,
      "监": 3018,
      "盒": 3019,
      "盔": 3020,
      "盖": 3021,
      "盗": 3022,
      "盘": 3023,
      "盛": 3024,
      "盟": 3025,
      "盥": 3026,
      "目": 3027,
      "盯": 3028,
      "盲": 3029,
      "直": 3030,
      "相": 3031,
      "盹": 3032,
      "盼": 3033,
      "盾": 3034,
      "省": 3035,
      "眈": 3036,
      "眉": 3037,
      "看": 3038,
      "眞": 3039,
      "真": 3040,
      "眠": 3041,
      "眦": 3042,
      "眨": 3043,
      "眩": 3044,
      "眯": 3045,
      "眳": 3046,
      "眶": 3047,
      "眷": 3048,
      "眸": 3049,
      "眺": 3050,
      "眼": 3051,
      "着": 3052,
      "睁": 3053,
      "睇": 3054,
      "睐": 3055,
      "睑": 3056,
      "睛": 3057,
      "睡": 3058,
      "睢": 3059,
      "督": 3060,
      "睦": 3061,
      "睪": 3062,
      "睫": 3063,
      "睬": 3064,
      "睹": 3065,
      "睾": 3066,
      "睿": 3067,
      "瞄": 3068,
      "瞅": 3069,
      "瞋": 3070,
      "瞌": 3071,
      "瞎": 3072,
      "瞒": 3073,
      "瞠": 3074,
      "瞥": 3075,
      "瞧": 3076,
      "瞩": 3077,
      "瞪": 3078,
      "瞬": 3079,
      "瞭": 3080,
      "瞰": 3081,
      "瞳": 3082,
      "瞻": 3083,
      "矍": 3084,
      "矗": 3085,
      "矛": 3086,
      "矜": 3087,
      "矢": 3088,
      "矣": 3089,
      "知": 3090,
      "矩": 3091,
      "矫": 3092,
      "短": 3093,
      "矮": 3094,
      "石": 3095,
      "矶": 3096,
      "矸": 3097,
      "矽": 3098,
      "矾": 3099,
      "矿": 3100,
      "码": 3101,
      "砂": 3102,
      "砌": 3103,
      "砍": 3104,
      "研": 3105,
      "砖": 3106,
      "砚": 3107,
      "砜": 3108,
      "砝": 3109,
      "砥": 3110,
      "砧": 3111,
      "砰": 3112,
      "破": 3113,
      "砷": 3114,
      "砸": 3115,
      "砺": 3116,
      "砼": 3117,
      "砾": 3118,
      "础": 3119,
      "硅": 3120,
      "硒": 3121,
      "硕": 3122,
      "硝": 3123,
      "硫": 3124,
      "硬": 3125,
      "确": 3126,
      "硼": 3127,
      "碇": 3128,
      "碉": 3129,
      "碌": 3130,
      "碍": 3131,
      "碎": 3132,
      "碑": 3133,
      "碗": 3134,
      "碘": 3135,
      "碜": 3136,
      "碟": 3137,
      "碧": 3138,
      "碰": 3139,
      "碱": 3140,
      "碲": 3141,
      "碳": 3142,
      "碾": 3143,
      "磁": 3144,
      "磅": 3145,
      "磊": 3146,
      "磋": 3147,
      "磐": 3148,
      "磕": 3149,
      "磨": 3150,
      "磬": 3151,
      "磱": 3152,
      "磷": 3153,
      "磺": 3154,
      "礁": 3155,
      "礐": 3156,
      "礴": 3157,
      "示": 3158,
      "礼": 3159,
      "社": 3160,
      "祀": 3161,
      "祁": 3162,
      "祂": 3163,
      "祇": 3164,
      "祈": 3165,
      "祉": 3166,
      "祖": 3167,
      "祛": 3168,
      "祜": 3169,
      "祝": 3170,
      "神": 3171,
      "祟": 3172,
      "祠": 3173,
      "祢": 3174,
      "祥": 3175,
      "票": 3176,
      "祭": 3177,
      "祯": 3178,
      "祷": 3179,
      "祸": 3180,
      "祺": 3181,
      "祼": 3182,
      "祾": 3183,
      "禀": 3184,
      "禁": 3185,
      "禄": 3186,
      "禅": 3187,
      "福": 3188,
      "禧": 3189,
      "禹": 3190,
      "禺": 3191,
      "离": 3192,
      "禽": 3193,
      "禾": 3194,
      "秀": 3195,
      "私": 3196,
      "秂": 3197,
      "秃": 3198,
      "秆": 3199,
      "秉": 3200,
      "秋": 3201,
      "种": 3202,
      "科": 3203,
      "秒": 3204,
      "秘": 3205,
      "租": 3206,
      "秤": 3207,
      "秦": 3208,
      "秧": 3209,
      "秩": 3210,
      "积": 3211,
      "称": 3212,
      "秸": 3213,
      "移": 3214,
      "秽": 3215,
      "稀": 3216,
      "程": 3217,
      "稍": 3218,
      "税": 3219,
      "稔": 3220,
      "稗": 3221,
      "稚": 3222,
      "稜": 3223,
      "稞": 3224,
      "稠": 3225,
      "稣": 3226,
      "稳": 3227,
      "稻": 3228,
      "稼": 3229,
      "稽": 3230,
      "稾": 3231,
      "稿": 3232,
      "穆": 3233,
      "穗": 3234,
      "穴": 3235,
      "究": 3236,
      "穷": 3237,
      "穹": 3238,
      "空": 3239,
      "穿": 3240,
      "突": 3241,
      "窃": 3242,
      "窄": 3243,
      "窈": 3244,
      "窍": 3245,
      "窑": 3246,
      "窒": 3247,
      "窕": 3248,
      "窖": 3249,
      "窗": 3250,
      "窘": 3251,
      "窜": 3252,
      "窝": 3253,
      "窟": 3254,
      "窠": 3255,
      "窥": 3256,
      "窦": 3257,
      "窭": 3258,
      "立": 3259,
      "竖": 3260,
      "站": 3261,
      "竞": 3262,
      "竟": 3263,
      "章": 3264,
      "竣": 3265,
      "童": 3266,
      "竭": 3267,
      "端": 3268,
      "竹": 3269,
      "竺": 3270,
      "竽": 3271,
      "竿": 3272,
      "笃": 3273,
      "笆": 3274,
      "笈": 3275,
      "笋": 3276,
      "笑": 3277,
      "笔": 3278,
      "笕": 3279,
      "笙": 3280,
      "笛": 3281,
      "笞": 3282,
      "笠": 3283,
      "符": 3284,
      "笨": 3285,
      "第": 3286,
      "笺": 3287,
      "笼": 3288,
      "等": 3289,
      "筋": 3290,
      "筏": 3291,
      "筐": 3292,
      "筑": 3293,
      "筒": 3294,
      "答": 3295,
      "策": 3296,
      "筛": 3297,
      "筝": 3298,
      "筠": 3299,
      "筮": 3300,
      "筵": 3301,
      "筷": 3302,
      "筹": 3303,
      "签": 3304,
      "简": 3305,
      "箍": 3306,
      "箔": 3307,
      "箕": 3308,
      "算": 3309,
      "箝": 3310,
      "管": 3311,
      "箨": 3312,
      "箫": 3313,
      "箭": 3314,
      "箱": 3315,
      "箴": 3316,
      "篆": 3317,
      "篇": 3318,
      "篑": 3319,
      "篓": 3320,
      "篝": 3321,
      "篡": 3322,
      "篪": 3323,
      "篮": 3324,
      "篱": 3325,
      "篷": 3326,
      "簇": 3327,
      "簌": 3328,
      "簧": 3329,
      "簸": 3330,
      "簿": 3331,
      "籁": 3332,
      "籍": 3333,
      "米": 3334,
      "类": 3335,
      "籼": 3336,
      "籽": 3337,
      "粉": 3338,
      "粑": 3339,
      "粒": 3340,
      "粕": 3341,
      "粗": 3342,
      "粘": 3343,
      "粟": 3344,
      "粤": 3345,
      "粥": 3346,
      "粪": 3347,
      "粮": 3348,
      "粱": 3349,
      "粲": 3350,
      "粳": 3351,
      "粹": 3352,
      "粽": 3353,
      "精": 3354,
      "糁": 3355,
      "糅": 3356,
      "糊": 3357,
      "糌": 3358,
      "糕": 3359,
      "糖": 3360,
      "糗": 3361,
      "糙": 3362,
      "糜": 3363,
      "糟": 3364,
      "糠": 3365,
      "糯": 3366,
      "系": 3367,
      "紊": 3368,
      "素": 3369,
      "索": 3370,
      "紧": 3371,
      "紫": 3372,
      "累": 3373,
      "絮": 3374,
      "継": 3375,
      "緫": 3376,
      "練": 3377,
      "繁": 3378,
      "纂": 3379,
      "纠": 3380,
      "红": 3381,
      "纤": 3382,
      "纥": 3383,
      "约": 3384,
      "级": 3385,
      "纪": 3386,
      "纫": 3387,
      "纬": 3388,
      "纭": 3389,
      "纯": 3390,
      "纱": 3391,
      "纲": 3392,
      "纳": 3393,
      "纵": 3394,
      "纶": 3395,
      "纷": 3396,
      "纸": 3397,
      "纹": 3398,
      "纺": 3399,
      "纽": 3400,
      "线": 3401,
      "绀": 3402,
      "练": 3403,
      "组": 3404,
      "绅": 3405,
      "细": 3406,
      "织": 3407,
      "终": 3408,
      "绉": 3409,
      "绊": 3410,
      "绌": 3411,
      "绍": 3412,
      "绎": 3413,
      "经": 3414,
      "绑": 3415,
      "绒": 3416,
      "结": 3417,
      "绕": 3418,
      "绗": 3419,
      "绘": 3420,
      "给": 3421,
      "绚": 3422,
      "络": 3423,
      "绝": 3424,
      "绞": 3425,
      "统": 3426,
      "绢": 3427,
      "绣": 3428,
      "绥": 3429,
      "绦": 3430,
      "继": 3431,
      "绩": 3432,
      "绪": 3433,
      "绫": 3434,
      "续": 3435,
      "绮": 3436,
      "绯": 3437,
      "绰": 3438,
      "绳": 3439,
      "维": 3440,
      "绵": 3441,
      "绷": 3442,
      "绸": 3443,
      "绺": 3444,
      "综": 3445,
      "绽": 3446,
      "绿": 3447,
      "缀": 3448,
      "缅": 3449,
      "缆": 3450,
      "缇": 3451,
      "缈": 3452,
      "缉": 3453,
      "缋": 3454,
      "缌": 3455,
      "缍": 3456,
      "缎": 3457,
      "缏": 3458,
      "缐": 3459,
      "缓": 3460,
      "缔": 3461,
      "缕": 3462,
      "编": 3463,
      "缘": 3464,
      "缚": 3465,
      "缝": 3466,
      "缠": 3467,
      "缤": 3468,
      "缥": 3469,
      "缩": 3470,
      "缪": 3471,
      "缬": 3472,
      "缭": 3473,
      "缰": 3474,
      "缴": 3475,
      "缷": 3476,
      "缸": 3477,
      "缺": 3478,
      "罂": 3479,
      "罐": 3480,
      "网": 3481,
      "罒": 3482,
      "罕": 3483,
      "罗": 3484,
      "罘": 3485,
      "罚": 3486,
      "罢": 3487,
      "罨": 3488,
      "罩": 3489,
      "罪": 3490,
      "置": 3491,
      "署": 3492,
      "罹": 3493,
      "罽": 3494,
      "罾": 3495,
      "羁": 3496,
      "羇": 3497,
      "羊": 3498,
      "羌": 3499,
      "美": 3500,
      "羓": 3501,
      "羔": 3502,
      "羙": 3503,
      "羚": 3504,
      "羞": 3505,
      "羟": 3506,
      "羡": 3507,
      "群": 3508,
      "羧": 3509,
      "羬": 3510,
      "羯": 3511,
      "羰": 3512,
      "羲": 3513,
      "羸": 3514,
      "羹": 3515,
      "羽": 3516,
      "翁": 3517,
      "翅": 3518,
      "翎": 3519,
      "翑": 3520,
      "翓": 3521,
      "翔": 3522,
      "翘": 3523,
      "翞": 3524,
      "翟": 3525,
      "翠": 3526,
      "翡": 3527,
      "翤": 3528,
      "翦": 3529,
      "翩": 3530,
      "翰": 3531,
      "翱": 3532,
      "翳": 3533,
      "翴": 3534,
      "翻": 3535,
      "翼": 3536,
      "耀": 3537,
      "老": 3538,
      "考": 3539,
      "耄": 3540,
      "者": 3541,
      "耆": 3542,
      "耋": 3543,
      "而": 3544,
      "耍": 3545,
      "耐": 3546,
      "耕": 3547,
      "耗": 3548,
      "耘": 3549,
      "耙": 3550,
      "耦": 3551,
      "耳": 3552,
      "耶": 3553,
      "耷": 3554,
      "耸": 3555,
      "耻": 3556,
      "耽": 3557,
      "耿": 3558,
      "聂": 3559,
      "聆": 3560,
      "聊": 3561,
      "聋": 3562,
      "职": 3563,
      "聒": 3564,
      "联": 3565,
      "聘": 3566,
      "聚": 3567,
      "聪": 3568,
      "聿": 3569,
      "肃": 3570,
      "肆": 3571,
      "肇": 3572,
      "肉": 3573,
      "肋": 3574,
      "肌": 3575,
      "肓": 3576,
      "肖": 3577,
      "肘": 3578,
      "肚": 3579,
      "肛": 3580,
      "肝": 3581,
      "肟": 3582,
      "肠": 3583,
      "股": 3584,
      "肢": 3585,
      "肤": 3586,
      "肥": 3587,
      "肩": 3588,
      "肪": 3589,
      "肮": 3590,
      "肯": 3591,
      "肱": 3592,
      "育": 3593,
      "肴": 3594,
      "肺": 3595,
      "肼": 3596,
      "肽": 3597,
      "肾": 3598,
      "肿": 3599,
      "胀": 3600,
      "胁": 3601,
      "胃": 3602,
      "胄": 3603,
      "胆": 3604,
      "背": 3605,
      "胍": 3606,
      "胎": 3607,
      "胖": 3608,
      "胚": 3609,
      "胛": 3610,
      "胜": 3611,
      "胝": 3612,
      "胞": 3613,
      "胡": 3614,
      "胧": 3615,
      "胫": 3616,
      "胬": 3617,
      "胭": 3618,
      "胯": 3619,
      "胰": 3620,
      "胱": 3621,
      "胳": 3622,
      "胴": 3623,
      "胶": 3624,
      "胸": 3625,
      "胺": 3626,
      "胼": 3627,
      "能": 3628,
      "脂": 3629,
      "脆": 3630,
      "脉": 3631,
      "脊": 3632,
      "脍": 3633,
      "脏": 3634,
      "脐": 3635,
      "脑": 3636,
      "脒": 3637,
      "脓": 3638,
      "脖": 3639,
      "脚": 3640,
      "脱": 3641,
      "脲": 3642,
      "脸": 3643,
      "脾": 3644,
      "腆": 3645,
      "腈": 3646,
      "腊": 3647,
      "腋": 3648,
      "腌": 3649,
      "腐": 3650,
      "腑": 3651,
      "腓": 3652,
      "腔": 3653,
      "腕": 3654,
      "腙": 3655,
      "腥": 3656,
      "腧": 3657,
      "腭": 3658,
      "腮": 3659,
      "腰": 3660,
      "腱": 3661,
      "腴": 3662,
      "腹": 3663,
      "腺": 3664,
      "腻": 3665,
      "腼": 3666,
      "腾": 3667,
      "腿": 3668,
      "膀": 3669,
      "膈": 3670,
      "膊": 3671,
      "膏": 3672,
      "膘": 3673,
      "膛": 3674,
      "膜": 3675,
      "膝": 3676,
      "膦": 3677,
      "膨": 3678,
      "膳": 3679,
      "膺": 3680,
      "臀": 3681,
      "臂": 3682,
      "臃": 3683,
      "臊": 3684,
      "臣": 3685,
      "臧": 3686,
      "臨": 3687,
      "自": 3688,
      "臭": 3689,
      "至": 3690,
      "致": 3691,
      "臻": 3692,
      "臼": 3693,
      "臾": 3694,
      "舀": 3695,
      "舅": 3696,
      "舆": 3697,
      "舌": 3698,
      "舍": 3699,
      "舐": 3700,
      "舒": 3701,
      "舔": 3702,
      "舜": 3703,
      "舞": 3704,
      "舟": 3705,
      "舢": 3706,
      "航": 3707,
      "般": 3708,
      "舰": 3709,
      "舱": 3710,
      "舵": 3711,
      "舶": 3712,
      "舷": 3713,
      "船": 3714,
      "艇": 3715,
      "艘": 3716,
      "艮": 3717,
      "良": 3718,
      "艰": 3719,
      "色": 3720,
      "艳": 3721,
      "艹": 3722,
      "艺": 3723,
      "艾": 3724,
      "艿": 3725,
      "节": 3726,
      "芊": 3727,
      "芋": 3728,
      "芍": 3729,
      "芎": 3730,
      "芒": 3731,
      "芙": 3732,
      "芜": 3733,
      "芝": 3734,
      "芥": 3735,
      "芦": 3736,
      "芨": 3737,
      "芩": 3738,
      "芪": 3739,
      "芫": 3740,
      "芬": 3741,
      "芭": 3742,
      "芮": 3743,
      "芯": 3744,
      "花": 3745,
      "芳": 3746,
      "芸": 3747,
      "芹": 3748,
      "芽": 3749,
      "苄": 3750,
      "苇": 3751,
      "苋": 3752,
      "苍": 3753,
      "苎": 3754,
      "苏": 3755,
      "苑": 3756,
      "苓": 3757,
      "苔": 3758,
      "苗": 3759,
      "苛": 3760,
      "苜": 3761,
      "苞": 3762,
      "苟": 3763,
      "苣": 3764,
      "若": 3765,
      "苦": 3766,
      "苯": 3767,
      "英": 3768,
      "苷": 3769,
      "苹": 3770,
      "茁": 3771,
      "茂": 3772,
      "范": 3773,
      "茄": 3774,
      "茅": 3775,
      "茉": 3776,
      "茎": 3777,
      "茔": 3778,
      "茗": 3779,
      "茚": 3780,
      "茜": 3781,
      "茧": 3782,
      "茨": 3783,
      "茫": 3784,
      "茬": 3785,
      "茭": 3786,
      "茯": 3787,
      "茱": 3788,
      "茴": 3789,
      "茵": 3790,
      "茶": 3791,
      "茸": 3792,
      "茹": 3793,
      "荀": 3794,
      "荆": 3795,
      "草": 3796,
      "荐": 3797,
      "荒": 3798,
      "荔": 3799,
      "荚": 3800,
      "荞": 3801,
      "荟": 3802,
      "荠": 3803,
      "荡": 3804,
      "荣": 3805,
      "荤": 3806,
      "荧": 3807,
      "荨": 3808,
      "荪": 3809,
      "荫": 3810,
      "药": 3811,
      "荷": 3812,
      "荻": 3813,
      "荼": 3814,
      "荽": 3815,
      "莂": 3816,
      "莅": 3817,
      "莉": 3818,
      "莎": 3819,
      "莓": 3820,
      "莘": 3821,
      "莞": 3822,
      "莠": 3823,
      "莨": 3824,
      "莪": 3825,
      "莫": 3826,
      "莰": 3827,
      "莱": 3828,
      "莲": 3829,
      "莳": 3830,
      "莴": 3831,
      "获": 3832,
      "莹": 3833,
      "莺": 3834,
      "莽": 3835,
      "菁": 3836,
      "菂": 3837,
      "菅": 3838,
      "菇": 3839,
      "菊": 3840,
      "菌": 3841,
      "菔": 3842,
      "菜": 3843,
      "菟": 3844,
      "菠": 3845,
      "菡": 3846,
      "菩": 3847,
      "菪": 3848,
      "菱": 3849,
      "菲": 3850,
      "菸": 3851,
      "萃": 3852,
      "萄": 3853,
      "萋": 3854,
      "萌": 3855,
      "萍": 3856,
      "萎": 3857,
      "萘": 3858,
      "萜": 3859,
      "萝": 3860,
      "萤": 3861,
      "营": 3862,
      "萦": 3863,
      "萧": 3864,
      "萨": 3865,
      "萱": 3866,
      "萸": 3867,
      "萼": 3868,
      "落": 3869,
      "葆": 3870,
      "著": 3871,
      "葛": 3872,
      "葠": 3873,
      "葡": 3874,
      "董": 3875,
      "葩": 3876,
      "葫": 3877,
      "葬": 3878,
      "葭": 3879,
      "葰": 3880,
      "葱": 3881,
      "葵": 3882,
      "葺": 3883,
      "蒂": 3884,
      "蒈": 3885,
      "蒋": 3886,
      "蒌": 3887,
      "蒐": 3888,
      "蒙": 3889,
      "蒜": 3890,
      "蒟": 3891,
      "蒲": 3892,
      "蒸": 3893,
      "蒹": 3894,
      "蒺": 3895,
      "蒻": 3896,
      "蒽": 3897,
      "蒿": 3898,
      "蓄": 3899,
      "蓉": 3900,
      "蓍": 3901,
      "蓑": 3902,
      "蓓": 3903,
      "蓖": 3904,
      "蓝": 3905,
      "蓟": 3906,
      "蓣": 3907,
      "蓬": 3908,
      "蓿": 3909,
      "蔑": 3910,
      "蔓": 3911,
      "蔗": 3912,
      "蔚": 3913,
      "蔟": 3914,
      "蔡": 3915,
      "蔬": 3916,
      "蔷": 3917,
      "蔺": 3918,
      "蔻": 3919,
      "蔼": 3920,
      "蔽": 3921,
      "蕃": 3922,
      "蕈": 3923,
      "蕉": 3924,
      "蕊": 3925,
      "蕙": 3926,
      "蕨": 3927,
      "蕴": 3928,
      "蕺": 3929,
      "蕾": 3930,
      "薄": 3931,
      "薇": 3932,
      "薏": 3933,
      "薛": 3934,
      "薪": 3935,
      "薮": 3936,
      "薯": 3937,
      "薰": 3938,
      "薹": 3939,
      "藉": 3940,
      "藏": 3941,
      "藓": 3942,
      "藕": 3943,
      "藜": 3944,
      "藤": 3945,
      "藩": 3946,
      "藻": 3947,
      "藿": 3948,
      "蘑": 3949,
      "蘖": 3950,
      "蘸": 3951,
      "虎": 3952,
      "虏": 3953,
      "虐": 3954,
      "虑": 3955,
      "虔": 3956,
      "虚": 3957,
      "虫": 3958,
      "虱": 3959,
      "虹": 3960,
      "虽": 3961,
      "虾": 3962,
      "蚀": 3963,
      "蚁": 3964,
      "蚂": 3965,
      "蚊": 3966,
      "蚋": 3967,
      "蚌": 3968,
      "蚓": 3969,
      "蚕": 3970,
      "蚜": 3971,
      "蚝": 3972,
      "蚤": 3973,
      "蚯": 3974,
      "蚱": 3975,
      "蚴": 3976,
      "蚶": 3977,
      "蛀": 3978,
      "蛆": 3979,
      "蛇": 3980,
      "蛉": 3981,
      "蛊": 3982,
      "蛋": 3983,
      "蛎": 3984,
      "蛔": 3985,
      "蛙": 3986,
      "蛛": 3987,
      "蛞": 3988,
      "蛟": 3989,
      "蛤": 3990,
      "蛭": 3991,
      "蛮": 3992,
      "蛰": 3993,
      "蛹": 3994,
      "蛾": 3995,
      "蜀": 3996,
      "蜂": 3997,
      "蜃": 3998,
      "蜇": 3999,
      "蜊": 4000,
      "蜍": 4001,
      "蜒": 4002,
      "蜓": 4003,
      "蜕": 4004,
      "蜗": 4005,
      "蜘": 4006,
      "蜜": 4007,
      "蜡": 4008,
      "蜢": 4009,
      "蜥": 4010,
      "蜴": 4011,
      "蜷": 4012,
      "蜻": 4013,
      "蜿": 4014,
      "蝇": 4015,
      "蝈": 4016,
      "蝉": 4017,
      "蝎": 4018,
      "蝓": 4019,
      "蝗": 4020,
      "蝙": 4021,
      "蝠": 4022,
      "蝥": 4023,
      "蝮": 4024,
      "蝴": 4025,
      "蝶": 4026,
      "蝽": 4027,
      "螂": 4028,
      "螃": 4029,
      "螅": 4030,
      "融": 4031,
      "螚": 4032,
      "螟": 4033,
      "螨": 4034,
      "螫": 4035,
      "螭": 4036,
      "螯": 4037,
      "螳": 4038,
      "螺": 4039,
      "蟀": 4040,
      "蟋": 4041,
      "蟑": 4042,
      "蟒": 4043,
      "蟥": 4044,
      "蟹": 4045,
      "蟾": 4046,
      "蠊": 4047,
      "蠕": 4048,
      "蠢": 4049,
      "蠲": 4050,
      "血": 4051,
      "衅": 4052,
      "行": 4053,
      "衍": 4054,
      "衔": 4055,
      "街": 4056,
      "衡": 4057,
      "衢": 4058,
      "衣": 4059,
      "补": 4060,
      "表": 4061,
      "衩": 4062,
      "衫": 4063,
      "衬": 4064,
      "衮": 4065,
      "衰": 4066,
      "衲": 4067,
      "衷": 4068,
      "袁": 4069,
      "袄": 4070,
      "袅": 4071,
      "袈": 4072,
      "袋": 4073,
      "袍": 4074,
      "袒": 4075,
      "袖": 4076,
      "袗": 4077,
      "袜": 4078,
      "袤": 4079,
      "被": 4080,
      "袭": 4081,
      "裁": 4082,
      "裂": 4083,
      "装": 4084,
      "裑": 4085,
      "裔": 4086,
      "裕": 4087,
      "裘": 4088,
      "裙": 4089,
      "裟": 4090,
      "裡": 4091,
      "裤": 4092,
      "裨": 4093,
      "裱": 4094,
      "裳": 4095,
      "裴": 4096,
      "裸": 4097,
      "裹": 4098,
      "褐": 4099,
      "褒": 4100,
      "褓": 4101,
      "褙": 4102,
      "褚": 4103,
      "褛": 4104,
      "褥": 4105,
      "褪": 4106,
      "褴": 4107,
      "褶": 4108,
      "襁": 4109,
      "襄": 4110,
      "襟": 4111,
      "西": 4112,
      "要": 4113,
      "覆": 4114,
      "见": 4115,
      "观": 4116,
      "规": 4117,
      "觅": 4118,
      "视": 4119,
      "览": 4120,
      "觉": 4121,
      "觊": 4122,
      "觎": 4123,
      "觐": 4124,
      "觑": 4125,
      "角": 4126,
      "觞": 4127,
      "解": 4128,
      "触": 4129,
      "言": 4130,
      "詹": 4131,
      "誉": 4132,
      "誊": 4133,
      "誓": 4134,
      "論": 4135,
      "諾": 4136,
      "謇": 4137,
      "識": 4138,
      "警": 4139,
      "譬": 4140,
      "计": 4141,
      "订": 4142,
      "讣": 4143,
      "认": 4144,
      "讥": 4145,
      "讧": 4146,
      "讨": 4147,
      "让": 4148,
      "讫": 4149,
      "讬": 4150,
      "训": 4151,
      "议": 4152,
      "讯": 4153,
      "记": 4154,
      "讲": 4155,
      "讳": 4156,
      "讴": 4157,
      "讶": 4158,
      "讷": 4159,
      "许": 4160,
      "论": 4161,
      "讼": 4162,
      "讽": 4163,
      "设": 4164,
      "访": 4165,
      "诀": 4166,
      "证": 4167,
      "评": 4168,
      "诅": 4169,
      "识": 4170,
      "诈": 4171,
      "诉": 4172,
      "诊": 4173,
      "诋": 4174,
      "词": 4175,
      "译": 4176,
      "诓": 4177,
      "试": 4178,
      "诗": 4179,
      "诙": 4180,
      "诚": 4181,
      "话": 4182,
      "诞": 4183,
      "诟": 4184,
      "诠": 4185,
      "诡": 4186,
      "询": 4187,
      "诣": 4188,
      "该": 4189,
      "详": 4190,
      "诧": 4191,
      "诨": 4192,
      "诫": 4193,
      "诬": 4194,
      "语": 4195,
      "诮": 4196,
      "误": 4197,
      "诱": 4198,
      "说": 4199,
      "诵": 4200,
      "诶": 4201,
      "请": 4202,
      "诸": 4203,
      "诺": 4204,
      "读": 4205,
      "诽": 4206,
      "课": 4207,
      "谀": 4208,
      "谁": 4209,
      "调": 4210,
      "谄": 4211,
      "谅": 4212,
      "谆": 4213,
      "谈": 4214,
      "谊": 4215,
      "谋": 4216,
      "谍": 4217,
      "谎": 4218,
      "谏": 4219,
      "谐": 4220,
      "谑": 4221,
      "谒": 4222,
      "谓": 4223,
      "谔": 4224,
      "谕": 4225,
      "谗": 4226,
      "谘": 4227,
      "谙": 4228,
      "谚": 4229,
      "谜": 4230,
      "谟": 4231,
      "谢": 4232,
      "谣": 4233,
      "谤": 4234,
      "谦": 4235,
      "谧": 4236,
      "谨": 4237,
      "谩": 4238,
      "谪": 4239,
      "谬": 4240,
      "谭": 4241,
      "谰": 4242,
      "谱": 4243,
      "谴": 4244,
      "谷": 4245,
      "豁": 4246,
      "豆": 4247,
      "豇": 4248,
      "豌": 4249,
      "豚": 4250,
      "象": 4251,
      "豢": 4252,
      "豪": 4253,
      "豫": 4254,
      "豹": 4255,
      "豺": 4256,
      "貂": 4257,
      "貌": 4258,
      "贝": 4259,
      "贞": 4260,
      "负": 4261,
      "贡": 4262,
      "财": 4263,
      "责": 4264,
      "贤": 4265,
      "败": 4266,
      "账": 4267,
      "货": 4268,
      "质": 4269,
      "贩": 4270,
      "贪": 4271,
      "贫": 4272,
      "贬": 4273,
      "购": 4274,
      "贮": 4275,
      "贯": 4276,
      "贱": 4277,
      "贲": 4278,
      "贴": 4279,
      "贵": 4280,
      "贷": 4281,
      "贸": 4282,
      "费": 4283,
      "贺": 4284,
      "贻": 4285,
      "贼": 4286,
      "贽": 4287,
      "贾": 4288,
      "贿": 4289,
      "赁": 4290,
      "赂": 4291,
      "赃": 4292,
      "资": 4293,
      "赅": 4294,
      "赈": 4295,
      "赋": 4296,
      "赌": 4297,
      "赎": 4298,
      "赏": 4299,
      "赐": 4300,
      "赔": 4301,
      "赖": 4302,
      "赘": 4303,
      "赚": 4304,
      "赛": 4305,
      "赝": 4306,
      "赞": 4307,
      "赠": 4308,
      "赢": 4309,
      "赣": 4310,
      "赤": 4311,
      "赦": 4312,
      "赫": 4313,
      "走": 4314,
      "赴": 4315,
      "赵": 4316,
      "赶": 4317,
      "起": 4318,
      "趁": 4319,
      "超": 4320,
      "越": 4321,
      "趋": 4322,
      "趟": 4323,
      "趣": 4324,
      "足": 4325,
      "趴": 4326,
      "趼": 4327,
      "趾": 4328,
      "跃": 4329,
      "跋": 4330,
      "跌": 4331,
      "跎": 4332,
      "跑": 4333,
      "跖": 4334,
      "跗": 4335,
      "跚": 4336,
      "跛": 4337,
      "距": 4338,
      "跟": 4339,
      "跣": 4340,
      "跤": 4341,
      "跨": 4342,
      "跪": 4343,
      "路": 4344,
      "跳": 4345,
      "践": 4346,
      "跺": 4347,
      "跻": 4348,
      "踊": 4349,
      "踌": 4350,
      "踏": 4351,
      "踝": 4352,
      "踞": 4353,
      "踢": 4354,
      "踩": 4355,
      "踪": 4356,
      "踮": 4357,
      "踵": 4358,
      "踹": 4359,
      "蹀": 4360,
      "蹂": 4361,
      "蹄": 4362,
      "蹈": 4363,
      "蹉": 4364,
      "蹑": 4365,
      "蹒": 4366,
      "蹙": 4367,
      "蹦": 4368,
      "蹩": 4369,
      "蹭": 4370,
      "蹲": 4371,
      "蹴": 4372,
      "蹶": 4373,
      "蹿": 4374,
      "躁": 4375,
      "躇": 4376,
      "躏": 4377,
      "躞": 4378,
      "身": 4379,
      "躬": 4380,
      "躯": 4381,
      "躲": 4382,
      "躺": 4383,
      "車": 4384,
      "车": 4385,
      "轧": 4386,
      "轨": 4387,
      "轩": 4388,
      "轫": 4389,
      "转": 4390,
      "轭": 4391,
      "轮": 4392,
      "软": 4393,
      "轰": 4394,
      "轴": 4395,
      "轶": 4396,
      "轻": 4397,
      "轼": 4398,
      "载": 4399,
      "轿": 4400,
      "较": 4401,
      "辄": 4402,
      "辅": 4403,
      "辆": 4404,
      "辈": 4405,
      "辉": 4406,
      "辊": 4407,
      "辍": 4408,
      "辐": 4409,
      "辑": 4410,
      "输": 4411,
      "辕": 4412,
      "辖": 4413,
      "辘": 4414,
      "辙": 4415,
      "辛": 4416,
      "辜": 4417,
      "辞": 4418,
      "辟": 4419,
      "辣": 4420,
      "辨": 4421,
      "辩": 4422,
      "辫": 4423,
      "辰": 4424,
      "辱": 4425,
      "边": 4426,
      "辽": 4427,
      "达": 4428,
      "迁": 4429,
      "迂": 4430,
      "迄": 4431,
      "迅": 4432,
      "过": 4433,
      "迈": 4434,
      "迎": 4435,
      "运": 4436,
      "近": 4437,
      "返": 4438,
      "还": 4439,
      "这": 4440,
      "进": 4441,
      "远": 4442,
      "违": 4443,
      "连": 4444,
      "迟": 4445,
      "迥": 4446,
      "迦": 4447,
      "迩": 4448,
      "迪": 4449,
      "迫": 4450,
      "迭": 4451,
      "述": 4452,
      "迳": 4453,
      "迴": 4454,
      "迷": 4455,
      "迸": 4456,
      "迹": 4457,
      "迺": 4458,
      "追": 4459,
      "退": 4460,
      "送": 4461,
      "适": 4462,
      "逃": 4463,
      "逅": 4464,
      "逆": 4465,
      "选": 4466,
      "逊": 4467,
      "逍": 4468,
      "透": 4469,
      "逐": 4470,
      "递": 4471,
      "途": 4472,
      "逗": 4473,
      "通": 4474,
      "逛": 4475,
      "逝": 4476,
      "逞": 4477,
      "速": 4478,
      "造": 4479,
      "逡": 4480,
      "逢": 4481,
      "連": 4482,
      "逨": 4483,
      "逮": 4484,
      "逸": 4485,
      "逹": 4486,
      "逻": 4487,
      "逼": 4488,
      "逾": 4489,
      "遁": 4490,
      "遂": 4491,
      "遄": 4492,
      "遇": 4493,
      "遍": 4494,
      "遏": 4495,
      "遐": 4496,
      "遑": 4497,
      "道": 4498,
      "遗": 4499,
      "遛": 4500,
      "遢": 4501,
      "遣": 4502,
      "遥": 4503,
      "遨": 4504,
      "遭": 4505,
      "遮": 4506,
      "遵": 4507,
      "避": 4508,
      "邀": 4509,
      "邂": 4510,
      "邃": 4511,
      "邋": 4512,
      "邑": 4513,
      "邓": 4514,
      "邢": 4515,
      "那": 4516,
      "邦": 4517,
      "邪": 4518,
      "邮": 4519,
      "邯": 4520,
      "邱": 4521,
      "邳": 4522,
      "邵": 4523,
      "邸": 4524,
      "邹": 4525,
      "邻": 4526,
      "郁": 4527,
      "郊": 4528,
      "郎": 4529,
      "郑": 4530,
      "郝": 4531,
      "郡": 4532,
      "郢": 4533,
      "部": 4534,
      "郭": 4535,
      "郴": 4536,
      "郸": 4537,
      "都": 4538,
      "鄂": 4539,
      "鄙": 4540,
      "鄞": 4541,
      "酊": 4542,
      "酋": 4543,
      "酌": 4544,
      "配": 4545,
      "酐": 4546,
      "酒": 4547,
      "酗": 4548,
      "酚": 4549,
      "酝": 4550,
      "酞": 4551,
      "酣": 4552,
      "酥": 4553,
      "酩": 4554,
      "酪": 4555,
      "酬": 4556,
      "酮": 4557,
      "酯": 4558,
      "酰": 4559,
      "酱": 4560,
      "酵": 4561,
      "酶": 4562,
      "酷": 4563,
      "酸": 4564,
      "酿": 4565,
      "醅": 4566,
      "醇": 4567,
      "醉": 4568,
      "醋": 4569,
      "醌": 4570,
      "醒": 4571,
      "醚": 4572,
      "醛": 4573,
      "醯": 4574,
      "醺": 4575,
      "釆": 4576,
      "采": 4577,
      "釉": 4578,
      "释": 4579,
      "里": 4580,
      "重": 4581,
      "野": 4582,
      "量": 4583,
      "金": 4584,
      "釜": 4585,
      "鉆": 4586,
      "鉴": 4587,
      "鍊": 4588,
      "鏖": 4589,
      "鑀": 4590,
      "鑑": 4591,
      "鑫": 4592,
      "钇": 4593,
      "针": 4594,
      "钉": 4595,
      "钊": 4596,
      "钒": 4597,
      "钓": 4598,
      "钕": 4599,
      "钗": 4600,
      "钙": 4601,
      "钚": 4602,
      "钛": 4603,
      "钜": 4604,
      "钝": 4605,
      "钞": 4606,
      "钟": 4607,
      "钠": 4608,
      "钡": 4609,
      "钢": 4610,
      "钣": 4611,
      "钥": 4612,
      "钦": 4613,
      "钨": 4614,
      "钩": 4615,
      "钮": 4616,
      "钯": 4617,
      "钰": 4618,
      "钱": 4619,
      "钳": 4620,
      "钴": 4621,
      "钵": 4622,
      "钻": 4623,
      "钼": 4624,
      "钽": 4625,
      "钾": 4626,
      "铀": 4627,
      "铁": 4628,
      "铂": 4629,
      "铃": 4630,
      "铄": 4631,
      "铅": 4632,
      "铇": 4633,
      "铈": 4634,
      "铉": 4635,
      "铌": 4636,
      "铎": 4637,
      "铐": 4638,
      "铙": 4639,
      "铛": 4640,
      "铜": 4641,
      "铝": 4642,
      "铟": 4643,
      "铠": 4644,
      "铣": 4645,
      "铪": 4646,
      "铬": 4647,
      "铭": 4648,
      "铮": 4649,
      "铯": 4650,
      "铰": 4651,
      "铲": 4652,
      "铵": 4653,
      "银": 4654,
      "铸": 4655,
      "铹": 4656,
      "铺": 4657,
      "链": 4658,
      "铿": 4659,
      "销": 4660,
      "锁": 4661,
      "锂": 4662,
      "锄": 4663,
      "锅": 4664,
      "锆": 4665,
      "锈": 4666,
      "锉": 4667,
      "锋": 4668,
      "锌": 4669,
      "锐": 4670,
      "锑": 4671,
      "锕": 4672,
      "锗": 4673,
      "错": 4674,
      "锚": 4675,
      "锝": 4676,
      "锡": 4677,
      "锣": 4678,
      "锤": 4679,
      "锥": 4680,
      "锦": 4681,
      "锭": 4682,
      "键": 4683,
      "锯": 4684,
      "锰": 4685,
      "锴": 4686,
      "锵": 4687,
      "锷": 4688,
      "锹": 4689,
      "锺": 4690,
      "锻": 4691,
      "镀": 4692,
      "镁": 4693,
      "镇": 4694,
      "镉": 4695,
      "镌": 4696,
      "镍": 4697,
      "镑": 4698,
      "镓": 4699,
      "镖": 4700,
      "镗": 4701,
      "镜": 4702,
      "镦": 4703,
      "镧": 4704,
      "镫": 4705,
      "镬": 4706,
      "镯": 4707,
      "镰": 4708,
      "镳": 4709,
      "镶": 4710,
      "长": 4711,
      "閒": 4712,
      "闆": 4713,
      "门": 4714,
      "闩": 4715,
      "闪": 4716,
      "闭": 4717,
      "问": 4718,
      "闯": 4719,
      "闲": 4720,
      "间": 4721,
      "闵": 4722,
      "闷": 4723,
      "闸": 4724,
      "闹": 4725,
      "闺": 4726,
      "闻": 4727,
      "闽": 4728,
      "阀": 4729,
      "阁": 4730,
      "阂": 4731,
      "阅": 4732,
      "阈": 4733,
      "阉": 4734,
      "阎": 4735,
      "阐": 4736,
      "阔": 4737,
      "阖": 4738,
      "阜": 4739,
      "队": 4740,
      "阡": 4741,
      "阪": 4742,
      "阮": 4743,
      "阱": 4744,
      "防": 4745,
      "阳": 4746,
      "阴": 4747,
      "阵": 4748,
      "阶": 4749,
      "阻": 4750,
      "阿": 4751,
      "陀": 4752,
      "附": 4753,
      "际": 4754,
      "陆": 4755,
      "陇": 4756,
      "陈": 4757,
      "陋": 4758,
      "陌": 4759,
      "降": 4760,
      "限": 4761,
      "陕": 4762,
      "陛": 4763,
      "陡": 4764,
      "院": 4765,
      "除": 4766,
      "陨": 4767,
      "险": 4768,
      "陪": 4769,
      "陲": 4770,
      "陵": 4771,
      "陶": 4772,
      "陷": 4773,
      "隅": 4774,
      "隆": 4775,
      "隋": 4776,
      "隍": 4777,
      "随": 4778,
      "隐": 4779,
      "隔": 4780,
      "隘": 4781,
      "隙": 4782,
      "障": 4783,
      "隧": 4784,
      "隶": 4785,
      "隼": 4786,
      "隽": 4787,
      "难": 4788,
      "雀": 4789,
      "雁": 4790,
      "雄": 4791,
      "雅": 4792,
      "集": 4793,
      "雇": 4794,
      "雉": 4795,
      "雌": 4796,
      "雍": 4797,
      "雎": 4798,
      "雏": 4799,
      "雕": 4800,
      "雨": 4801,
      "雪": 4802,
      "雯": 4803,
      "雳": 4804,
      "零": 4805,
      "雷": 4806,
      "雹": 4807,
      "雾": 4808,
      "需": 4809,
      "霄": 4810,
      "霆": 4811,
      "震": 4812,
      "霉": 4813,
      "霍": 4814,
      "霎": 4815,
      "霏": 4816,
      "霓": 4817,
      "霖": 4818,
      "霜": 4819,
      "霞": 4820,
      "霭": 4821,
      "露": 4822,
      "霸": 4823,
      "霹": 4824,
      "霾": 4825,
      "靈": 4826,
      "青": 4827,
      "靓": 4828,
      "靖": 4829,
      "静": 4830,
      "靛": 4831,
      "非": 4832,
      "靠": 4833,
      "靡": 4834,
      "面": 4835,
      "靥": 4836,
      "革": 4837,
      "靴": 4838,
      "靶": 4839,
      "靼": 4840,
      "鞋": 4841,
      "鞍": 4842,
      "鞑": 4843,
      "鞘": 4844,
      "鞠": 4845,
      "鞣": 4846,
      "鞭": 4847,
      "韦": 4848,
      "韧": 4849,
      "韩": 4850,
      "韫": 4851,
      "韭": 4852,
      "音": 4853,
      "韵": 4854,
      "韶": 4855,
      "領": 4856,
      "页": 4857,
      "顶": 4858,
      "顷": 4859,
      "项": 4860,
      "顺": 4861,
      "须": 4862,
      "顽": 4863,
      "顾": 4864,
      "顿": 4865,
      "颁": 4866,
      "颂": 4867,
      "预": 4868,
      "颅": 4869,
      "领": 4870,
      "颇": 4871,
      "颈": 4872,
      "颉": 4873,
      "颊": 4874,
      "颌": 4875,
      "颐": 4876,
      "频": 4877,
      "颓": 4878,
      "颖": 4879,
      "颗": 4880,
      "题": 4881,
      "颚": 4882,
      "颜": 4883,
      "额": 4884,
      "颞": 4885,
      "颠": 4886,
      "颡": 4887,
      "颤": 4888,
      "颦": 4889,
      "颧": 4890,
      "风": 4891,
      "飒": 4892,
      "飓": 4893,
      "飕": 4894,
      "飘": 4895,
      "飙": 4896,
      "飞": 4897,
      "食": 4898,
      "飨": 4899,
      "餐": 4900,
      "饥": 4901,
      "饨": 4902,
      "饪": 4903,
      "饭": 4904,
      "饮": 4905,
      "饯": 4906,
      "饰": 4907,
      "饱": 4908,
      "饲": 4909,
      "饵": 4910,
      "饶": 4911,
      "饺": 4912,
      "饼": 4913,
      "饽": 4914,
      "饿": 4915,
      "馀": 4916,
      "馁": 4917,
      "馄": 4918,
      "馅": 4919,
      "馆": 4920,
      "馈": 4921,
      "馋": 4922,
      "馏": 4923,
      "馑": 4924,
      "馒": 4925,
      "馕": 4926,
      "首": 4927,
      "馗": 4928,
      "香": 4929,
      "馥": 4930,
      "馨": 4931,
      "马": 4932,
      "驮": 4933,
      "驯": 4934,
      "驰": 4935,
      "驱": 4936,
      "驳": 4937,
      "驴": 4938,
      "驶": 4939,
      "驹": 4940,
      "驻": 4941,
      "驼": 4942,
      "驾": 4943,
      "驿": 4944,
      "骁": 4945,
      "骂": 4946,
      "骄": 4947,
      "骆": 4948,
      "骇": 4949,
      "骈": 4950,
      "骋": 4951,
      "验": 4952,
      "骏": 4953,
      "骑": 4954,
      "骗": 4955,
      "骚": 4956,
      "骝": 4957,
      "骠": 4958,
      "骡": 4959,
      "骤": 4960,
      "骨": 4961,
      "骰": 4962,
      "骶": 4963,
      "骷": 4964,
      "骸": 4965,
      "骹": 4966,
      "骺": 4967,
      "骼": 4968,
      "髂": 4969,
      "髅": 4970,
      "髋": 4971,
      "髌": 4972,
      "髓": 4973,
      "高": 4974,
      "髦": 4975,
      "髭": 4976,
      "髯": 4977,
      "髻": 4978,
      "鬃": 4979,
      "鬓": 4980,
      "鬣": 4981,
      "鬻": 4982,
      "鬼": 4983,
      "魁": 4984,
      "魂": 4985,
      "魄": 4986,
      "魅": 4987,
      "魆": 4988,
      "魇": 4989,
      "魏": 4990,
      "魔": 4991,
      "鯥": 4992,
      "鱆": 4993,
      "鱼": 4994,
      "鱿": 4995,
      "鲁": 4996,
      "鲆": 4997,
      "鲇": 4998,
      "鲈": 4999,
      "鲍": 5000,
      "鲎": 5001,
      "鲑": 5002,
      "鲔": 5003,
      "鲛": 5004,
      "鲜": 5005,
      "鲟": 5006,
      "鲠": 5007,
      "鲡": 5008,
      "鲣": 5009,
      "鲤": 5010,
      "鲨": 5011,
      "鲫": 5012,
      "鲱": 5013,
      "鲲": 5014,
      "鲳": 5015,
      "鲷": 5016,
      "鲸": 5017,
      "鲼": 5018,
      "鳃": 5019,
      "鳄": 5020,
      "鳌": 5021,
      "鳍": 5022,
      "鳏": 5023,
      "鳔": 5024,
      "鳕": 5025,
      "鳖": 5026,
      "鳗": 5027,
      "鳙": 5028,
      "鳞": 5029,
      "鳟": 5030,
      "鸟": 5031,
      "鸠": 5032,
      "鸡": 5033,
      "鸣": 5034,
      "鸥": 5035,
      "鸦": 5036,
      "鸪": 5037,
      "鸬": 5038,
      "鸭": 5039,
      "鸮": 5040,
      "鸯": 5041,
      "鸱": 5042,
      "鸳": 5043,
      "鸵": 5044,
      "鸽": 5045,
      "鸾": 5046,
      "鸿": 5047,
      "鹃": 5048,
      "鹅": 5049,
      "鹉": 5050,
      "鹊": 5051,
      "鹌": 5052,
      "鹎": 5053,
      "鹏": 5054,
      "鹑": 5055,
      "鹘": 5056,
      "鹚": 5057,
      "鹜": 5058,
      "鹟": 5059,
      "鹣": 5060,
      "鹤": 5061,
      "鹦": 5062,
      "鹧": 5063,
      "鹩": 5064,
      "鹪": 5065,
      "鹫": 5066,
      "鹬": 5067,
      "鹭": 5068,
      "鹰": 5069,
      "鹳": 5070,
      "鹿": 5071,
      "麋": 5072,
      "麒": 5073,
      "麓": 5074,
      "麝": 5075,
      "麟": 5076,
      "麦": 5077,
      "麻": 5078,
      "麽": 5079,
      "麾": 5080,
      "黄": 5081,
      "黉": 5082,
      "黍": 5083,
      "黎": 5084,
      "黏": 5085,
      "黑": 5086,
      "黒": 5087,
      "黔": 5088,
      "默": 5089,
      "黛": 5090,
      "黜": 5091,
      "黝": 5092,
      "黯": 5093,
      "黴": 5094,
      "鼎": 5095,
      "鼐": 5096,
      "鼓": 5097,
      "鼠": 5098,
      "鼩": 5099,
      "鼬": 5100,
      "鼱": 5101,
      "鼷": 5102,
      "鼻": 5103,
      "鼾": 5104,
      "齉": 5105,
      "齐": 5106,
      "齿": 5107,
      "龄": 5108,
      "龈": 5109,
      "龋": 5110,
      "龙": 5111,
      "龚": 5112,
      "龛": 5113,
      "龟": 5114,
      "ꄘ": 5115,
      "︰": 5116,
      "﹐": 5117,
      "﹑": 5118,
      "﹒": 5119,
      "﹕": 5120,
      "！": 5121,
      "＂": 5122,
      "＄": 5123,
      "％": 5124,
      "（": 5125,
      "）": 5126,
      "，": 5127,
      "．": 5128,
      "／": 5129,
      "０": 5130,
      "１": 5131,
      "２": 5132,
      "３": 5133,
      "４": 5134,
      "５": 5135,
      "：": 5136,
      "；": 5137,
      "＜": 5138,
      "＝": 5139,
      "＞": 5140,
      "？": 5141,
      "［": 5142,
      "］": 5143,
      "｀": 5144,
      "ａ": 5145,
      "ｂ": 5146,
      "ｃ": 5147,
      "ｓ": 5148,
      "～": 5149,
      "｢": 5150,
      "｣": 5151,
      "�": 5152,
      "一个": 5153,
      "我们": 5154,
      "他们": 5155,
      "可以": 5156,
      "研究": 5157,
      "进行": 5158,
      "00": 5159,
      "方法": 5160,
      "中国": 5161,
      "这个": 5162,
      "系统": 5163,
      "没有": 5164,
      "公司": 5165,
      "问题": 5166,
      "使用": 5167,
      "可能": 5168,
      "一种": 5169,
      "工作": 5170,
      "这些": 5171,
      "分析": 5172,
      "如果": 5173,
      "美国": 5174,
      "自己": 5175,
      "通过": 5176,
      "中的": 5177,
      "发展": 5178,
      "因为": 5179,
      "设计": 5180,
      "但是": 5181,
      "技术": 5182,
      "提供": 5183,
      "已经": 5184,
      "他的": 5185,
      "影响": 5186,
      "的人": 5187,
      "应用": 5188,
      "一些": 5189,
      "需要": 5190,
      "结果": 5191,
      "以及": 5192,
      "主要": 5193,
      "时间": 5194,
      "就是": 5195,
      "现在": 5196,
      "目的": 5197,
      "本文": 5198,
      "什么": 5199,
      "世界": 5200,
      "具有": 5201,
      "经济": 5202,
      "国家": 5203,
      "数据": 5204,
      "的一": 5205,
      "所有": 5206,
      "不同": 5207,
      "部分": 5208,
      "出了": 5209,
      "服务": 5210,
      "结构": 5211,
      "你的": 5212,
      "这样": 5213,
      "这种": 5214,
      "er": 5215,
      "控制": 5216,
      "200": 5217,
      "重要": 5218,
      "过程": 5219,
      "19": 5220,
      "开始": 5221,
      "我的": 5222,
      "in": 5223,
      "时候": 5224,
      "采用": 5225,
      "作用": 5226,
      "认为": 5227,
      "方面": 5228,
      "大的": 5229,
      "——": 5230,
      "作为": 5231,
      "产品": 5232,
      "发现": 5233,
      "上的": 5234,
      "好的": 5235,
      "10": 5236,
      "其他": 5237,
      "管理": 5238,
      "到了": 5239,
      "成为": 5240,
      "这是": 5241,
      "人的": 5242,
      "政府": 5243,
      "知道": 5244,
      "这一": 5245,
      "处理": 5246,
      "组织": 5247,
      "包括": 5248,
      "生活": 5249,
      "20": 5250,
      "发生": 5251,
      "市场": 5252,
      "生产": 5253,
      "同时": 5254,
      "对于": 5255,
      "介绍": 5256,
      "关系": 5257,
      "进行了": 5258,
      "或者": 5259,
      "非常": 5260,
      "情况": 5261,
      "存在": 5262,
      "信息": 5263,
      "模型": 5264,
      "：“": 5265,
      "必须": 5266,
      "an": 5267,
      "选择": 5268,
      "计算": 5269,
      "任何": 5270,
      "治疗": 5271,
      "了一": 5272,
      "人们": 5273,
      "它们": 5274,
      "社会": 5275,
      "新的": 5276,
      "企业": 5277,
      "表明": 5278,
      "细胞": 5279,
      "用于": 5280,
      "。”": 5281,
      "是一个": 5282,
      "功能": 5283,
      "那些": 5284,
      "ar": 5285,
      "不能": 5286,
      "之间": 5287,
      "表示": 5288,
      "利用": 5289,
      "学生": 5290,
      "地区": 5291,
      "两个": 5292,
      "产生": 5293,
      "提高": 5294,
      "然后": 5295,
      "环境": 5296,
      "要求": 5297,
      "不会": 5298,
      "来的": 5299,
      "on": 5300,
      "有效": 5301,
      "第一": 5302,
      "实现": 5303,
      "网络": 5304,
      "安全": 5305,
      "能够": 5306,
      "性的": 5307,
      "基础": 5308,
      "建立": 5309,
      "得到": 5310,
      "是一": 5311,
      "理论": 5312,
      "很多": 5313,
      "正在": 5314,
      "的时候": 5315,
      "并且": 5316,
      "探讨": 5317,
      "计划": 5318,
      "许多": 5319,
      "孩子": 5320,
      "因此": 5321,
      "如何": 5322,
      "所以": 5323,
      "为了": 5324,
      "显示": 5325,
      "由于": 5326,
      "相关": 5327,
      "程序": 5328,
      "应该": 5329,
      "自己的": 5330,
      "的影响": 5331,
      "目前": 5332,
      "中心": 5333,
      "我们的": 5334,
      "地方": 5335,
      "运动": 5336,
      "实验": 5337,
      "教育": 5338,
      "根据": 5339,
      "而且": 5340,
      "起来": 5341,
      "他们的": 5342,
      "大学": 5343,
      "希望": 5344,
      "获得": 5345,
      "美元": 5346,
      "方式": 5347,
      "）。": 5348,
      "支持": 5349,
      "能力": 5350,
      "变化": 5351,
      "的是": 5352,
      "之一": 5353,
      "文化": 5354,
      "定的": 5355,
      "开发": 5356,
      "科学": 5357,
      "国际": 5358,
      "有一": 5359,
      "st": 5360,
      "or": 5361,
      "”。": 5362,
      "基于": 5363,
      "还是": 5364,
      "活动": 5365,
      "测试": 5366,
      "量的": 5367,
      "一样": 5368,
      "那么": 5369,
      "出现": 5370,
      "在一": 5371,
      "用户": 5372,
      "城市": 5373,
      "之后": 5374,
      "增加": 5375,
      "提出了": 5376,
      "看到": 5377,
      "最后": 5378,
      "你们": 5379,
      "喜欢": 5380,
      "有关": 5381,
      "生物": 5382,
      "结论": 5383,
      "是在": 5384,
      "形成": 5385,
      "le": 5386,
      "其中": 5387,
      "效果": 5388,
      "性能": 5389,
      "历史": 5390,
      "原因": 5391,
      "提出": 5392,
      "投资": 5393,
      "帮助": 5394,
      "第二": 5395,
      "at": 5396,
      "这里": 5397,
      "设备": 5398,
      "材料": 5399,
      "目标": 5400,
      "是否": 5401,
      "标准": 5402,
      "项目": 5403,
      "价值": 5404,
      "工程": 5405,
      "解决": 5406,
      "东西": 5407,
      "人员": 5408,
      "实际": 5409,
      "来自": 5410,
      "电子": 5411,
      "都是": 5412,
      "比较": 5413,
      "基本": 5414,
      "年的": 5415,
      "更多": 5416,
      "”，": 5417,
      "en": 5418,
      "传统": 5419,
      "反应": 5420,
      "模式": 5421,
      "--": 5422,
      "患者": 5423,
      "条件": 5424,
      "的大": 5425,
      "行为": 5426,
      "讨论": 5427,
      "介绍了": 5428,
      "一直": 5429,
      "主义": 5430,
      "因素": 5431,
      "还有": 5432,
      "健康": 5433,
      "调查": 5434,
      "朋友": 5435,
      "资源": 5436,
      "意义": 5437,
      "的事": 5438,
      "英国": 5439,
      "个人": 5440,
      "保护": 5441,
      "她的": 5442,
      "的方法": 5443,
      "随着": 5444,
      "我国": 5445,
      "试验": 5446,
      "也是": 5447,
      "今天": 5448,
      "成功": 5449,
      "甚至": 5450,
      "内容": 5451,
      "来说": 5452,
      "银行": 5453,
      "的一个": 5454,
      "只有": 5455,
      "学习": 5456,
      "各种": 5457,
      "关于": 5458,
      "空间": 5459,
      "，“": 5460,
      "然而": 5461,
      "如果你": 5462,
      "不过": 5463,
      "文件": 5464,
      "），": 5465,
      "观察": 5466,
      "质量": 5467,
      "系统的": 5468,
      "了解": 5469,
      "了一个": 5470,
      "拥有": 5471,
      "方案": 5472,
      "度的": 5473,
      "特别": 5474,
      "结合": 5475,
      "告诉": 5476,
      "接受": 5477,
      "自然": 5478,
      "re": 5479,
      "体的": 5480,
      "艺术": 5481,
      "只是": 5482,
      "改变": 5483,
      "水平": 5484,
      "12": 5485,
      "之前": 5486,
      "全球": 5487,
      "的研究": 5488,
      "al": 5489,
      "及其": 5490,
      "完成": 5491,
      "导致": 5492,
      "表现": 5493,
      "it": 5494,
      "50": 5495,
      "增长": 5496,
      "完全": 5497,
      "它的": 5498,
      "决定": 5499,
      "特点": 5500,
      "虽然": 5501,
      "操作": 5502,
      "明显": 5503,
      "ac": 5504,
      "合作": 5505,
      "汽车": 5506,
      "组成": 5507,
      "蛋白": 5508,
      "特征": 5509,
      "的问题": 5510,
      "直接": 5511,
      "进入": 5512,
      "领域": 5513,
      "准备": 5514,
      "检测": 5515,
      "状态": 5516,
      "报告": 5517,
      "11": 5518,
      "政治": 5519,
      "是一种": 5520,
      "的最": 5521,
      "不同的": 5522,
      "减少": 5523,
      "教学": 5524,
      "的话": 5525,
      "简单": 5526,
      "一步": 5527,
      "代表": 5528,
      "参数": 5529,
      "自由": 5530,
      "保持": 5531,
      "比赛": 5532,
      "考虑": 5533,
      "软件": 5534,
      "工艺": 5535,
      "日本": 5536,
      "30": 5537,
      "结果表明": 5538,
      "一次": 5539,
      "动物": 5540,
      "基因": 5541,
      "如此": 5542,
      "尽管": 5543,
      "政策": 5544,
      "过程中": 5545,
      "th": 5546,
      "不要": 5547,
      "执行": 5548,
      "神经": 5549,
      "，”": 5550,
      "ro": 5551,
      "客户": 5552,
      "就会": 5553,
      "无法": 5554,
      "确定": 5555,
      "语言": 5556,
      "建议": 5557,
      "思想": 5558,
      "过去": 5559,
      "运行": 5560,
      "机构": 5561,
      "ic": 5562,
      "多数": 5563,
      "家庭": 5564,
      "联合": 5565,
      "面的": 5566,
      "学校": 5567,
      "as": 5568,
      "es": 5569,
      "不断": 5570,
      "先生": 5571,
      "形式": 5572,
      "15": 5573,
      "一起": 5574,
      "通常": 5575,
      "专业": 5576,
      "价格": 5577,
      "关键": 5578,
      "的新": 5579,
      "他说": 5580,
      "分布": 5581,
      "现代": 5582,
      "觉得": 5583,
      "el": 5584,
      "下的": 5585,
      "世纪": 5586,
      "临床": 5587,
      "制造": 5588,
      "广泛": 5589,
      "生命": 5590,
      "建筑": 5591,
      "每个": 5592,
      "精神": 5593,
      "继续": 5594,
      "自动": 5595,
      "类型": 5596,
      "人类": 5597,
      "位于": 5598,
      "并不": 5599,
      "算法": 5600,
      "述了": 5601,
      "化的": 5602,
      "总统": 5603,
      "欧洲": 5604,
      "达到": 5605,
      "音乐": 5606,
      "用的": 5607,
      "超过": 5608,
      "造成": 5609,
      "et": 5610,
      "is": 5611,
      "区域": 5612,
      "电影": 5613,
      "针对": 5614,
      "风险": 5615,
      "一下": 5616,
      "几个": 5617,
      "后的": 5618,
      "感到": 5619,
      "之间的": 5620,
      "对象": 5621,
      "建设": 5622,
      "有限": 5623,
      "网站": 5624,
      "色的": 5625,
      "那个": 5626,
      "降低": 5627,
      "研究了": 5628,
      "业务": 5629,
      "例如": 5630,
      "这样的": 5631,
      "co": 5632,
      "容易": 5633,
      "有一个": 5634,
      "程度": 5635,
      "18": 5636,
      "出来": 5637,
      "氧化": 5638,
      "严重": 5639,
      "复杂": 5640,
      "动力": 5641,
      "将会": 5642,
      "参加": 5643,
      "稳定": 5644,
      "法律": 5645,
      "系列": 5646,
      "性和": 5647,
      "不仅": 5648,
      "人民": 5649,
      "以来": 5650,
      "出的": 5651,
      "里的": 5652,
      "机会": 5653,
      "连接": 5654,
      "体系": 5655,
      "资料": 5656,
      "需求": 5657,
      "一位": 5658,
      "为什么": 5659,
      "器的": 5660,
      "感觉": 5661,
      "199": 5662,
      "ap": 5663,
      "其它": 5664,
      "化学": 5665,
      "有些": 5666,
      "注意": 5667,
      "电视": 5668,
      "速度": 5669,
      "重新": 5670,
      "000": 5671,
      "提供了": 5672,
      "%。": 5673,
      "检查": 5674,
      "的主要": 5675,
      "一般": 5676,
      "位置": 5677,
      "努力": 5678,
      "工具": 5679,
      "整个": 5680,
      "文章": 5681,
      "期的": 5682,
      "药物": 5683,
      "的小": 5684,
      "知识": 5685,
      "分子": 5686,
      "同样": 5687,
      "工业": 5688,
      "成本": 5689,
      "者的": 5690,
      "一定": 5691,
      "会议": 5692,
      "就像": 5693,
      "数字": 5694,
      "星期": 5695,
      "特性": 5696,
      "解释": 5697,
      "不可": 5698,
      "你可以": 5699,
      "方向": 5700,
      "更加": 5701,
      "第三": 5702,
      "也许": 5703,
      "取得": 5704,
      "报道": 5705,
      "有的": 5706,
      "范围": 5707,
      "分析了": 5708,
      "儿童": 5709,
      "压力": 5710,
      "措施": 5711,
      "的地方": 5712,
      "仍然": 5713,
      "利亚": 5714,
      "消息": 5715,
      "金属": 5716,
      "所有的": 5717,
      "保证": 5718,
      "创造": 5719,
      "女性": 5720,
      "测量": 5721,
      "的发展": 5722,
      "的重要": 5723,
      "联系": 5724,
      "阶段": 5725,
      "ch": 5726,
      "找到": 5727,
      "疾病": 5728,
      "进一步": 5729,
      "大多数": 5730,
      "是个": 5731,
      "经验": 5732,
      "可能会": 5733,
      "几乎": 5734,
      "受到": 5735,
      "含量": 5736,
      "交易": 5737,
      "机制": 5738,
      "行业": 5739,
      "表达": 5740,
      "从而": 5741,
      "信号": 5742,
      "我想": 5743,
      "最近": 5744,
      "机的": 5745,
      "模拟": 5746,
      "电话": 5747,
      "那里": 5748,
      "小时": 5749,
      "手术": 5750,
      "比如": 5751,
      "ad": 5752,
      "am": 5753,
      "创建": 5754,
      "参与": 5755,
      "定义": 5756,
      "心理": 5757,
      "时代": 5758,
      "销售": 5759,
      "令人": 5760,
      "共同": 5761,
      "北京": 5762,
      "指出": 5763,
      "表面": 5764,
      "评价": 5765,
      "诊断": 5766,
      "说明": 5767,
      "情况下": 5768,
      "他在": 5769,
      "任务": 5770,
      "引起": 5771,
      "学家": 5772,
      "怎么": 5773,
      "未来": 5774,
      "的工作": 5775,
      "身体": 5776,
      "加工": 5777,
      "才能": 5778,
      "三个": 5779,
      "另一": 5780,
      "年轻": 5781,
      "快速": 5782,
      "收入": 5783,
      "最终": 5784,
      "植物": 5785,
      "相信": 5786,
      "竞争": 5787,
      "除了": 5788,
      "高的": 5789,
      "制度": 5790,
      "卫生": 5791,
      "概念": 5792,
      "证明": 5793,
      "领导": 5794,
      "首先": 5795,
      "下来": 5796,
      "岁的": 5797,
      "意识": 5798,
      "避免": 5799,
      "il": 5800,
      "似乎": 5801,
      "国内": 5802,
      "在这": 5803,
      "带来": 5804,
      "移动": 5805,
      "综合": 5806,
      "分钟": 5807,
      "消费": 5808,
      "温度": 5809,
      "装置": 5810,
      "14": 5811,
      "16": 5812,
      "变得": 5813,
      "采取": 5814,
      "长期": 5815,
      "代码": 5816,
      "包含": 5817,
      "另外": 5818,
      "持续": 5819,
      "集团": 5820,
      "eb": 5821,
      "死亡": 5822,
      "行动": 5823,
      "行的": 5824,
      "食物": 5825,
      "事件": 5826,
      "新闻": 5827,
      "显著": 5828,
      "来越": 5829,
      "纽约": 5830,
      "应用程序": 5831,
      "关注": 5832,
      "在这个": 5833,
      "小的": 5834,
      "混合": 5835,
      "现象": 5836,
      "类似": 5837,
      "经过": 5838,
      "我在": 5839,
      "游戏": 5840,
      "特殊": 5841,
      "贸易": 5842,
      "越来越": 5843,
      "运用": 5844,
      "实施": 5845,
      "测定": 5846,
      "事实": 5847,
      "办公": 5848,
      "平均": 5849,
      "经常": 5850,
      "记录": 5851,
      "13": 5852,
      "使得": 5853,
      "力的": 5854,
      "图像": 5855,
      "差异": 5856,
      "当然": 5857,
      "的时间": 5858,
      "今年": 5859,
      "印度": 5860,
      "即使": 5861,
      "年来": 5862,
      "正确": 5863,
      "部门": 5864,
      "战争": 5865,
      "故事": 5866,
      "物质": 5867,
      "公司的": 5868,
      "专家": 5869,
      "原理": 5870,
      "委员": 5871,
      "学院": 5872,
      "时期": 5873,
      "基金": 5874,
      "官员": 5875,
      "实践": 5876,
      "法国": 5877,
      "相同": 5878,
      "结束": 5879,
      "17": 5880,
      "元素": 5881,
      "加入": 5882,
      "她们": 5883,
      "描述": 5884,
      "期间": 5885,
      "的高": 5886,
      "真正": 5887,
      "课程": 5888,
      "这么": 5889,
      "0年": 5890,
      "8年": 5891,
      "lo": 5892,
      "to": 5893,
      "内部": 5894,
      "去年": 5895,
      "子的": 5896,
      "意味": 5897,
      "成了": 5898,
      "改进": 5899,
      "负责": 5900,
      "ml": 5901,
      "也不": 5902,
      "十分": 5903,
      "在一个": 5904,
      "核心": 5905,
      "生长": 5906,
      "电脑": 5907,
      "相互": 5908,
      "在此": 5909,
      "大家": 5910,
      "媒体": 5911,
      "当时": 5912,
      "相当": 5913,
      "经历": 5914,
      "规模": 5915,
      "适合": 5916,
      "中国的": 5917,
      "25": 5918,
      "作品": 5919,
      "动态": 5920,
      "商业": 5921,
      "多的": 5922,
      "总是": 5923,
      "基础上": 5924,
      "ct": 5925,
      "两种": 5926,
      "合理": 5927,
      "改善": 5928,
      "有人": 5929,
      "空气": 5930,
      "购买": 5931,
      "资金": 5932,
      "错误": 5933,
      "预测": 5934,
      "计算机": 5935,
      "ip": 5936,
      "个月": 5937,
      "效率": 5938,
      "正常": 5939,
      "相对": 5940,
      "访问": 5941,
      "ed": 5942,
      "分别": 5943,
      "制作": 5944,
      "型的": 5945,
      "至少": 5946,
      "英语": 5947,
      "认识": 5948,
      "这项": 5949,
      "公共": 5950,
      "困难": 5951,
      "尤其": 5952,
      "巴马": 5953,
      "活性": 5954,
      "病毒": 5955,
      "重点": 5956,
      "丰富": 5957,
      "允许": 5958,
      "您的": 5959,
      "感染": 5960,
      "改革": 5961,
      "满足": 5962,
      "葡萄": 5963,
      "优势": 5964,
      "优化": 5965,
      "另一个": 5966,
      "必要": 5967,
      "指标": 5968,
      "是由": 5969,
      "设置": 5970,
      "那样": 5971,
      "全国": 5972,
      "大量": 5973,
      "太阳": 5974,
      "德国": 5975,
      "教授": 5976,
      "数量": 5977,
      "欢迎": 5978,
      "的主": 5979,
      "统计": 5980,
      "金融": 5981,
      "限制": 5982,
      "id": 5983,
      "im": 5984,
      "产业": 5985,
      "培养": 5986,
      "斯特": 5987,
      "纤维": 5988,
      "职业": 5989,
      "食品": 5990,
      "委员会": 5991,
      "上海": 5992,
      "下降": 5993,
      "依据": 5994,
      "危险": 5995,
      "名的": 5996,
      "成员": 5997,
      "斯坦": 5998,
      "状况": 5999,
      "真的": 6000,
      "连续": 6001,
      "在一起": 6002,
      "函数": 6003,
      "当地": 6004,
      "添加": 6005,
      "详细": 6006,
      "科学家": 6007,
      "更多的": 6008,
      "ou": 6009,
      "一点": 6010,
      "到的": 6011,
      "医生": 6012,
      "名字": 6013,
      "奥巴马": 6014,
      "的原因": 6015,
      "面对": 6016,
      "的事情": 6017,
      "医院": 6018,
      "合物": 6019,
      "处于": 6020,
      "教师": 6021,
      "无论": 6022,
      "某些": 6023,
      "玻璃": 6024,
      "理解": 6025,
      "科技": 6026,
      "于是": 6027,
      "促进": 6028,
      "医疗": 6029,
      "团队": 6030,
      "土地": 6031,
      "在于": 6032,
      "提取": 6033,
      "独立": 6034,
      "称为": 6035,
      "都会": 6036,
      "都有": 6037,
      "100": 6038,
      "24": 6039,
      "一名": 6040,
      "亿美元": 6041,
      "大约": 6042,
      "安装": 6043,
      "属于": 6044,
      "开放": 6045,
      "机器": 6046,
      "策略": 6047,
      "线性": 6048,
      "罗斯": 6049,
      "意味着": 6050,
      "9年": 6051,
      "以前": 6052,
      "原则": 6053,
      "成的": 6054,
      "照片": 6055,
      "试图": 6056,
      "适应": 6057,
      "发展的": 6058,
      "目的探讨": 6059,
      "%，": 6060,
      "5年": 6061,
      "品牌": 6062,
      "地球": 6063,
      "平衡": 6064,
      "当前": 6065,
      "抑制": 6066,
      "是因为": 6067,
      "曾经": 6068,
      "污染": 6069,
      "球员": 6070,
      "服务器": 6071,
      "农业": 6072,
      "只要": 6073,
      "可靠": 6074,
      "大部分": 6075,
      "想要": 6076,
      "旅游": 6077,
      "普通": 6078,
      "有着": 6079,
      "生态": 6080,
      "角度": 6081,
      "训练": 6082,
      "这位": 6083,
      "sp": 6084,
      "协议": 6085,
      "和其他": 6086,
      "距离": 6087,
      "7年": 6088,
      "不到": 6089,
      "出口": 6090,
      "展示": 6091,
      "广告": 6092,
      "用来": 6093,
      "这次": 6094,
      "?。": 6095,
      "以后": 6096,
      "强度": 6097,
      "怎样": 6098,
      "规则": 6099,
      "可以在": 6100,
      "方面的": 6101,
      "交通": 6102,
      "兴趣": 6103,
      "反对": 6104,
      "发明": 6105,
      "唯一": 6106,
      "尼亚": 6107,
      "并没有": 6108,
      "母亲": 6109,
      "物理": 6110,
      "申请": 6111,
      "眼睛": 6112,
      "老师": 6113,
      "自我": 6114,
      "观点": 6115,
      "趋势": 6116,
      "飞机": 6117,
      "40": 6118,
      "se": 6119,
      "加强": 6120,
      "吸引": 6121,
      "员工": 6122,
      "恢复": 6123,
      "每天": 6124,
      "永远": 6125,
      "清楚": 6126,
      "父亲": 6127,
      "经营": 6128,
      "设施": 6129,
      "人口": 6130,
      "具体": 6131,
      "博士": 6132,
      "发布": 6133,
      "平台": 6134,
      "战略": 6135,
      "病人": 6136,
      "良好的": 6137,
      "规定": 6138,
      "面临": 6139,
      "验证": 6140,
      "ing": 6141,
      "10年": 6142,
      "ma": 6143,
      "成分": 6144,
      "效应": 6145,
      "文学": 6146,
      "的设计": 6147,
      "相比": 6148,
      "评估": 6149,
      "责任": 6150,
      "do": 6151,
      "事情": 6152,
      "公园": 6153,
      "办法": 6154,
      "增强": 6155,
      "挑战": 6156,
      "现实": 6157,
      "直到": 6158,
      "确保": 6159,
      "社区": 6160,
      "背景": 6161,
      "问题的": 6162,
      "198": 6163,
      "也有": 6164,
      "儿子": 6165,
      "准确": 6166,
      "多少": 6167,
      "我不": 6168,
      "最大": 6169,
      "的东西": 6170,
      "积极": 6171,
      "调整": 6172,
      "阅读": 6173,
      "数据库": 6174,
      "一只": 6175,
      "举行": 6176,
      "也可以": 6177,
      "力量": 6178,
      "声音": 6179,
      "尝试": 6180,
      "接触": 6181,
      "时的": 6182,
      "皮肤": 6183,
      "营养": 6184,
      "视频": 6185,
      "资本": 6186,
      "酒店": 6187,
      "搜索": 6188,
      "民族": 6189,
      "父母": 6190,
      "男人": 6191,
      "看见": 6192,
      "石油": 6193,
      "第一个": 6194,
      "重要的": 6195,
      "un": 6196,
      "作者": 6197,
      "供应": 6198,
      "分离": 6199,
      "失去": 6200,
      "对其": 6201,
      "小说": 6202,
      "得到了": 6203,
      "或是": 6204,
      "的前": 6205,
      "长的": 6206,
      "us": 6207,
      "也会": 6208,
      "全部": 6209,
      "发表": 6210,
      "大利": 6211,
      "将在": 6212,
      "就可以": 6213,
      "年前": 6214,
      "最佳": 6215,
      "涉及": 6216,
      "版本": 6217,
      "离开": 6218,
      "请求": 6219,
      "逐渐": 6220,
      "颜色": 6221,
      "3年": 6222,
      "内的": 6223,
      "只能": 6224,
      "当你": 6225,
      "循环": 6226,
      "放在": 6227,
      "最大的": 6228,
      "机械": 6229,
      "此外": 6230,
      "独特": 6231,
      "风格": 6232,
      "应用于": 6233,
      "建立了": 6234,
      "of": 6235,
      "做的": 6236,
      "充满": 6237,
      "单位": 6238,
      "年龄": 6239,
      "按照": 6240,
      "电路": 6241,
      "的地": 6242,
      "的关系": 6243,
      "组合": 6244,
      "费用": 6245,
      "配置": 6246,
      "80": 6247,
      "交流": 6248,
      "手机": 6249,
      "的不": 6250,
      "的一种": 6251,
      "约翰": 6252,
      "适用于": 6253,
      "实际上": 6254,
      "60": 6255,
      "一项": 6256,
      "分类": 6257,
      "周期": 6258,
      "多个": 6259,
      "天然": 6260,
      "巨大的": 6261,
      "框架": 6262,
      "看起来": 6263,
      "破坏": 6264,
      "给出了": 6265,
      "难以": 6266,
      "驱动": 6267,
      "办公室": 6268,
      "li": 6269,
      "其实": 6270,
      "它是": 6271,
      "拒绝": 6272,
      "肿瘤": 6273,
      "规划": 6274,
      "调节": 6275,
      "香港": 6276,
      "研究的": 6277,
      "第一次": 6278,
      "oo": 6279,
      "上升": 6280,
      "估计": 6281,
      "充分": 6282,
      "免疫": 6283,
      "分为": 6284,
      "制的": 6285,
      "合成": 6286,
      "咖啡": 6287,
      "意大利": 6288,
      "手段": 6289,
      "攻击": 6290,
      "根本": 6291,
      "理想": 6292,
      "的那": 6293,
      "让人": 6294,
      "让我们": 6295,
      "输入": 6296,
      "世界上": 6297,
      "特别是": 6298,
      "一切": 6299,
      "人在": 6300,
      "免费": 6301,
      "再次": 6302,
      "创新": 6303,
      "安排": 6304,
      "完善": 6305,
      "气候": 6306,
      "识别": 6307,
      "集中": 6308,
      "通过对": 6309,
      "相关的": 6310,
      "讨论了": 6311,
      "the": 6312,
      "4年": 6313,
      "习惯": 6314,
      "参考": 6315,
      "外的": 6316,
      "女孩": 6317,
      "妇女": 6318,
      "担心": 6319,
      "拉克": 6320,
      "球队": 6321,
      "生的": 6322,
      "疗效": 6323,
      "的水": 6324,
      "看看": 6325,
      "经理": 6326,
      "可能是": 6327,
      "6年": 6328,
      "pl": 6329,
      "上了": 6330,
      "在中国": 6331,
      "寻找": 6332,
      "很好": 6333,
      "打开": 6334,
      "扩展": 6335,
      "最好的": 6336,
      "物的": 6337,
      "男性": 6338,
      "突然": 6339,
      "血管": 6340,
      "见的": 6341,
      "贷款": 6342,
      "web": 6343,
      "一致": 6344,
      "做出": 6345,
      "制备": 6346,
      "固定": 6347,
      "大量的": 6348,
      "居民": 6349,
      "或许": 6350,
      "承认": 6351,
      "指导": 6352,
      "损伤": 6353,
      "早期": 6354,
      "构建": 6355,
      "论文": 6356,
      "迅速": 6357,
      "飞行": 6358,
      "有效的": 6359,
      "ab": 6360,
      "ag": 6361,
      "ion": 6362,
      "so": 6363,
      "亚洲": 6364,
      "他是": 6365,
      "俄罗斯": 6366,
      "助于": 6367,
      "和华": 6368,
      "地震": 6369,
      "多种": 6370,
      "式的": 6371,
      "成熟": 6372,
      "杂志": 6373,
      "正是": 6374,
      "生成": 6375,
      "航空": 6376,
      "资产": 6377,
      "转换": 6378,
      "附近": 6379,
      "结构的": 6380,
      "sh": 6381,
      "一家": 6382,
      "仅仅": 6383,
      "伦敦": 6384,
      "例子": 6385,
      "动机": 6386,
      "后来": 6387,
      "周围": 6388,
      "商品": 6389,
      "图书": 6390,
      "失败": 6391,
      "幸福": 6392,
      "房子": 6393,
      "接近": 6394,
      "现状": 6395,
      "的数据": 6396,
      "相应": 6397,
      "给我": 6398,
      "而言": 6399,
      "记者": 6400,
      "ri": 6401,
      "会在": 6402,
      "妈妈": 6403,
      "很快": 6404,
      "性质": 6405,
      "总结": 6406,
      "放弃": 6407,
      "整体": 6408,
      "权利": 6409,
      "来到": 6410,
      "构造": 6411,
      "民主": 6412,
      "爱的": 6413,
      "的作用": 6414,
      "翻译": 6415,
      "自身": 6416,
      "节目": 6417,
      "角色": 6418,
      "记忆": 6419,
      "设计的": 6420,
      "de": 6421,
      "动脉": 6422,
      "十年": 6423,
      "回到": 6424,
      "回答": 6425,
      "复合": 6426,
      "威胁": 6427,
      "往往": 6428,
      "很大": 6429,
      "很有": 6430,
      "指数": 6431,
      "方便": 6432,
      "机场": 6433,
      "真实": 6434,
      "美的": 6435,
      "这就是": 6436,
      "非洲": 6437,
      "出版": 6438,
      "刺激": 6439,
      "女人": 6440,
      "应当": 6441,
      "愿意": 6442,
      "普遍": 6443,
      "良好": 6444,
      "足够": 6445,
      "防止": 6446,
      "产生的": 6447,
      "有限公司": 6448,
      "上述": 6449,
      "不再": 6450,
      "伤害": 6451,
      "体育": 6452,
      "危机": 6453,
      "原料": 6454,
      "命令": 6455,
      "在这里": 6456,
      "形象": 6457,
      "意思": 6458,
      "比例": 6459,
      "符合": 6460,
      "能源": 6461,
      "能量": 6462,
      "节点": 6463,
      "规范": 6464,
      "通信": 6465,
      "2010年": 6466,
      "and": 6467,
      "ve": 6468,
      "一天": 6469,
      "一旦": 6470,
      "人士": 6471,
      "以色": 6472,
      "仿真": 6473,
      "优点": 6474,
      "依赖": 6475,
      "保险": 6476,
      "值得": 6477,
      "决策": 6478,
      "变成": 6479,
      "可是": 6480,
      "含有": 6481,
      "培训": 6482,
      "定位": 6483,
      "将其": 6484,
      "旅行": 6485,
      "更好的": 6486,
      "有所": 6487,
      "格兰": 6488,
      "深入": 6489,
      "的方式": 6490,
      "联邦": 6491,
      "邮件": 6492,
      "高速": 6493,
      "以色列": 6494,
      "2年": 6495,
      "人都": 6496,
      "在那": 6497,
      "地位": 6498,
      "是什么": 6499,
      "有了": 6500,
      "有时": 6501,
      "构成": 6502,
      "耶和华": 6503,
      "障碍": 6504,
      "ent": 6505,
      "上帝": 6506,
      "不足": 6507,
      "创作": 6508,
      "品种": 6509,
      "在200": 6510,
      "宣布": 6511,
      "数学": 6512,
      "曲线": 6513,
      "身份": 6514,
      "db": 6515,
      "以上": 6516,
      "发出": 6517,
      "实例": 6518,
      "展开": 6519,
      "想法": 6520,
      "更好": 6521,
      "的生活": 6522,
      "身上": 6523,
      "间的": 6524,
      "我们将": 6525,
      "国家的": 6526,
      "这是一个": 6527,
      "com": 6528,
      "ms": 6529,
      "ws": 6530,
      "以为": 6531,
      "俱乐": 6532,
      "单元": 6533,
      "合同": 6534,
      "品质": 6535,
      "宗教": 6536,
      "感谢": 6537,
      "监测": 6538,
      "相似": 6539,
      "离子": 6540,
      "编辑": 6541,
      "警察": 6542,
      "让你": 6543,
      "赛季": 6544,
      "运输": 6545,
      "阿拉": 6546,
      "面积": 6547,
      "高级": 6548,
      "提出了一种": 6549,
      "ph": 6550,
      "ver": 6551,
      "停止": 6552,
      "区的": 6553,
      "地的": 6554,
      "大型": 6555,
      "大鼠": 6556,
      "存储": 6557,
      "就能": 6558,
      "成立": 6559,
      "收集": 6560,
      "敏感": 6561,
      "更为": 6562,
      "第四": 6563,
      "而不": 6564,
      "股票": 6565,
      "肯定": 6566,
      "规律": 6567,
      "转移": 6568,
      "逻辑": 6569,
      "联合国": 6570,
      "俱乐部": 6571,
      "500": 6572,
      "交换": 6573,
      "会的": 6574,
      "反映": 6575,
      "发挥": 6576,
      "合金": 6577,
      "对此": 6578,
      "异常": 6579,
      "明确": 6580,
      "有助于": 6581,
      "症状": 6582,
      "的外": 6583,
      "给了": 6584,
      "西方": 6585,
      "预防": 6586,
      "孩子们": 6587,
      "ht": 6588,
      "pc": 6589,
      "事务": 6590,
      "代理": 6591,
      "修改": 6592,
      "全面": 6593,
      "农村": 6594,
      "别人": 6595,
      "土壤": 6596,
      "如今": 6597,
      "对比": 6598,
      "引发": 6599,
      "很难": 6600,
      "快乐": 6601,
      "提升": 6602,
      "晚上": 6603,
      "更新": 6604,
      "每一个": 6605,
      "流行": 6606,
      "混凝": 6607,
      "燃烧": 6608,
      "衣服": 6609,
      "进展": 6610,
      "高兴": 6611,
      "条件下": 6612,
      "21": 6613,
      "ay": 6614,
      "te": 6615,
      "……": 6616,
      "一年": 6617,
      "不管": 6618,
      "南部": 6619,
      "发育": 6620,
      "和他的": 6621,
      "坐在": 6622,
      "她说": 6623,
      "开展": 6624,
      "形态": 6625,
      "本身": 6626,
      "正如": 6627,
      "毕业": 6628,
      "的成": 6629,
      "过的": 6630,
      "通用": 6631,
      "都在": 6632,
      "首次": 6633,
      "ur": 6634,
      "xml": 6635,
      "一条": 6636,
      "保障": 6637,
      "农民": 6638,
      "名为": 6639,
      "图片": 6640,
      "在美国": 6641,
      "想象": 6642,
      "我会": 6643,
      "我是": 6644,
      "我认为": 6645,
      "文档": 6646,
      "是不": 6647,
      "智能": 6648,
      "最高": 6649,
      "机理": 6650,
      "森林": 6651,
      "流程": 6652,
      "电池": 6653,
      "的多": 6654,
      "的基本": 6655,
      "贡献": 6656,
      "道路": 6657,
      "事实上": 6658,
      "混凝土": 6659,
      "23": 6660,
      "27": 6661,
      "丈夫": 6662,
      "为止": 6663,
      "之中": 6664,
      "双方": 6665,
      "各个": 6666,
      "坚持": 6667,
      "子里": 6668,
      "完整": 6669,
      "工厂": 6670,
      "标志": 6671,
      "检验": 6672,
      "每年": 6673,
      "演员": 6674,
      "的可": 6675,
      "的关键": 6676,
      "确实": 6677,
      "等等": 6678,
      "让我": 6679,
      "起了": 6680,
      "高度": 6681,
      "产品的": 6682,
      "ce": 6683,
      "ss": 6684,
      "一份": 6685,
      "下了": 6686,
      "中央": 6687,
      "二十": 6688,
      "传播": 6689,
      "劳动": 6690,
      "吸收": 6691,
      "在我": 6692,
      "密度": 6693,
      "小组": 6694,
      "强调": 6695,
      "把它": 6696,
      "振动": 6697,
      "支付": 6698,
      "新型": 6699,
      "有可能": 6700,
      "法的": 6701,
      "现场": 6702,
      "的结果": 6703,
      "精度": 6704,
      "系数": 6705,
      "统一": 6706,
      "缺乏": 6707,
      "脂肪": 6708,
      "苹果": 6709,
      "传统的": 6710,
      "fi": 6711,
      "上面": 6712,
      "也就是": 6713,
      "产物": 6714,
      "军事": 6715,
      "利的": 6716,
      "原子": 6717,
      "名称": 6718,
      "损失": 6719,
      "明白": 6720,
      "是对": 6721,
      "有机": 6722,
      "百万": 6723,
      "的海": 6724,
      "的应用": 6725,
      "美丽": 6726,
      "证据": 6727,
      "说的": 6728,
      "追求": 6729,
      "链接": 6730,
      "频率": 6731,
      "鼓励": 6732,
      "不久": 6733,
      "不知道": 6734,
      "会上": 6735,
      "传感": 6736,
      "公开": 6737,
      "出去": 6738,
      "分配": 6739,
      "北部": 6740,
      "呈现": 6741,
      "和平": 6742,
      "四个": 6743,
      "在线": 6744,
      "奥运": 6745,
      "女儿": 6746,
      "家里": 6747,
      "寻求": 6748,
      "左右": 6749,
      "扫描": 6750,
      "技巧": 6751,
      "探索": 6752,
      "树脂": 6753,
      "正式": 6754,
      "武器": 6755,
      "激光": 6756,
      "燃料": 6757,
      "的经济": 6758,
      "研制": 6759,
      "耶稣": 6760,
      "都要": 6761,
      "阐述了": 6762,
      "页面": 6763,
      "预计": 6764,
      "消费者": 6765,
      "1年": 6766,
      "26": 6767,
      "90": 6768,
      "be": 6769,
      "po": 6770,
      "up": 6771,
      "专门": 6772,
      "之外": 6773,
      "了一些": 6774,
      "你会": 6775,
      "去了": 6776,
      "启动": 6777,
      "回家": 6778,
      "密切": 6779,
      "对照": 6780,
      "层的": 6781,
      "希腊": 6782,
      "拍摄": 6783,
      "文字": 6784,
      "有点": 6785,
      "来源": 6786,
      "样的": 6787,
      "比亚": 6788,
      "电压": 6789,
      "男孩": 6790,
      "编码": 6791,
      "网上": 6792,
      "考察": 6793,
      "输出": 6794,
      "还要": 6795,
      "途径": 6796,
      "重视": 6797,
      "革命": 6798,
      "？”": 6799,
      "我们在": 6800,
      "发生的": 6801,
      "简单的": 6802,
      "cl": 6803,
      "人物": 6804,
      "以便": 6805,
      "先进": 6806,
      "包装": 6807,
      "压缩": 6808,
      "同一": 6809,
      "听到": 6810,
      "地下": 6811,
      "大脑": 6812,
      "对手": 6813,
      "属性": 6814,
      "很少": 6815,
      "思考": 6816,
      "投入": 6817,
      "方程": 6818,
      "施工": 6819,
      "某种": 6820,
      "的心": 6821,
      "的特点": 6822,
      "的情况下": 6823,
      "纳米": 6824,
      "考试": 6825,
      "评论": 6826,
      "高于": 6827,
      "他们在": 6828,
      "的一部分": 6829,
      "cd": 6830,
      "主席": 6831,
      "会有": 6832,
      "催化": 6833,
      "典型": 6834,
      "利益": 6835,
      "发射": 6836,
      "呼吸": 6837,
      "回顾": 6838,
      "实用": 6839,
      "带来的": 6840,
      "强烈": 6841,
      "房间": 6842,
      "所谓": 6843,
      "是指": 6844,
      "朝鲜": 6845,
      "消失": 6846,
      "班牙": 6847,
      "红色": 6848,
      "给你": 6849,
      "补充": 6850,
      "西班牙": 6851,
      "该公司": 6852,
      "财政": 6853,
      "选举": 6854,
      "重大": 6855,
      "使用的": 6856,
      "工作的": 6857,
      "197": 6858,
      "地区的": 6859,
      "主题": 6860,
      "之处": 6861,
      "也没有": 6862,
      "人和": 6863,
      "到达": 6864,
      "在他": 6865,
      "学的": 6866,
      "层次": 6867,
      "常常": 6868,
      "扩大": 6869,
      "数值": 6870,
      "明的": 6871,
      "有趣": 6872,
      "消除": 6873,
      "看着": 6874,
      "这类": 6875,
      "通知": 6876,
      "遗传": 6877,
      "它们的": 6878,
      "29": 6879,
      "for": 6880,
      "不起": 6881,
      "体验": 6882,
      "债务": 6883,
      "假设": 6884,
      "前景": 6885,
      "加拿": 6886,
      "基地": 6887,
      "基督": 6888,
      "塑料": 6889,
      "学会": 6890,
      "尺寸": 6891,
      "应力": 6892,
      "情绪": 6893,
      "我就": 6894,
      "本发明": 6895,
      "步骤": 6896,
      "沉积": 6897,
      "犯罪": 6898,
      "的热": 6899,
      "给予": 6900,
      "绿色": 6901,
      "里斯": 6902,
      "铁路": 6903,
      "顾客": 6904,
      "颗粒": 6905,
      "提供的": 6906,
      "这一点": 6907,
      "投资者": 6908,
      "ca": 6909,
      "di": 6910,
      "》，": 6911,
      "了一种": 6912,
      "产量": 6913,
      "人工": 6914,
      "住在": 6915,
      "克斯": 6916,
      "公式": 6917,
      "军队": 6918,
      "动作": 6919,
      "协会": 6920,
      "外交": 6921,
      "大利亚": 6922,
      "学者": 6923,
      "强的": 6924,
      "心的": 6925,
      "急性": 6926,
      "批评": 6927,
      "教练": 6928,
      "是中国": 6929,
      "最好": 6930,
      "月份": 6931,
      "澳大利亚": 6932,
      "生存": 6933,
      "盛顿": 6934,
      "组件": 6935,
      "绝对": 6936,
      "维护": 6937,
      "虚拟": 6938,
      "货币": 6939,
      "辐射": 6940,
      "进了": 6941,
      "释放": 6942,
      "阿尔": 6943,
      "美国的": 6944,
      "技术的": 6945,
      "con": 6946,
      "me": 6947,
      "ne": 6948,
      "中间": 6949,
      "传输": 6950,
      "做了": 6951,
      "公路": 6952,
      "其他的": 6953,
      "刚刚": 6954,
      "华盛顿": 6955,
      "协调": 6956,
      "同意": 6957,
      "响应": 6958,
      "声明": 6959,
      "大大": 6960,
      "并在": 6961,
      "成果": 6962,
      "我也": 6963,
      "是的": 6964,
      "本质": 6965,
      "流动": 6966,
      "漂亮": 6967,
      "突出": 6968,
      "罗马": 6969,
      "覆盖": 6970,
      "谷歌": 6971,
      "边界": 6972,
      "进口": 6973,
      "进程": 6974,
      "里面": 6975,
      "阳光": 6976,
      "高效": 6977,
      "一个人": 6978,
      "组织的": 6979,
      "bm": 6980,
      "mo": 6981,
      "上去": 6982,
      "上周": 6983,
      "不错": 6984,
      "事业": 6985,
      "作家": 6986,
      "你在": 6987,
      "公布": 6988,
      "共和": 6989,
      "列表": 6990,
      "判断": 6991,
      "匹配": 6992,
      "医学": 6993,
      "发言": 6994,
      "商务": 6995,
      "很好的": 6996,
      "所在": 6997,
      "推广": 6998,
      "故障": 6999,
      "替代": 7000,
      "留下": 7001,
      "的好": 7002,
      "的变化": 7003,
      "的临床": 7004,
      "目录": 7005,
      "致力": 7006,
      "观众": 7007,
      "较大": 7008,
      "返回": 7009,
      "这两个": 7010,
      "道德": 7011,
      "no": 7012,
      "ps": 7013,
      "ra": 7014,
      "享受": 7015,
      "他对": 7016,
      "他还": 7017,
      "伊拉克": 7018,
      "作业": 7019,
      "作出": 7020,
      "力和": 7021,
      "品的": 7022,
      "因子": 7023,
      "在你": 7024,
      "妻子": 7025,
      "州的": 7026,
      "工人": 7027,
      "您可以": 7028,
      "意见": 7029,
      "我觉得": 7030,
      "所需": 7031,
      "接收": 7032,
      "文本": 7033,
      "有什么": 7034,
      "杰克": 7035,
      "点的": 7036,
      "看来": 7037,
      "穿着": 7038,
      "立法": 7039,
      "类的": 7040,
      "经典": 7041,
      "缺陷": 7042,
      "胜利": 7043,
      "获取": 7044,
      "袭击": 7045,
      "近年来": 7046,
      "部队": 7047,
      "预期": 7048,
      "！”": 7049,
      "我们可以": 7050,
      "政府的": 7051,
      "22": 7052,
      "一段": 7053,
      "一定的": 7054,
      "中所": 7055,
      "以下": 7056,
      "体内": 7057,
      "你能": 7058,
      "加速": 7059,
      "变量": 7060,
      "咨询": 7061,
      "回来": 7062,
      "夏天": 7063,
      "并非": 7064,
      "弹性": 7065,
      "态度": 7066,
      "方的": 7067,
      "查询": 7068,
      "模块": 7069,
      "每次": 7070,
      "爱情": 7071,
      "痛苦": 7072,
      "的日": 7073,
      "移民": 7074,
      "被称为": 7075,
      "还可以": 7076,
      "这场": 7077,
      "非线性": 7078,
      "韩国": 7079,
      "发现了": 7080,
      "解决方案": 7081,
      "程度上": 7082,
      "35": 7083,
      "70": 7084,
      "op": 7085,
      "不用": 7086,
      "不需要": 7087,
      "互联": 7088,
      "从事": 7089,
      "从未": 7090,
      "伙伴": 7091,
      "保存": 7092,
      "关节": 7093,
      "冲击": 7094,
      "制定": 7095,
      "发电": 7096,
      "同步": 7097,
      "后面": 7098,
      "哲学": 7099,
      "字符": 7100,
      "就业": 7101,
      "带着": 7102,
      "并将": 7103,
      "开关": 7104,
      "引擎": 7105,
      "引用": 7106,
      "很大的": 7107,
      "律师": 7108,
      "我要": 7109,
      "我知道": 7110,
      "推动": 7111,
      "期待": 7112,
      "本研究": 7113,
      "来看": 7114,
      "某个": 7115,
      "标记": 7116,
      "注射": 7117,
      "理念": 7118,
      "理由": 7119,
      "的分析": 7120,
      "的服务": 7121,
      "糖尿": 7122,
      "维持": 7123,
      "肌肉": 7124,
      "自行": 7125,
      "财务": 7126,
      "走了": 7127,
      "转化": 7128,
      "美国人": 7129,
      "2008年": 7130,
      "进行了研究": 7131,
      "产生了": 7132,
      "材料的": 7133,
      "尤其是": 7134,
      "ol": 7135,
      "两国": 7136,
      "为基础": 7137,
      "他人": 7138,
      "信用": 7139,
      "倾向": 7140,
      "出生": 7141,
      "出现在": 7142,
      "卫星": 7143,
      "回归": 7144,
      "地上": 7145,
      "垃圾": 7146,
      "好了": 7147,
      "婚姻": 7148,
      "对我": 7149,
      "局部": 7150,
      "巨大": 7151,
      "干扰": 7152,
      "打算": 7153,
      "掌握": 7154,
      "排放": 7155,
      "提示": 7156,
      "旋转": 7157,
      "时刻": 7158,
      "是最": 7159,
      "有许多": 7160,
      "本地": 7161,
      "标签": 7162,
      "每个人": 7163,
      "浓度": 7164,
      "清单": 7165,
      "清晰": 7166,
      "电流": 7167,
      "百分": 7168,
      "的三": 7169,
      "的情况": 7170,
      "相反": 7171,
      "表演": 7172,
      "说道": 7173,
      "谈判": 7174,
      "赢得": 7175,
      "进步": 7176,
      "那是": 7177,
      "运动员": 7178,
      "实验室": 7179,
      "复杂的": 7180,
      "稳定性": 7181,
      "领导人": 7182,
      "丰富的": 7183,
      "机器人": 7184,
      "独特的": 7185,
      "28": 7186,
      "ut": 7187,
      "与此": 7188,
      "但在": 7189,
      "住宅": 7190,
      "作了": 7191,
      "你知道": 7192,
      "全世界": 7193,
      "出发": 7194,
      "利于": 7195,
      "外部": 7196,
      "大学生": 7197,
      "婴儿": 7198,
      "家族": 7199,
      "少年": 7200,
      "平面": 7201,
      "接着": 7202,
      "收益": 7203,
      "无线": 7204,
      "本书": 7205,
      "模糊": 7206,
      "每一": 7207,
      "注册": 7208,
      "深刻": 7209,
      "清洗": 7210,
      "满意": 7211,
      "潜在": 7212,
      "爆炸": 7213,
      "的选择": 7214,
      "硬件": 7215,
      "精确": 7216,
      "紧张": 7217,
      "认知": 7218,
      "论述": 7219,
      "财富": 7220,
      "超级": 7221,
      "通道": 7222,
      "部长": 7223,
      "阻止": 7224,
      "随后": 7225,
      "随机": 7226,
      "预算": 7227,
      "马克": 7228,
      "进行分析": 7229,
      "类型的": 7230,
      "0年代": 7231,
      "加拿大": 7232,
      "he": 7233,
      "pe": 7234,
      "ul": 7235,
      "不良": 7236,
      "为例": 7237,
      "也能": 7238,
      "件事": 7239,
      "你是": 7240,
      "依然": 7241,
      "公众": 7242,
      "关闭": 7243,
      "兴奋": 7244,
      "冠军": 7245,
      "区别": 7246,
      "十二": 7247,
      "取消": 7248,
      "地面": 7249,
      "大小": 7250,
      "头发": 7251,
      "好像": 7252,
      "实时": 7253,
      "家的": 7254,
      "尔的": 7255,
      "序列": 7256,
      "心脏": 7257,
      "总体": 7258,
      "批准": 7259,
      "收到": 7260,
      "治理": 7261,
      "电力": 7262,
      "的美": 7263,
      "的学生": 7264,
      "移植": 7265,
      "立即": 7266,
      "终于": 7267,
      "而在": 7268,
      "英里": 7269,
      "血压": 7270,
      "西部": 7271,
      "见到": 7272,
      "课题": 7273,
      "购物": 7274,
      "适当": 7275,
      "适用": 7276,
      "选项": 7277,
      "配合": 7278,
      "面前": 7279,
      "面向": 7280,
      "是一家": 7281,
      "明显的": 7282,
      "取得了": 7283,
      "致力于": 7284,
      "糖尿病": 7285,
      "ke": 7286,
      "一块": 7287,
      "上下": 7288,
      "不在": 7289,
      "人才": 7290,
      "切尔": 7291,
      "变的": 7292,
      "句话": 7293,
      "天的": 7294,
      "宇宙": 7295,
      "寿命": 7296,
      "就在": 7297,
      "就要": 7298,
      "已成为": 7299,
      "并对": 7300,
      "恐怖": 7301,
      "承担": 7302,
      "担任": 7303,
      "收购": 7304,
      "整合": 7305,
      "欧元": 7306,
      "水的": 7307,
      "清洁": 7308,
      "特定": 7309,
      "的书": 7310,
      "的光": 7311,
      "的一些": 7312,
      "的能力": 7313,
      "约束": 7314,
      "细节": 7315,
      "结婚": 7316,
      "血清": 7317,
      "调用": 7318,
      "边的": 7319,
      "还在": 7320,
      "采访": 7321,
      "集成": 7322,
      "首席": 7323,
      "主要是": 7324,
      "int": 7325,
      "进行了分析": 7326,
      "模型的": 7327,
      "探讨了": 7328,
      "大学的": 7329,
      "真正的": 7330,
      "300": 7331,
      "75": 7332,
      "da": 7333,
      "ds": 7334,
      "pro": 7335,
      "”、": 7336,
      "下午": 7337,
      "为此": 7338,
      "人群": 7339,
      "传递": 7340,
      "关联": 7341,
      "其中的": 7342,
      "同事": 7343,
      "埃及": 7344,
      "尔斯": 7345,
      "巴西": 7346,
      "当我": 7347,
      "技能": 7348,
      "护理": 7349,
      "损害": 7350,
      "接口": 7351,
      "日益": 7352,
      "最初": 7353,
      "有多": 7354,
      "有很多": 7355,
      "案例": 7356,
      "欧盟": 7357,
      "毫无": 7358,
      "气体": 7359,
      "环保": 7360,
      "现有": 7361,
      "男子": 7362,
      "疫苗": 7363,
      "疼痛": 7364,
      "的角度": 7365,
      "监控": 7366,
      "监督": 7367,
      "站在": 7368,
      "纪录": 7369,
      "线的": 7370,
      "者们": 7371,
      "而是": 7372,
      "脉冲": 7373,
      "被认为": 7374,
      "记得": 7375,
      "证券": 7376,
      "证实": 7377,
      "走向": 7378,
      "都不": 7379,
      "都可以": 7380,
      "系统中": 7381,
      "中的应用": 7382,
      "的人们": 7383,
      "这样做": 7384,
      "ers": 7385,
      "成功的": 7386,
      "比赛中": 7387,
      "图书馆": 7388,
      "阿拉伯": 7389,
      "cp": 7390,
      "下载": 7391,
      "为主": 7392,
      "代谢": 7393,
      "低于": 7394,
      "保留": 7395,
      "做法": 7396,
      "共享": 7397,
      "出来的": 7398,
      "分解": 7399,
      "化合物": 7400,
      "取代": 7401,
      "和一个": 7402,
      "商店": 7403,
      "在过去": 7404,
      "学科": 7405,
      "官方": 7406,
      "常规": 7407,
      "建造": 7408,
      "必然": 7409,
      "忽视": 7410,
      "怀疑": 7411,
      "我可以": 7412,
      "探测": 7413,
      "数的": 7414,
      "文中": 7415,
      "日常": 7416,
      "早上": 7417,
      "有个": 7418,
      "本周": 7419,
      "橡胶": 7420,
      "界面": 7421,
      "的对": 7422,
      "的确": 7423,
      "的发生": 7424,
      "的信息": 7425,
      "的基础上": 7426,
      "禁止": 7427,
      "种子": 7428,
      "联盟": 7429,
      "聚集": 7430,
      "行政": 7431,
      "足球": 7432,
      "转变": 7433,
      "轻松": 7434,
      "过来": 7435,
      "重复": 7436,
      "饮食": 7437,
      "研究人员": 7438,
      "生活的": 7439,
      "---": 7440,
      "造成的": 7441,
      "传感器": 7442,
      "31": 7443,
      "32": 7444,
      "36": 7445,
      "ig": 7446,
      "mar": 7447,
      "qu": 7448,
      "三种": 7449,
      "下一": 7450,
      "不少": 7451,
      "不想": 7452,
      "严格": 7453,
      "中最": 7454,
      "争议": 7455,
      "事故": 7456,
      "优秀": 7457,
      "体现": 7458,
      "你要": 7459,
      "内存": 7460,
      "别的": 7461,
      "剂的": 7462,
      "合适": 7463,
      "墨西": 7464,
      "大规模": 7465,
      "她在": 7466,
      "姆斯": 7467,
      "导弹": 7468,
      "应对": 7469,
      "情感": 7470,
      "感兴趣": 7471,
      "成长": 7472,
      "我和": 7473,
      "我很": 7474,
      "推出": 7475,
      "显得": 7476,
      "有一些": 7477,
      "海洋": 7478,
      "演讲": 7479,
      "激素": 7480,
      "熟悉": 7481,
      "生素": 7482,
      "的两": 7483,
      "的结构": 7484,
      "的产品": 7485,
      "群体": 7486,
      "至于": 7487,
      "色彩": 7488,
      "英文": 7489,
      "著名": 7490,
      "著名的": 7491,
      "血液": 7492,
      "警告": 7493,
      "超声": 7494,
      "车辆": 7495,
      "还没有": 7496,
      "顾问": 7497,
      "黑暗": 7498,
      "）、": 7499,
      "的一项": 7500,
      "获得了": 7501,
      "蛋白质": 7502,
      "意识到": 7503,
      "互联网": 7504,
      "05": 7505,
      "ba": 7506,
      "ir": 7507,
      "la": 7508,
      "lin": 7509,
      "man": 7510,
      "不可能": 7511,
      "也在": 7512,
      "从来": 7513,
      "优质": 7514,
      "位的": 7515,
      "体外": 7516,
      "信心": 7517,
      "修复": 7518,
      "公民": 7519,
      "写作": 7520,
      "分享": 7521,
      "发送": 7522,
      "各地": 7523,
      "国的": 7524,
      "士兵": 7525,
      "复制": 7526,
      "小鼠": 7527,
      "平方": 7528,
      "战斗": 7529,
      "投票": 7530,
      "指定": 7531,
      "明天": 7532,
      "期望": 7533,
      "流量": 7534,
      "淋巴": 7535,
      "的效果": 7536,
      "相结合": 7537,
      "种植": 7538,
      "联赛": 7539,
      "营销": 7540,
      "董事": 7541,
      "读者": 7542,
      "谢谢": 7543,
      "达成": 7544,
      "运作": 7545,
      "进球": 7546,
      "都能": 7547,
      "重的": 7548,
      "重量": 7549,
      "零售": 7550,
      "可能性": 7551,
      "本文对": 7552,
      "存在着": 7553,
      "组成部分": 7554,
      "人民币": 7555,
      "国内外": 7556,
      "墨西哥": 7557,
      "ck": 7558,
      "sa": 7559,
      "》。": 7560,
      "一边": 7561,
      "中学": 7562,
      "你就": 7563,
      "克的": 7564,
      "公里": 7565,
      "功率": 7566,
      "加上": 7567,
      "博客": 7568,
      "参观": 7569,
      "和谐": 7570,
      "哪里": 7571,
      "地质": 7572,
      "大卫": 7573,
      "天气": 7574,
      "女士": 7575,
      "实在": 7576,
      "密码": 7577,
      "对方": 7578,
      "引导": 7579,
      "当代": 7580,
      "得以": 7581,
      "性别": 7582,
      "我希望": 7583,
      "我喜欢": 7584,
      "摩擦": 7585,
      "支撑": 7586,
      "昨天": 7587,
      "是如何": 7588,
      "显然": 7589,
      "未来的": 7590,
      "格式": 7591,
      "法院": 7592,
      "海岸": 7593,
      "火车": 7594,
      "病例": 7595,
      "癌症": 7596,
      "的家": 7597,
      "的国家": 7598,
      "的要求": 7599,
      "的概念": 7600,
      "看到了": 7601,
      "等方面": 7602,
      "细菌": 7603,
      "英尺": 7604,
      "补偿": 7605,
      "观念": 7606,
      "议员": 7607,
      "说话": 7608,
      "较好的": 7609,
      "运营": 7610,
      "长时间": 7611,
      "阐述": 7612,
      "防治": 7613,
      "静脉": 7614,
      "可以通过": 7615,
      "方法对": 7616,
      "2009年": 7617,
      "发生了": 7618,
      "one": 7619,
      "实现了": 7620,
      "ess": 7621,
      "相同的": 7622,
      "必要的": 7623,
      "足够的": 7624,
      "34": 7625,
      "bo": 7626,
      "一场": 7627,
      "一张": 7628,
      "下面": 7629,
      "人体": 7630,
      "兄弟": 7631,
      "分散": 7632,
      "初步": 7633,
      "力学": 7634,
      "加热": 7635,
      "动的": 7636,
      "受伤": 7637,
      "国外": 7638,
      "国王": 7639,
      "在他的": 7640,
      "增大": 7641,
      "大概": 7642,
      "宣传": 7643,
      "小型": 7644,
      "小心": 7645,
      "居住": 7646,
      "引入": 7647,
      "成绩": 7648,
      "我对": 7649,
      "斯科": 7650,
      "是以": 7651,
      "梦想": 7652,
      "民间": 7653,
      "特色": 7654,
      "电站": 7655,
      "的所有": 7656,
      "的目标": 7657,
      "的风险": 7658,
      "矛盾": 7659,
      "礼物": 7660,
      "自从": 7661,
      "舒适": 7662,
      "花园": 7663,
      "花费": 7664,
      "记住": 7665,
      "说法": 7666,
      "边缘": 7667,
      "过滤": 7668,
      "那种": 7669,
      "提出一种": 7670,
      "工程师": 7671,
      "带来了": 7672,
      "sc": 7673,
      "一片": 7674,
      "上市": 7675,
      "不知": 7676,
      "伟大的": 7677,
      "体制": 7678,
      "保健": 7679,
      "几天": 7680,
      "初始": 7681,
      "发行": 7682,
      "变换": 7683,
      "古老": 7684,
      "可用": 7685,
      "可用于": 7686,
      "否则": 7687,
      "回应": 7688,
      "因而": 7689,
      "国防": 7690,
      "外国": 7691,
      "娱乐": 7692,
      "学术": 7693,
      "实行": 7694,
      "已被": 7695,
      "彼得": 7696,
      "慢性": 7697,
      "我还": 7698,
      "打击": 7699,
      "抗议": 7700,
      "报纸": 7701,
      "拉斯": 7702,
      "推进": 7703,
      "提交": 7704,
      "时尚": 7705,
      "是有": 7706,
      "是为了": 7707,
      "最新": 7708,
      "物品": 7709,
      "的环境": 7710,
      "的有效": 7711,
      "的理论": 7712,
      "种族": 7713,
      "竞选": 7714,
      "等待": 7715,
      "视觉": 7716,
      "误差": 7717,
      "贵的": 7718,
      "跟踪": 7719,
      "较为": 7720,
      "较高": 7721,
      "这份": 7722,
      "遇到": 7723,
      "采集": 7724,
      "重建": 7725,
      "除非": 7726,
      "餐厅": 7727,
      "成为了": 7728,
      "同时也": 7729,
      "存在的": 7730,
      "有效地": 7731,
      "----": 7732,
      "主义者": 7733,
      "na": 7734,
      "we": 7735,
      "三分": 7736,
      "下去": 7737,
      "不多": 7738,
      "不太": 7739,
      "伊斯": 7740,
      "休息": 7741,
      "优先": 7742,
      "信任": 7743,
      "到底": 7744,
      "升高": 7745,
      "即将": 7746,
      "古代": 7747,
      "司法": 7748,
      "合并": 7749,
      "啤酒": 7750,
      "噪声": 7751,
      "在大": 7752,
      "在本": 7753,
      "在那里": 7754,
      "地产": 7755,
      "声称": 7756,
      "婚礼": 7757,
      "完美": 7758,
      "富汗": 7759,
      "少数": 7760,
      "尔德": 7761,
      "度和": 7762,
      "强大的": 7763,
      "很容易": 7764,
      "想到": 7765,
      "慢慢": 7766,
      "承诺": 7767,
      "改造": 7768,
      "文献": 7769,
      "服装": 7770,
      "水果": 7771,
      "海军": 7772,
      "灵魂": 7773,
      "甲基": 7774,
      "的电": 7775,
      "的老": 7776,
      "的技术": 7777,
      "的行为": 7778,
      "空中": 7779,
      "突破": 7780,
      "美洲": 7781,
      "蔬菜": 7782,
      "融合": 7783,
      "行星": 7784,
      "装饰": 7785,
      "论坛": 7786,
      "该方法": 7787,
      "诱导": 7788,
      "转向": 7789,
      "金钱": 7790,
      "队的": 7791,
      "阿富汗": 7792,
      "领先": 7793,
      "高校": 7794,
      "黄金": 7795,
      "这个问题": 7796,
      "经济的": 7797,
      "2007年": 7798,
      "市场的": 7799,
      "安全性": 7800,
      "是一位": 7801,
      "范围内": 7802,
      "..": 7803,
      "ex": 7804,
      "her": 7805,
      "if": 7806,
      "ru": 7807,
      "一部分": 7808,
      "义务": 7809,
      "二氧化": 7810,
      "伊朗": 7811,
      "但他": 7812,
      "其次": 7813,
      "前的": 7814,
      "反射": 7815,
      "发达": 7816,
      "发动机": 7817,
      "变形": 7818,
      "叫做": 7819,
      "回收": 7820,
      "在中": 7821,
      "场的": 7822,
      "多样": 7823,
      "大众": 7824,
      "帝国": 7825,
      "带有": 7826,
      "常见的": 7827,
      "当中": 7828,
      "思维": 7829,
      "改性": 7830,
      "是非常": 7831,
      "服用": 7832,
      "此时": 7833,
      "此次": 7834,
      "死了": 7835,
      "水泥": 7836,
      "激励": 7837,
      "火山": 7838,
      "爱好": 7839,
      "示例": 7840,
      "素质": 7841,
      "耦合": 7842,
      "舞蹈": 7843,
      "行情": 7844,
      "观测": 7845,
      "设立": 7846,
      "这两": 7847,
      "这将": 7848,
      "邀请": 7849,
      "那时": 7850,
      "部署": 7851,
      "青年": 7852,
      "驾驶": 7853,
      "我们都": 7854,
      "我们必须": 7855,
      "可能的": 7856,
      "现在的": 7857,
      "服务的": 7858,
      "196": 7859,
      "art": 7860,
      "你们的": 7861,
      "广泛的": 7862,
      "”、“": 7863,
      "net": 7864,
      "一半": 7865,
      "万美元": 7866,
      "不得": 7867,
      "为一": 7868,
      "人数": 7869,
      "人生": 7870,
      "仪式": 7871,
      "使其": 7872,
      "保罗": 7873,
      "公平": 7874,
      "具备": 7875,
      "冲突": 7876,
      "几何": 7877,
      "几年": 7878,
      "削减": 7879,
      "发酵": 7880,
      "各国": 7881,
      "圣诞": 7882,
      "在我们": 7883,
      "太空": 7884,
      "始终": 7885,
      "室内": 7886,
      "家人": 7887,
      "广东": 7888,
      "开了": 7889,
      "得出": 7890,
      "感受": 7891,
      "我所": 7892,
      "掉了": 7893,
      "提到": 7894,
      "放射": 7895,
      "救援": 7896,
      "斯的": 7897,
      "沿着": 7898,
      "演出": 7899,
      "焦虑": 7900,
      "爸爸": 7901,
      "病的": 7902,
      "的历史": 7903,
      "确认": 7904,
      "积分": 7905,
      "等级": 7906,
      "管道": 7907,
      "继承": 7908,
      "膨胀": 7909,
      "航天": 7910,
      "论述了": 7911,
      "贝尔": 7912,
      "资助": 7913,
      "路上": 7914,
      "过了": 7915,
      "还会": 7916,
      "部位": 7917,
      "队伍": 7918,
      "研究所": 7919,
      "研究表明": 7920,
      "提高了": 7921,
      "中心的": 7922,
      "电子邮件": 7923,
      "一直在": 7924,
      "年轻人": 7925,
      "特殊的": 7926,
      "正确的": 7927,
      "合理的": 7928,
      "所谓的": 7929,
      "ia": 7930,
      "ie": 7931,
      "mc": 7932,
      "wor": 7933,
      "you": 7934,
      "一系列": 7935,
      "上涨": 7936,
      "主管": 7937,
      "之下": 7938,
      "人为": 7939,
      "件的": 7940,
      "候选": 7941,
      "克林": 7942,
      "写的": 7943,
      "决于": 7944,
      "几种": 7945,
      "利率": 7946,
      "前往": 7947,
      "化工": 7948,
      "十五": 7949,
      "即便": 7950,
      "取决于": 7951,
      "各自": 7952,
      "后果": 7953,
      "味道": 7954,
      "哪些": 7955,
      "地图": 7956,
      "地址": 7957,
      "地说": 7958,
      "多年": 7959,
      "大陆": 7960,
      "夫人": 7961,
      "子上": 7962,
      "容器": 7963,
      "对称": 7964,
      "已有": 7965,
      "年度": 7966,
      "广州": 7967,
      "形状": 7968,
      "心里": 7969,
      "思路": 7970,
      "总理": 7971,
      "恐惧": 7972,
      "我已经": 7973,
      "所示": 7974,
      "无人": 7975,
      "是要": 7976,
      "显微": 7977,
      "浏览": 7978,
      "激烈": 7979,
      "爆发": 7980,
      "玩具": 7981,
      "的微": 7982,
      "看法": 7983,
      "种类": 7984,
      "稳定的": 7985,
      "符号": 7986,
      "答案": 7987,
      "给出": 7988,
      "艾滋": 7989,
      "英格兰": 7990,
      "警方": 7991,
      "认可": 7992,
      "让他": 7993,
      "财产": 7994,
      "贫困": 7995,
      "资格": 7996,
      "这张": 7997,
      "速率": 7998,
      "遭受": 7999,
      "没有任何": 8000,
      "需要的": 8001,
      "本文介绍了": 8002,
      "作为一个": 8003,
      "2011": 8004,
      "引起的": 8005,
      "另一方面": 8006,
      "1月": 8007,
      "33": 8008,
      "6月": 8009,
      "fac": 8010,
      "pr": 8011,
      "上一": 8012,
      "两年": 8013,
      "交互": 8014,
      "今后": 8015,
      "低的": 8016,
      "克尔": 8017,
      "出血": 8018,
      "分裂": 8019,
      "切除": 8020,
      "利润": 8021,
      "协助": 8022,
      "在高": 8023,
      "地理": 8024,
      "场景": 8025,
      "头的": 8026,
      "审判": 8027,
      "尚未": 8028,
      "屏幕": 8029,
      "工资": 8030,
      "布什": 8031,
      "年代": 8032,
      "延长": 8033,
      "强化": 8034,
      "影像": 8035,
      "彼此": 8036,
      "总部": 8037,
      "成年": 8038,
      "我说": 8039,
      "推荐": 8040,
      "旨在": 8041,
      "暴力": 8042,
      "更大": 8043,
      "更有": 8044,
      "最为": 8045,
      "最早": 8046,
      "有时候": 8047,
      "本人": 8048,
      "本来": 8049,
      "权的": 8050,
      "民众": 8051,
      "氨基": 8052,
      "水中": 8053,
      "流感": 8054,
      "源于": 8055,
      "灵活": 8056,
      "牙齿": 8057,
      "生理": 8058,
      "的世界": 8059,
      "的功能": 8060,
      "的基础": 8061,
      "的质量": 8062,
      "真是": 8063,
      "科研": 8064,
      "练习": 8065,
      "结核": 8066,
      "至今": 8067,
      "西亚": 8068,
      "要在": 8069,
      "视为": 8070,
      "让他们": 8071,
      "诉讼": 8072,
      "质量的": 8073,
      "这座": 8074,
      "这条": 8075,
      "采购": 8076,
      "项目的": 8077,
      "黑色": 8078,
      "我们要": 8079,
      "因为它": 8080,
      "2004年": 8081,
      "学生的": 8082,
      "很多人": 8083,
      "现代化": 8084,
      "自动化": 8085,
      "动力学": 8086,
      "可靠性": 8087,
      "对照组": 8088,
      "发言人": 8089,
      "99": 8090,
      "ge": 8091,
      "ha": 8092,
      "iv": 8093,
      "ibm": 8094,
      "下来的": 8095,
      "不了": 8096,
      "举办": 8097,
      "了他": 8098,
      "会计": 8099,
      "伯特": 8100,
      "假如": 8101,
      "典型的": 8102,
      "分辨": 8103,
      "制成": 8104,
      "单独": 8105,
      "同学": 8106,
      "在了": 8107,
      "基斯坦": 8108,
      "处的": 8109,
      "如下": 8110,
      "子和": 8111,
      "审查": 8112,
      "密的": 8113,
      "就有": 8114,
      "庆祝": 8115,
      "建模": 8116,
      "影片": 8117,
      "很可能": 8118,
      "惊讶": 8119,
      "房地产": 8120,
      "所述": 8121,
      "才是": 8122,
      "支出": 8123,
      "新生": 8124,
      "映射": 8125,
      "权力": 8126,
      "架构": 8127,
      "桥梁": 8128,
      "欣赏": 8129,
      "求解": 8130,
      "汤姆": 8131,
      "生育": 8132,
      "的不同": 8133,
      "的过程": 8134,
      "的内容": 8135,
      "的核心": 8136,
      "矩阵": 8137,
      "粮食": 8138,
      "素的": 8139,
      "繁荣": 8140,
      "统治": 8141,
      "者在": 8142,
      "螺旋": 8143,
      "解析": 8144,
      "证书": 8145,
      "较高的": 8146,
      "达到了": 8147,
      "通讯": 8148,
      "那就是": 8149,
      "都没有": 8150,
      "野生": 8151,
      "陶瓷": 8152,
      "首都": 8153,
      "高达": 8154,
      "黄色": 8155,
      "他们会": 8156,
      "方法的": 8157,
      "分析师": 8158,
      "如果您": 8159,
      "结果显示": 8160,
      "2006年": 8161,
      "发生在": 8162,
      "文化的": 8163,
      "有一天": 8164,
      "增加了": 8165,
      "形成的": 8166,
      "有限元": 8167,
      "45": 8168,
      "5月": 8169,
      "8月": 8170,
      "ber": 8171,
      "ta": 8172,
      "下滑": 8173,
      "与其": 8174,
      "专用": 8175,
      "中文": 8176,
      "主动": 8177,
      "互相": 8178,
      "介质": 8179,
      "优良": 8180,
      "体重": 8181,
      "依靠": 8182,
      "克里斯": 8183,
      "内在": 8184,
      "加州": 8185,
      "原始": 8186,
      "可行的": 8187,
      "各类": 8188,
      "和发展": 8189,
      "圣经": 8190,
      "场所": 8191,
      "均匀": 8192,
      "威尔": 8193,
      "季度": 8194,
      "完美的": 8195,
      "定量": 8196,
      "害怕": 8197,
      "岩石": 8198,
      "巴基斯坦": 8199,
      "幸运": 8200,
      "强制": 8201,
      "当今": 8202,
      "房屋": 8203,
      "排名": 8204,
      "摩托": 8205,
      "放大": 8206,
      "明星": 8207,
      "是从": 8208,
      "更改": 8209,
      "术后": 8210,
      "来了": 8211,
      "样本": 8212,
      "波动": 8213,
      "焊接": 8214,
      "焦点": 8215,
      "玛丽": 8216,
      "现金": 8217,
      "生涯": 8218,
      "电动": 8219,
      "电器": 8220,
      "的美国": 8221,
      "的患者": 8222,
      "的机会": 8223,
      "的位置": 8224,
      "看上去": 8225,
      "研发": 8226,
      "给他": 8227,
      "美联": 8228,
      "能在": 8229,
      "芯片": 8230,
      "英雄": 8231,
      "菜单": 8232,
      "解放": 8233,
      "诸多": 8234,
      "路径": 8235,
      "这只": 8236,
      "逐步": 8237,
      "雷达": 8238,
      "面包": 8239,
      "风景": 8240,
      "我们不": 8241,
      "我们会": 8242,
      "我们需要": 8243,
      "进行的": 8244,
      "没有人": 8245,
      "主要的": 8246,
      "时间和": 8247,
      "时间的": 8248,
      "经济学家": 8249,
      "的一切": 8250,
      "过程中的": 8251,
      "细胞的": 8252,
      "出现了": 8253,
      "健康的": 8254,
      "严重的": 8255,
      "供应商": 8256,
      "cc": 8257,
      "gr": 8258,
      "ho": 8259,
      "mp": 8260,
      "pa": 8261,
      "ser": 8262,
      "丙烯": 8263,
      "东部": 8264,
      "中有": 8265,
      "主人": 8266,
      "主任": 8267,
      "乐观": 8268,
      "了很多": 8269,
      "交叉": 8270,
      "传染": 8271,
      "出于": 8272,
      "制品": 8273,
      "博物": 8274,
      "占据": 8275,
      "卡尔": 8276,
      "印象": 8277,
      "发病": 8278,
      "可持续": 8279,
      "呼吁": 8280,
      "四川": 8281,
      "团体": 8282,
      "国会": 8283,
      "在其": 8284,
      "大楼": 8285,
      "实的": 8286,
      "宠物": 8287,
      "审计": 8288,
      "尔顿": 8289,
      "巴黎": 8290,
      "常见": 8291,
      "并发": 8292,
      "幼儿": 8293,
      "心灵": 8294,
      "成就": 8295,
      "我将": 8296,
      "抵达": 8297,
      "指挥": 8298,
      "揭示": 8299,
      "摄影": 8300,
      "料的": 8301,
      "是用": 8302,
      "板的": 8303,
      "查看": 8304,
      "样子": 8305,
      "毒性": 8306,
      "沟通": 8307,
      "泡沫": 8308,
      "活跃": 8309,
      "清除": 8310,
      "游泳": 8311,
      "犹太": 8312,
      "生日": 8313,
      "的孩子": 8314,
      "的含量": 8315,
      "的声音": 8316,
      "相机": 8317,
      "第五": 8318,
      "网页": 8319,
      "自杀": 8320,
      "行走": 8321,
      "观看": 8322,
      "过度": 8323,
      "酸盐": 8324,
      "集体": 8325,
      "青少年": 8326,
      "高中": 8327,
      "高压": 8328,
      "麦克": 8329,
      "！！": 8330,
      "我们已经": 8331,
      "中国人": 8332,
      "问题是": 8333,
      "使用了": 8334,
      "目的研究": 8335,
      "目的观察": 8336,
      "控制器": 8337,
      "得到的": 8338,
      "许多人": 8339,
      "设备的": 8340,
      "不过是": 8341,
      "告诉我": 8342,
      "制造商": 8343,
      "api": 8344,
      "有些人": 8345,
      "天然气": 8346,
      "更好地": 8347,
      "37": 8348,
      "9月": 8349,
      "om": 8350,
      "pv": 8351,
      "。（": 8352,
      "三年": 8353,
      "上有": 8354,
      "专利": 8355,
      "两者": 8356,
      "为原料": 8357,
      "主导": 8358,
      "久的": 8359,
      "也将": 8360,
      "也要": 8361,
      "争论": 8362,
      "仔细": 8363,
      "你必须": 8364,
      "兰克": 8365,
      "出一": 8366,
      "制度的": 8367,
      "即可": 8368,
      "却是": 8369,
      "反馈": 8370,
      "发起": 8371,
      "周六": 8372,
      "国务": 8373,
      "在对": 8374,
      "地点": 8375,
      "多次": 8376,
      "失业": 8377,
      "奇怪": 8378,
      "它可以": 8379,
      "将被": 8380,
      "尽量": 8381,
      "巧克": 8382,
      "广播": 8383,
      "愤怒": 8384,
      "所得": 8385,
      "打电话": 8386,
      "扮演": 8387,
      "找出": 8388,
      "承受": 8389,
      "收藏": 8390,
      "教会": 8391,
      "断裂": 8392,
      "时报": 8393,
      "是我": 8394,
      "案件": 8395,
      "此类": 8396,
      "流的": 8397,
      "渗透": 8398,
      "物种": 8399,
      "现有的": 8400,
      "用途": 8401,
      "病理": 8402,
      "的手": 8403,
      "的非": 8404,
      "的价值": 8405,
      "短期": 8406,
      "私人": 8407,
      "立刻": 8408,
      "等于": 8409,
      "简化": 8410,
      "米兰": 8411,
      "紧急": 8412,
      "缓慢": 8413,
      "美术": 8414,
      "老年": 8415,
      "脚本": 8416,
      "行性": 8417,
      "订单": 8418,
      "许可": 8419,
      "谨慎": 8420,
      "路透": 8421,
      "远离": 8422,
      "透露": 8423,
      "附加": 8424,
      "陷入": 8425,
      "随时": 8426,
      "麻烦": 8427,
      "齿轮": 8428,
      "作用的": 8429,
      "成为一个": 8430,
      "ard": 8431,
      "第二个": 8432,
      "ation": 8433,
      "基本的": 8434,
      "患者的": 8435,
      "之间的关系": 8436,
      "同样的": 8437,
      "葡萄酒": 8438,
      "相应的": 8439,
      "html": 8440,
      "自行车": 8441,
      "切尔西": 8442,
      "博物馆": 8443,
      "一生": 8444,
      "一辆": 8445,
      "三维": 8446,
      "三角": 8447,
      "下跌": 8448,
      "个性": 8449,
      "之所以": 8450,
      "他和": 8451,
      "他就": 8452,
      "代替": 8453,
      "会员": 8454,
      "光学": 8455,
      "光谱": 8456,
      "克莱": 8457,
      "冷却": 8458,
      "准则": 8459,
      "减小": 8460,
      "到一个": 8461,
      "前进": 8462,
      "受欢迎": 8463,
      "古典": 8464,
      "可见": 8465,
      "向前": 8466,
      "吸附": 8467,
      "回忆": 8468,
      "国有": 8469,
      "图形": 8470,
      "外科": 8471,
      "大于": 8472,
      "大幅": 8473,
      "威廉": 8474,
      "定期": 8475,
      "客观": 8476,
      "家具": 8477,
      "容量": 8478,
      "尔夫": 8479,
      "局限": 8480,
      "布朗": 8481,
      "布鲁": 8482,
      "带的": 8483,
      "形势": 8484,
      "微波": 8485,
      "德里": 8486,
      "忽略": 8487,
      "情的": 8488,
      "担忧": 8489,
      "指控": 8490,
      "指示": 8491,
      "提醒": 8492,
      "收缩": 8493,
      "效益": 8494,
      "更大的": 8495,
      "曼联": 8496,
      "术语": 8497,
      "杀死": 8498,
      "样品": 8499,
      "模具": 8500,
      "法和": 8501,
      "深的": 8502,
      "激活": 8503,
      "物体": 8504,
      "特定的": 8505,
      "率和": 8506,
      "疑问": 8507,
      "疗法": 8508,
      "白色": 8509,
      "睡眠": 8510,
      "穿过": 8511,
      "立场": 8512,
      "粒子": 8513,
      "纪念": 8514,
      "编程": 8515,
      "舞台": 8516,
      "英寸": 8517,
      "装备": 8518,
      "讲话": 8519,
      "该系统": 8520,
      "诸如": 8521,
      "走到": 8522,
      "超越": 8523,
      "遵循": 8524,
      "钢琴": 8525,
      "马上": 8526,
      "高等": 8527,
      "一个小": 8528,
      "我们对": 8529,
      "世界的": 8530,
      "2000": 8531,
      "2005年": 8532,
      "或者是": 8533,
      "人们的": 8534,
      "企业的": 8535,
      "孩子的": 8536,
      "的最佳": 8537,
      "年轻的": 8538,
      "太阳能": 8539,
      "真实的": 8540,
      "与此同时": 8541,
      "1000": 8542,
      "dp": 8543,
      "sd": 8544,
      "tr": 8545,
      "tt": 8546,
      "win": 8547,
      "》（": 8548,
      "一座": 8549,
      "两人": 8550,
      "主体": 8551,
      "主持": 8552,
      "了他的": 8553,
      "云南": 8554,
      "以上的": 8555,
      "们的": 8556,
      "任意": 8557,
      "会被": 8558,
      "但它": 8559,
      "做到": 8560,
      "健身": 8561,
      "克拉": 8562,
      "创伤": 8563,
      "删除": 8564,
      "加载": 8565,
      "发性": 8566,
      "叶片": 8567,
      "名单": 8568,
      "周末": 8569,
      "图的": 8570,
      "在该": 8571,
      "多么": 8572,
      "女子": 8573,
      "如同": 8574,
      "它在": 8575,
      "客人": 8576,
      "富有": 8577,
      "对待": 8578,
      "少的": 8579,
      "山东": 8580,
      "床上": 8581,
      "异性": 8582,
      "当局": 8583,
      "彻底": 8584,
      "必需": 8585,
      "快的": 8586,
      "总裁": 8587,
      "情形": 8588,
      "我有": 8589,
      "斗争": 8590,
      "无限": 8591,
      "日的": 8592,
      "早晨": 8593,
      "是通过": 8594,
      "景观": 8595,
      "月的": 8596,
      "有利于": 8597,
      "未能": 8598,
      "歌曲": 8599,
      "每日": 8600,
      "法测定": 8601,
      "液体": 8602,
      "清理": 8603,
      "游客": 8604,
      "火箭": 8605,
      "物流": 8606,
      "率为": 8607,
      "环节": 8608,
      "用了": 8609,
      "电源": 8610,
      "的中": 8611,
      "的形成": 8612,
      "直径": 8613,
      "知的": 8614,
      "米的": 8615,
      "精力": 8616,
      "红外": 8617,
      "给我们": 8618,
      "缺血": 8619,
      "街道": 8620,
      "表单": 8621,
      "负担": 8622,
      "负载": 8623,
      "路线": 8624,
      "身边": 8625,
      "辅助": 8626,
      "过于": 8627,
      "近期": 8628,
      "这就": 8629,
      "这款": 8630,
      "这部": 8631,
      "远程": 8632,
      "退休": 8633,
      "透过": 8634,
      "都市": 8635,
      "都被": 8636,
      "问卷": 8637,
      "顺利": 8638,
      "设计师": 8639,
      "本文主要": 8640,
      "数据的": 8641,
      "这种情况": 8642,
      "采用了": 8643,
      "存在的问题": 8644,
      "环境中": 8645,
      "目前的": 8646,
      "历史上": 8647,
      "第二天": 8648,
      "模式的": 8649,
      "组成的": 8650,
      "不仅仅": 8651,
      "负责人": 8652,
      "在此基础上": 8653,
      "气候变化": 8654,
      "完整的": 8655,
      "美丽的": 8656,
      "共和党": 8657,
      "字符串": 8658,
      "2月": 8659,
      "39": 8660,
      "600": 8661,
      "88": 8662,
      "br": 8663,
      "fo": 8664,
      "gle": 8665,
      "su": 8666,
      "”（": 8667,
      "一部": 8668,
      "不好": 8669,
      "不论": 8670,
      "不应该": 8671,
      "两次": 8672,
      "他将": 8673,
      "以此": 8674,
      "会使": 8675,
      "会对": 8676,
      "会谈": 8677,
      "佛罗": 8678,
      "保守": 8679,
      "克隆": 8680,
      "出席": 8681,
      "到来": 8682,
      "前提": 8683,
      "单词": 8684,
      "厚的": 8685,
      "台湾": 8686,
      "国民": 8687,
      "复苏": 8688,
      "太平": 8689,
      "孤独": 8690,
      "安静": 8691,
      "宝石": 8692,
      "差别": 8693,
      "当我们": 8694,
      "心肌": 8695,
      "忘记": 8696,
      "性与": 8697,
      "戏剧": 8698,
      "扩散": 8699,
      "把这些": 8700,
      "护士": 8701,
      "指令": 8702,
      "指南": 8703,
      "按钮": 8704,
      "排除": 8705,
      "推导": 8706,
      "描绘": 8707,
      "摄像": 8708,
      "收费": 8709,
      "文明": 8710,
      "新鲜": 8711,
      "星球": 8712,
      "星系": 8713,
      "是我们": 8714,
      "晶体": 8715,
      "暴露": 8716,
      "最低": 8717,
      "望远": 8718,
      "机关": 8719,
      "检索": 8720,
      "每周": 8721,
      "油田": 8722,
      "浪费": 8723,
      "消耗": 8724,
      "混乱": 8725,
      "温暖": 8726,
      "溶剂": 8727,
      "特的": 8728,
      "甲状": 8729,
      "留在": 8730,
      "病变": 8731,
      "的安全": 8732,
      "的运动": 8733,
      "的疗效": 8734,
      "社交": 8735,
      "站点": 8736,
      "糟糕": 8737,
      "维修": 8738,
      "缺点": 8739,
      "老鼠": 8740,
      "而非": 8741,
      "聚糖": 8742,
      "聚合物": 8743,
      "般的": 8744,
      "荷兰": 8745,
      "说是": 8746,
      "课堂": 8747,
      "谈话": 8748,
      "还不": 8749,
      "这儿": 8750,
      "这家": 8751,
      "这时": 8752,
      "这意味着": 8753,
      "进攻": 8754,
      "部件": 8755,
      "部的": 8756,
      "长度": 8757,
      "阶级": 8758,
      "我们有": 8759,
      "可以使用": 8760,
      "研究中": 8761,
      "进行研究": 8762,
      "设计和": 8763,
      "其他人": 8764,
      "生产的": 8765,
      "关系的": 8766,
      "原因是": 8767,
      "价值的": 8768,
      "来自于": 8769,
      "11月": 8770,
      "几个月": 8771,
      "证明了": 8772,
      "age": 8773,
      "db2": 8774,
      "伊斯兰": 8775,
      "望远镜": 8776,
      "400": 8777,
      "bc": 8778,
      "goo": 8779,
      "jo": 8780,
      "sy": 8781,
      "ter": 8782,
      "不停": 8783,
      "东南": 8784,
      "仍在": 8785,
      "他把": 8786,
      "优越": 8787,
      "伟大": 8788,
      "住了": 8789,
      "你有": 8790,
      "停车": 8791,
      "共有": 8792,
      "具体的": 8793,
      "出租": 8794,
      "加坡": 8795,
      "动画": 8796,
      "单一": 8797,
      "原油": 8798,
      "去除": 8799,
      "听见": 8800,
      "味的": 8801,
      "命名": 8802,
      "命运": 8803,
      "和不": 8804,
      "在上": 8805,
      "在内": 8806,
      "在新": 8807,
      "场上": 8808,
      "城镇": 8809,
      "大声": 8810,
      "夫妇": 8811,
      "展览": 8812,
      "度假": 8813,
      "得多": 8814,
      "德的": 8815,
      "心情": 8816,
      "我把": 8817,
      "挑选": 8818,
      "挖掘": 8819,
      "接下来": 8820,
      "放置": 8821,
      "政权": 8822,
      "教堂": 8823,
      "日报": 8824,
      "时期的": 8825,
      "智慧": 8826,
      "更容易": 8827,
      "汉语": 8828,
      "浪漫": 8829,
      "温和": 8830,
      "渴望": 8831,
      "满了": 8832,
      "生气": 8833,
      "电阻": 8834,
      "的性": 8835,
      "的公司": 8836,
      "的第一": 8837,
      "的相关": 8838,
      "的危险": 8839,
      "石头": 8840,
      "磨损": 8841,
      "税收": 8842,
      "窗口": 8843,
      "等的": 8844,
      "简便": 8845,
      "简要": 8846,
      "缅甸": 8847,
      "缓存": 8848,
      "老板": 8849,
      "而成": 8850,
      "股价": 8851,
      "股份": 8852,
      "能否": 8853,
      "脱离": 8854,
      "萨斯": 8855,
      "认真": 8856,
      "设定": 8857,
      "诗歌": 8858,
      "象征": 8859,
      "赋予": 8860,
      "远的": 8861,
      "那天": 8862,
      "酒吧": 8863,
      "量子": 8864,
      "降解": 8865,
      "难道": 8866,
      "领袖": 8867,
      "设计了": 8868,
      "已经被": 8869,
      "这样一个": 8870,
      "20世纪": 8871,
      "是一名": 8872,
      "目前为止": 8873,
      "看到的": 8874,
      "12月": 8875,
      "表现出": 8876,
      "考虑到": 8877,
      "一定要": 8878,
      "ook": 8879,
      "民主党": 8880,
      "催化剂": 8881,
      "候选人": 8882,
      "48": 8883,
      "52": 8884,
      "7月": 8885,
      "fr": 8886,
      "lu": 8887,
      "ts": 8888,
      "wit": 8889,
      "一件": 8890,
      "两位": 8891,
      "个体": 8892,
      "之内": 8893,
      "乙烯": 8894,
      "产权": 8895,
      "以外": 8896,
      "份额": 8897,
      "休闲": 8898,
      "众多": 8899,
      "优于": 8900,
      "但我": 8901,
      "但这": 8902,
      "入侵": 8903,
      "全体": 8904,
      "公元": 8905,
      "内涵": 8906,
      "再生": 8907,
      "写道": 8908,
      "前列": 8909,
      "前面": 8910,
      "加以": 8911,
      "医药": 8912,
      "各项": 8913,
      "同性": 8914,
      "名叫": 8915,
      "在这种": 8916,
      "在我的": 8917,
      "墙上": 8918,
      "夏季": 8919,
      "天线": 8920,
      "好处": 8921,
      "宏观": 8922,
      "定了": 8923,
      "对话": 8924,
      "将于": 8925,
      "将是": 8926,
      "小孩": 8927,
      "尽可能": 8928,
      "层面": 8929,
      "屋顶": 8930,
      "开心": 8931,
      "意的": 8932,
      "成像": 8933,
      "手指": 8934,
      "找到了": 8935,
      "抑郁": 8936,
      "提前": 8937,
      "提议": 8938,
      "放松": 8939,
      "斯顿": 8940,
      "旅客": 8941,
      "无关": 8942,
      "最有": 8943,
      "月亮": 8944,
      "杆菌": 8945,
      "段时间": 8946,
      "液相": 8947,
      "灾难": 8948,
      "点击": 8949,
      "热量": 8950,
      "狭窄": 8951,
      "王子": 8952,
      "由此": 8953,
      "界的": 8954,
      "的上": 8955,
      "的社会": 8956,
      "的支持": 8957,
      "的艺术": 8958,
      "的价格": 8959,
      "着重": 8960,
      "笔记": 8961,
      "线路": 8962,
      "给她": 8963,
      "给他们": 8964,
      "编译": 8965,
      "美好": 8966,
      "聪明": 8967,
      "色谱": 8968,
      "荧光": 8969,
      "讨厌": 8970,
      "语义": 8971,
      "语音": 8972,
      "谈论": 8973,
      "迁移": 8974,
      "还将": 8975,
      "透明": 8976,
      "那就": 8977,
      "锻炼": 8978,
      "防守": 8979,
      "隧道": 8980,
      "食用": 8981,
      "饱和": 8982,
      "马斯": 8983,
      "骨折": 8984,
      "％。": 8985,
      "研究发现": 8986,
      "中国家": 8987,
      "中国政府": 8988,
      "因为他们": 8989,
      "世界杯": 8990,
      "2000年": 8991,
      "处理器": 8992,
      "显示了": 8993,
      "标准的": 8994,
      "成功地": 8995,
      "all": 8996,
      "确定了": 8997,
      "类似的": 8998,
      "基金会": 8999,
      "相互作用": 9000,
      "甲状腺": 9001,
      "55": 9002,
      "64": 9003,
      "86": 9004,
      "800": 9005,
      "cm": 9006,
      "can": 9007,
      "dr": 9008,
      "der": 9009,
      "ment": 9010,
      "os": 9011,
      "por": 9012,
      "vm": 9013,
      "一是": 9014,
      "一本": 9015,
      "不大": 9016,
      "不愿": 9017,
      "东北": 9018,
      "中华": 9019,
      "之上": 9020,
      "了这个": 9021,
      "了起来": 9022,
      "什麽": 9023,
      "他会": 9024,
      "以往": 9025,
      "仪器": 9026,
      "传动": 9027,
      "低温": 9028,
      "你说": 9029,
      "促使": 9030,
      "信贷": 9031,
      "元件": 9032,
      "光的": 9033,
      "关心": 9034,
      "决赛": 9035,
      "出售": 9036,
      "分割": 9037,
      "则是": 9038,
      "加哥": 9039,
      "加快": 9040,
      "区分": 9041,
      "十字": 9042,
      "升级": 9043,
      "又有": 9044,
      "受到了": 9045,
      "司机": 9046,
      "后者": 9047,
      "含义": 9048,
      "员的": 9049,
      "周一": 9050,
      "周二": 9051,
      "和其它": 9052,
      "填充": 9053,
      "大气": 9054,
      "太太": 9055,
      "字段": 9056,
      "季节": 9057,
      "它将": 9058,
      "对抗": 9059,
      "对该": 9060,
      "将来": 9061,
      "嵌入": 9062,
      "布莱": 9063,
      "平静": 9064,
      "开设": 9065,
      "开车": 9066,
      "开采": 9067,
      "彩色": 9068,
      "微笑": 9069,
      "志愿": 9070,
      "承载": 9071,
      "把我": 9072,
      "报价": 9073,
      "抵押": 9074,
      "插入": 9075,
      "敌人": 9076,
      "数码": 9077,
      "新华": 9078,
      "日前": 9079,
      "是为": 9080,
      "板上": 9081,
      "氨酸": 9082,
      "汽油": 9083,
      "沿海": 9084,
      "法规": 9085,
      "疯狂": 9086,
      "疲劳": 9087,
      "的金": 9088,
      "的系统": 9089,
      "的使用": 9090,
      "的城市": 9091,
      "的性能": 9092,
      "的需求": 9093,
      "的感觉": 9094,
      "的名字": 9095,
      "监视": 9096,
      "真空": 9097,
      "硬化": 9098,
      "神的": 9099,
      "空调": 9100,
      "第六": 9101,
      "签署": 9102,
      "繁殖": 9103,
      "维生素": 9104,
      "网格": 9105,
      "美好的": 9106,
      "职位": 9107,
      "聚合": 9108,
      "股市": 9109,
      "胰岛": 9110,
      "胶囊": 9111,
      "致命": 9112,
      "节能": 9113,
      "药品": 9114,
      "莱坞": 9115,
      "蓝色": 9116,
      "表格": 9117,
      "西兰": 9118,
      "要么": 9119,
      "视图": 9120,
      "议院": 9121,
      "负荷": 9122,
      "路易": 9123,
      "转会": 9124,
      "这对": 9125,
      "进化": 9126,
      "选用": 9127,
      "遭遇": 9128,
      "那一": 9129,
      "配套": 9130,
      "隐藏": 9131,
      "隔离": 9132,
      "静态": 9133,
      "风暴": 9134,
      "）；": 9135,
      "分析和": 9136,
      "技术和": 9137,
      "的一次": 9138,
      "结构和": 9139,
      "194": 9140,
      "195": 9141,
      "开始了": 9142,
      "生物学": 9143,
      "其中包括": 9144,
      "完成了": 9145,
      "客户端": 9146,
      "ell": 9147,
      "建筑物": 9148,
      "注意到": 9149,
      "的重要性": 9150,
      "艾滋病": 9151,
      "氨基酸": 9152,
      "巧克力": 9153,
      "%,": 9154,
      "42": 9155,
      "bs": 9156,
      "dna": 9157,
      "fs": 9158,
      "go": 9159,
      "ist": 9160,
      "mm": 9161,
      "min": 9162,
      "pt": 9163,
      "ure": 9164,
      "不清": 9165,
      "业的": 9166,
      "为人": 9167,
      "乳腺": 9168,
      "二次": 9169,
      "二维": 9170,
      "五个": 9171,
      "亲爱的": 9172,
      "人与": 9173,
      "代价": 9174,
      "伯格": 9175,
      "位移": 9176,
      "体积": 9177,
      "你想": 9178,
      "你应该": 9179,
      "信仰": 9180,
      "借鉴": 9181,
      "债券": 9182,
      "像是": 9183,
      "全身": 9184,
      "农场": 9185,
      "减轻": 9186,
      "刑事": 9187,
      "利物": 9188,
      "到20": 9189,
      "剂量": 9190,
      "南方": 9191,
      "及时": 9192,
      "友好": 9193,
      "叙述": 9194,
      "另一种": 9195,
      "吸烟": 9196,
      "和美国": 9197,
      "哪儿": 9198,
      "喜剧": 9199,
      "器官": 9200,
      "回去": 9201,
      "在世界": 9202,
      "在我国": 9203,
      "坐标": 9204,
      "多年的": 9205,
      "大会": 9206,
      "天空": 9207,
      "太多": 9208,
      "头部": 9209,
      "好莱坞": 9210,
      "字母": 9211,
      "对应": 9212,
      "尔兰": 9213,
      "展现": 9214,
      "布置": 9215,
      "干净": 9216,
      "平行": 9217,
      "并对其": 9218,
      "度过": 9219,
      "康复": 9220,
      "开拓": 9221,
      "很高兴": 9222,
      "感情": 9223,
      "成形": 9224,
      "手中": 9225,
      "才会": 9226,
      "打印": 9227,
      "援助": 9228,
      "方位": 9229,
      "是很": 9230,
      "更是": 9231,
      "最喜欢": 9232,
      "有机会": 9233,
      "极其": 9234,
      "极限": 9235,
      "染色": 9236,
      "橄榄": 9237,
      "沙漠": 9238,
      "河流": 9239,
      "法庭": 9240,
      "海水": 9241,
      "消防": 9242,
      "深度": 9243,
      "渠道": 9244,
      "灵敏": 9245,
      "玉米": 9246,
      "玩家": 9247,
      "生意": 9248,
      "用品": 9249,
      "电极": 9250,
      "男女": 9251,
      "的双": 9252,
      "的无": 9253,
      "的气": 9254,
      "的开发": 9255,
      "的活动": 9256,
      "的故事": 9257,
      "监管": 9258,
      "着的": 9259,
      "神秘": 9260,
      "离婚": 9261,
      "穆斯": 9262,
      "精英": 9263,
      "纺织": 9264,
      "维尔": 9265,
      "综述了": 9266,
      "者和": 9267,
      "而已": 9268,
      "脸上": 9269,
      "自治": 9270,
      "芝加哥": 9271,
      "被迫": 9272,
      "规格": 9273,
      "詹姆斯": 9274,
      "认证": 9275,
      "询问": 9276,
      "说到": 9277,
      "说过": 9278,
      "过渡": 9279,
      "这也": 9280,
      "这件事": 9281,
      "造型": 9282,
      "配方": 9283,
      "锈钢": 9284,
      "镜头": 9285,
      "间接": 9286,
      "集合": 9287,
      "集群": 9288,
      "靠近": 9289,
      "顺序": 9290,
      "马丁": 9291,
      "高血压": 9292,
      "，《": 9293,
      "公司在": 9294,
      "提供了一个": 9295,
      "已经在": 9296,
      "一些人": 9297,
      "本文从": 9298,
      "2003年": 9299,
      "2002年": 9300,
      "处理的": 9301,
      "生活在": 9302,
      "20年": 9303,
      "人们对": 9304,
      "基础设施": 9305,
      "是否会": 9306,
      "解决了": 9307,
      "的大小": 9308,
      "意义的": 9309,
      "今天的": 9310,
      "特别的": 9311,
      "改变了": 9312,
      "ack": 9313,
      "领域的": 9314,
      "形式的": 9315,
      "注意力": 9316,
      "经历了": 9317,
      "无论是": 9318,
      "奥运会": 9319,
      "2011年": 9320,
      "利物浦": 9321,
      "38": 9322,
      "3月": 9323,
      "47": 9324,
      "bp": 9325,
      "dm": 9326,
      "fa": 9327,
      "ql": 9328,
      "。“": 9329,
      "一支": 9330,
      "一组": 9331,
      "一群": 9332,
      "一开始": 9333,
      "下一个": 9334,
      "不但": 9335,
      "不住": 9336,
      "不幸": 9337,
      "业绩": 9338,
      "中方": 9339,
      "中药": 9340,
      "乔治": 9341,
      "也不会": 9342,
      "了吗": 9343,
      "了在": 9344,
      "互动": 9345,
      "会是": 9346,
      "作物": 9347,
      "你需要": 9348,
      "储备": 9349,
      "共振": 9350,
      "净化": 9351,
      "击败": 9352,
      "切割": 9353,
      "利比亚": 9354,
      "到目前为止": 9355,
      "勇敢": 9356,
      "化和": 9357,
      "协同": 9358,
      "厚度": 9359,
      "反复": 9360,
      "发动": 9361,
      "变暖": 9362,
      "号码": 9363,
      "合约": 9364,
      "和他": 9365,
      "和我": 9366,
      "唱歌": 9367,
      "图案": 9368,
      "塞尔": 9369,
      "外面": 9370,
      "学位": 9371,
      "密封": 9372,
      "对他们": 9373,
      "对中国": 9374,
      "导航": 9375,
      "已在": 9376,
      "布局": 9377,
      "希尔": 9378,
      "干旱": 9379,
      "干燥": 9380,
      "平等": 9381,
      "延迟": 9382,
      "开的": 9383,
      "很小": 9384,
      "心中": 9385,
      "想起": 9386,
      "抵抗": 9387,
      "授权": 9388,
      "探究": 9389,
      "携带": 9390,
      "摘要": 9391,
      "摧毁": 9392,
      "播放": 9393,
      "无疑": 9394,
      "时光": 9395,
      "明年": 9396,
      "是无": 9397,
      "最小": 9398,
      "极端": 9399,
      "校园": 9400,
      "歧视": 9401,
      "水量": 9402,
      "没人": 9403,
      "油气": 9404,
      "淀粉": 9405,
      "深圳": 9406,
      "爱尔兰": 9407,
      "电机": 9408,
      "的山": 9409,
      "的部分": 9410,
      "的生产": 9411,
      "的形式": 9412,
      "的表达": 9413,
      "的可能性": 9414,
      "皇家": 9415,
      "看作": 9416,
      "眼镜": 9417,
      "硫酸": 9418,
      "碰撞": 9419,
      "秩序": 9420,
      "窗户": 9421,
      "等问题": 9422,
      "绘制": 9423,
      "群岛": 9424,
      "自主": 9425,
      "至关": 9426,
      "舒服": 9427,
      "船舶": 9428,
      "艰难": 9429,
      "节省": 9430,
      "著作": 9431,
      "蒙古": 9432,
      "衰退": 9433,
      "西南": 9434,
      "见过": 9435,
      "视角": 9436,
      "解剖": 9437,
      "讽刺": 9438,
      "词的": 9439,
      "货物": 9440,
      "路由": 9441,
      "轨道": 9442,
      "达尔": 9443,
      "追踪": 9444,
      "遥感": 9445,
      "遭到": 9446,
      "那儿": 9447,
      "阻碍": 9448,
      "饮料": 9449,
      "饲料": 9450,
      "高温": 9451,
      "我们是": 9452,
      "研究者": 9453,
      "中的一个": 9454,
      "因为他": 9455,
      "作为一种": 9456,
      "管理的": 9457,
      "市场上": 9458,
      "选择的": 9459,
      "运动的": 9460,
      "变化的": 9461,
      "活动的": 9462,
      "出现的": 9463,
      "有关的": 9464,
      "形成了": 9465,
      "性能的影响": 9466,
      "提出的": 9467,
      "ate": 9468,
      "主义的": 9469,
      "的一个重要": 9470,
      "告诉我们": 9471,
      "艺术家": 9472,
      "ace": 9473,
      "的最新": 9474,
      "创建一个": 9475,
      "ebook": 9476,
      "类似于": 9477,
      "即使是": 9478,
      "科学家们": 9479,
      "dows": 9480,
      "搜索引擎": 9481,
      "plc": 9482,
      "回顾性": 9483,
      "百分之": 9484,
      "二氧化碳": 9485,
      "facebook": 9486,
      "windows": 9487,
      "google": 9488,
      "56": 9489,
      "77": 9490,
      "cor": 9491,
      "ft": 9492,
      "ga": 9493,
      "mac": 9494,
      "tm": 9495,
      "一体": 9496,
      "一大": 9497,
      "一把": 9498,
      "三十": 9499,
      "上是": 9500,
      "不应": 9501,
      "不必": 9502,
      "不见": 9503,
      "为其": 9504,
      "也可能": 9505,
      "也不能": 9506,
      "从中": 9507,
      "他也": 9508,
      "以其": 9509,
      "会产生": 9510,
      "传说": 9511,
      "使我们": 9512,
      "修正": 9513,
      "储存": 9514,
      "全新的": 9515,
      "公寓": 9516,
      "内心": 9517,
      "决心": 9518,
      "切片": 9519,
      "创意": 9520,
      "加密": 9521,
      "危害": 9522,
      "又是": 9523,
      "变更": 9524,
      "变成了": 9525,
      "各位": 9526,
      "合法": 9527,
      "后期": 9528,
      "周四": 9529,
      "喜爱": 9530,
      "器和": 9531,
      "回报": 9532,
      "围绕": 9533,
      "在你的": 9534,
      "在这一": 9535,
      "垂直": 9536,
      "多糖": 9537,
      "夫妻": 9538,
      "奴隶": 9539,
      "安德": 9540,
      "审美": 9541,
      "对策": 9542,
      "导向": 9543,
      "尊重": 9544,
      "尼尔": 9545,
      "州市": 9546,
      "布拉": 9547,
      "并与": 9548,
      "广场": 9549,
      "开启": 9550,
      "患有": 9551,
      "我从": 9552,
      "我相信": 9553,
      "扩张": 9554,
      "报导": 9555,
      "抱怨": 9556,
      "排列": 9557,
      "插件": 9558,
      "支架": 9559,
      "斯说": 9560,
      "日子": 9561,
      "最新的": 9562,
      "有益": 9563,
      "有两个": 9564,
      "村庄": 9565,
      "标识": 9566,
      "标题": 9567,
      "格拉": 9568,
      "植被": 9569,
      "正交": 9570,
      "毒品": 9571,
      "比尔": 9572,
      "水稻": 9573,
      "永久": 9574,
      "法官": 9575,
      "波特": 9576,
      "注重": 9577,
      "活力": 9578,
      "港口": 9579,
      "滤波": 9580,
      "激动": 9581,
      "爵士": 9582,
      "率的": 9583,
      "玫瑰": 9584,
      "瑞典": 9585,
      "用水": 9586,
      "登记": 9587,
      "白人": 9588,
      "的名": 9589,
      "的需要": 9590,
      "的用户": 9591,
      "的表现": 9592,
      "的平均": 9593,
      "的数量": 9594,
      "盆地": 9595,
      "监狱": 9596,
      "直升": 9597,
      "睡觉": 9598,
      "矩形": 9599,
      "破碎": 9600,
      "积累": 9601,
      "程度的": 9602,
      "等离子": 9603,
      "级的": 9604,
      "纯粹": 9605,
      "而来": 9606,
      "节的": 9607,
      "花了": 9608,
      "苏格兰": 9609,
      "荣誉": 9610,
      "获奖": 9611,
      "蒸发": 9612,
      "融资": 9613,
      "该文": 9614,
      "语句": 9615,
      "越南": 9616,
      "较大的": 9617,
      "迄今": 9618,
      "还能": 9619,
      "遗产": 9620,
      "里达": 9621,
      "长期的": 9622,
      "队列": 9623,
      "阳性": 9624,
      "频繁": 9625,
      "额外的": 9626,
      "黑人": 9627,
      "我们现在": 9628,
      "他们是": 9629,
      "方法和": 9630,
      "没有什么": 9631,
      "美国和": 9632,
      "已经成为": 9633,
      "的一位": 9634,
      "控制的": 9635,
      "控制系统": 9636,
      "过程的": 9637,
      "功能的": 9638,
      "环境的": 9639,
      "理论的": 9640,
      "教育的": 9641,
      "其中一个": 9642,
      "介绍了一种": 9643,
      "资源的": 9644,
      "水平的": 9645,
      "ity": 9646,
      "参数的": 9647,
      "相当于": 9648,
      "基督教": 9649,
      "首席执行": 9650,
      "被认为是": 9651,
      "胰岛素": 9652,
      ",\"": 9653,
      "51": 9654,
      "95": 9655,
      "ix": 9656,
      "ld": 9657,
      "ux": 9658,
      "一九": 9659,
      "一周": 9660,
      "不够": 9661,
      "不喜欢": 9662,
      "不确定": 9663,
      "东方": 9664,
      "严肃": 9665,
      "个小时": 9666,
      "丽莎": 9667,
      "之际": 9668,
      "乡村": 9669,
      "书中": 9670,
      "了个": 9671,
      "予以": 9672,
      "些时候": 9673,
      "享有": 9674,
      "人格": 9675,
      "仿佛": 9676,
      "优雅": 9677,
      "伴侣": 9678,
      "但我们": 9679,
      "作战": 9680,
      "你将": 9681,
      "你所": 9682,
      "使他们": 9683,
      "值的": 9684,
      "克服": 9685,
      "其在": 9686,
      "冠状": 9687,
      "列车": 9688,
      "到处": 9689,
      "前言": 9690,
      "加利": 9691,
      "劳动力": 9692,
      "千万": 9693,
      "华尔": 9694,
      "单个": 9695,
      "南非": 9696,
      "卡罗": 9697,
      "印刷": 9698,
      "厨房": 9699,
      "去做": 9700,
      "受害": 9701,
      "只有一": 9702,
      "可供": 9703,
      "史上": 9704,
      "合格": 9705,
      "同一个": 9706,
      "周边": 9707,
      "和高": 9708,
      "哥哥": 9709,
      "地铁": 9710,
      "垄断": 9711,
      "复兴": 9712,
      "宝宝": 9713,
      "实质": 9714,
      "导演": 9715,
      "常用的": 9716,
      "并用": 9717,
      "并购": 9718,
      "广大": 9719,
      "得分": 9720,
      "微软": 9721,
      "忍受": 9722,
      "意志": 9723,
      "慈善": 9724,
      "把他": 9725,
      "拿着": 9726,
      "持有": 9727,
      "指责": 9728,
      "推理": 9729,
      "摆脱": 9730,
      "效力": 9731,
      "斯基": 9732,
      "新加坡": 9733,
      "旁边": 9734,
      "无需": 9735,
      "早已": 9736,
      "是他": 9737,
      "是我国": 9738,
      "曲面": 9739,
      "月球": 9740,
      "来做": 9741,
      "比利": 9742,
      "气的": 9743,
      "气管": 9744,
      "氯化": 9745,
      "水性": 9746,
      "沃尔": 9747,
      "泰国": 9748,
      "海外": 9749,
      "液压": 9750,
      "激情": 9751,
      "灾害": 9752,
      "烟草": 9753,
      "热情": 9754,
      "牛奶": 9755,
      "珠宝": 9756,
      "理工": 9757,
      "理查": 9758,
      "的低": 9759,
      "的全": 9760,
      "的有": 9761,
      "的实验": 9762,
      "的颜色": 9763,
      "的态度": 9764,
      "看出": 9765,
      "短暂": 9766,
      "破裂": 9767,
      "祈祷": 9768,
      "称之": 9769,
      "篇文章": 9770,
      "紧密": 9771,
      "紫外": 9772,
      "组的": 9773,
      "终止": 9774,
      "翅膀": 9775,
      "而又": 9776,
      "而被": 9777,
      "聊天": 9778,
      "肺炎": 9779,
      "致的": 9780,
      "薄膜": 9781,
      "表情": 9782,
      "要素": 9783,
      "视野": 9784,
      "讲述": 9785,
      "设想": 9786,
      "说服": 9787,
      "质疑": 9788,
      "赔偿": 9789,
      "跟着": 9790,
      "较低": 9791,
      "还需要": 9792,
      "这名": 9793,
      "远远": 9794,
      "迹象": 9795,
      "选民": 9796,
      "随之": 9797,
      "鲨鱼": 9798,
      "我们能": 9799,
      "可以用": 9800,
      "工作人员": 9801,
      "这些人": 9802,
      "这些问题": 9803,
      "分析方法": 9804,
      "的人民": 9805,
      "经济增长": 9806,
      "生活中": 9807,
      "信息的": 9808,
      "了一下": 9809,
      "第一章": 9810,
      "有一定的": 9811,
      "ste": 9812,
      "一样的": 9813,
      "用户的": 9814,
      "let": 9815,
      "第二次": 9816,
      "第二部分": 9817,
      "是否有": 9818,
      "告诉你": 9819,
      "合作伙伴": 9820,
      "神经网络": 9821,
      "人类的": 9822,
      "最近的": 9823,
      "ame": 9824,
      "怎么样": 9825,
      "这么做": 9826,
      "独立的": 9827,
      "展示了": 9828,
      "验证了": 9829,
      "很好地": 9830,
      "仅仅是": 9831,
      "自身的": 9832,
      "意思是": 9833,
      "杰克逊": 9834,
      "合适的": 9835,
      "三分之一": 9836,
      "美联储": 9837,
      "太平洋": 9838,
      "port": 9839,
      "穆斯林": 9840,
      "%）": 9841,
      "01": 9842,
      "54": 9843,
      "65": 9844,
      "67": 9845,
      "87": 9846,
      "ak": 9847,
      "cr": 9848,
      "ee": 9849,
      "gb": 9850,
      "ly": 9851,
      "my": 9852,
      "per": 9853,
      "ub": 9854,
      "一人": 9855,
      "一套": 9856,
      "一颗": 9857,
      "不锈钢": 9858,
      "专注": 9859,
      "为何": 9860,
      "为你": 9861,
      "为一个": 9862,
      "也就": 9863,
      "也没": 9864,
      "了的": 9865,
      "交谈": 9866,
      "亨利": 9867,
      "人力": 9868,
      "今年的": 9869,
      "他又": 9870,
      "会儿": 9871,
      "会发生": 9872,
      "会导致": 9873,
      "住房": 9874,
      "例外": 9875,
      "便于": 9876,
      "做好": 9877,
      "公正": 9878,
      "内核": 9879,
      "冬天": 9880,
      "分化": 9881,
      "分泌": 9882,
      "前后": 9883,
      "功效": 9884,
      "勘探": 9885,
      "原来": 9886,
      "去世": 9887,
      "及其他": 9888,
      "友谊": 9889,
      "只需": 9890,
      "可怕": 9891,
      "否认": 9892,
      "告知": 9893,
      "周五": 9894,
      "周日": 9895,
      "和大": 9896,
      "和小": 9897,
      "咱们": 9898,
      "在家": 9899,
      "在小": 9900,
      "地在": 9901,
      "地层": 9902,
      "场合": 9903,
      "多年来": 9904,
      "大地": 9905,
      "大豆": 9906,
      "天使": 9907,
      "天津": 9908,
      "头上": 9909,
      "奖励": 9910,
      "奥斯": 9911,
      "好吧": 9912,
      "好好": 9913,
      "妙的": 9914,
      "姑娘": 9915,
      "实体": 9916,
      "实证": 9917,
      "就被": 9918,
      "尼克": 9919,
      "岗位": 9920,
      "差不多": 9921,
      "巴勒": 9922,
      "布尔": 9923,
      "并未": 9924,
      "并提出了": 9925,
      "库存": 9926,
      "应变": 9927,
      "强大": 9928,
      "当他": 9929,
      "我爱": 9930,
      "打造": 9931,
      "把握": 9932,
      "抗体": 9933,
      "报警": 9934,
      "拯救": 9935,
      "据报道": 9936,
      "授予": 9937,
      "描述了": 9938,
      "摩根": 9939,
      "整天": 9940,
      "整理": 9941,
      "新技术": 9942,
      "晚期": 9943,
      "有两": 9944,
      "有用": 9945,
      "本论文": 9946,
      "杉矶": 9947,
      "柏林": 9948,
      "横向": 9949,
      "次数": 9950,
      "步行": 9951,
      "武装": 9952,
      "毒素": 9953,
      "水库": 9954,
      "注入": 9955,
      "洛杉矶": 9956,
      "溶液": 9957,
      "演变": 9958,
      "潜力": 9959,
      "激发": 9960,
      "王国": 9961,
      "珍珠": 9962,
      "理事": 9963,
      "画面": 9964,
      "登陆": 9965,
      "的原": 9966,
      "的长": 9967,
      "的中国": 9968,
      "的治疗": 9969,
      "的比赛": 9970,
      "的工艺": 9971,
      "目光": 9972,
      "真菌": 9973,
      "矿物": 9974,
      "确立": 9975,
      "确定的": 9976,
      "等到": 9977,
      "筛选": 9978,
      "简直": 9979,
      "篮球": 9980,
      "索引": 9981,
      "线索": 9982,
      "织物": 9983,
      "结晶": 9984,
      "缺少": 9985,
      "股权": 9986,
      "胚胎": 9987,
      "脆弱": 9988,
      "腐败": 9989,
      "若干": 9990,
      "莫斯科": 9991,
      "萃取": 9992,
      "蒸汽": 9993,
      "裂纹": 9994,
      "要点": 9995,
      "计数": 9996,
      "计量": 9997,
      "认同": 9998,
      "读书": 9999,
      "起到": 10000,
      "起源": 10001,
      "起着": 10002,
      "轴承": 10003,
      "载体": 10004,
      "较好": 10005,
      "过敏": 10006,
      "迈克尔": 10007,
      "还原": 10008,
      "这也是": 10009,
      "选取": 10010,
      "道的": 10011,
      "邻居": 10012,
      "都很": 10013,
      "都需要": 10014,
      "都知道": 10015,
      "配备": 10016,
      "酸性": 10017,
      "鉴别": 10018,
      "长达": 10019,
      "阵列": 10020,
      "陌生": 10021,
      "难民": 10022,
      "预先": 10023,
      "马拉": 10024,
      "骄傲": 10025,
      "骨头": 10026,
      "麻醉": 10027,
      "：「": 10028,
      "如果我们": 10029,
      "发展中国家": 10030,
      "但是在": 10031,
      "本文以": 10032,
      "本文研究了": 10033,
      "发现的": 10034,
      "存在于": 10035,
      "社会主义": 10036,
      "实现的": 10037,
      "显示出": 10038,
      "开发的": 10039,
      "反应的": 10040,
      "朋友们": 10041,
      "全球经济": 10042,
      "act": 10043,
      "准备好": 10044,
      "神经元": 10045,
      "学校的": 10046,
      "氧化物": 10047,
      "参加了": 10048,
      "时代的": 10049,
      "越来越多的": 10050,
      "错误的": 10051,
      "我不知道": 10052,
      "失去了": 10053,
      "世界上最": 10054,
      "的日子": 10055,
      "摩托车": 10056,
      "佛罗里达": 10057,
      "称之为": 10058,
      "cs": 10059,
      "ect": 10060,
      "ik": 10061,
      "ric": 10062,
      "sim": 10063,
      "sql": 10064,
      "tp": 10065,
      "不及": 10066,
      "不如": 10067,
      "丢失": 10068,
      "中期": 10069,
      "中毒": 10070,
      "中被": 10071,
      "中部": 10072,
      "书籍": 10073,
      "了两": 10074,
      "五年": 10075,
      "今日": 10076,
      "传奇": 10077,
      "你好": 10078,
      "你对": 10079,
      "依照": 10080,
      "信的": 10081,
      "倾斜": 10082,
      "偶尔": 10083,
      "元数据": 10084,
      "光纤": 10085,
      "克里": 10086,
      "党的": 10087,
      "公主": 10088,
      "冬季": 10089,
      "几周": 10090,
      "划分": 10091,
      "利班": 10092,
      "剩余": 10093,
      "医师": 10094,
      "协作": 10095,
      "单击": 10096,
      "单片": 10097,
      "卡扎": 10098,
      "受损": 10099,
      "号的": 10100,
      "吃的": 10101,
      "吃饭": 10102,
      "和治疗": 10103,
      "哪个": 10104,
      "四种": 10105,
      "团结": 10106,
      "困扰": 10107,
      "图表": 10108,
      "培育": 10109,
      "多元": 10110,
      "多重": 10111,
      "太多的": 10112,
      "头脑": 10113,
      "她是": 10114,
      "委托": 10115,
      "宇航": 10116,
      "实力": 10117,
      "审核": 10118,
      "宪法": 10119,
      "导体": 10120,
      "封闭": 10121,
      "射线": 10122,
      "将使": 10123,
      "将军": 10124,
      "就不": 10125,
      "尸体": 10126,
      "尼斯": 10127,
      "局面": 10128,
      "崩溃": 10129,
      "布斯": 10130,
      "干细胞": 10131,
      "幼虫": 10132,
      "广阔": 10133,
      "度高": 10134,
      "张力": 10135,
      "总经理": 10136,
      "我去": 10137,
      "我只": 10138,
      "战胜": 10139,
      "招聘": 10140,
      "据说": 10141,
      "接下来的": 10142,
      "搅拌": 10143,
      "收取": 10144,
      "数十": 10145,
      "新西兰": 10146,
      "既然": 10147,
      "是美国": 10148,
      "暂时": 10149,
      "更高": 10150,
      "有显著": 10151,
      "有多少": 10152,
      "望着": 10153,
      "杂交": 10154,
      "某一": 10155,
      "树木": 10156,
      "模板": 10157,
      "歌唱": 10158,
      "死于": 10159,
      "毁灭": 10160,
      "毕竟": 10161,
      "污水": 10162,
      "法案": 10163,
      "流体": 10164,
      "流行的": 10165,
      "涂料": 10166,
      "消化": 10167,
      "涵盖": 10168,
      "游行": 10169,
      "演化": 10170,
      "演示": 10171,
      "灌注": 10172,
      "火焰": 10173,
      "灰色": 10174,
      "炎症": 10175,
      "特尔": 10176,
      "球场": 10177,
      "球迷": 10178,
      "登录": 10179,
      "的抗": 10180,
      "的生物": 10181,
      "的增长": 10182,
      "皮质": 10183,
      "矿床": 10184,
      "码头": 10185,
      "祝福": 10186,
      "签订": 10187,
      "简洁": 10188,
      "粉末": 10189,
      "精彩": 10190,
      "终端": 10191,
      "给我的": 10192,
      "编写": 10193,
      "职务": 10194,
      "聚会": 10195,
      "背后": 10196,
      "腐蚀": 10197,
      "苏联": 10198,
      "获胜": 10199,
      "西北": 10200,
      "西洋": 10201,
      "角膜": 10202,
      "设有": 10203,
      "词汇": 10204,
      "话题": 10205,
      "语法": 10206,
      "读取": 10207,
      "赤字": 10208,
      "走进": 10209,
      "跳舞": 10210,
      "躺在": 10211,
      "轻轻": 10212,
      "输送": 10213,
      "迎接": 10214,
      "这本书": 10215,
      "进而": 10216,
      "适宜": 10217,
      "酸酯": 10218,
      "醒来": 10219,
      "队员": 10220,
      "防护": 10221,
      "餐馆": 10222,
      "驱逐": 10223,
      "魔术": 10224,
      "默认": 10225,
      "％，": 10226,
      "一个新的": 10227,
      "我们也": 10228,
      "可以将": 10229,
      "研究中心": 10230,
      "问题上": 10231,
      "工作原理": 10232,
      "如果我": 10233,
      "因为你": 10234,
      "因为在": 10235,
      "的人生": 10236,
      "现在已经": 10237,
      "的一面": 10238,
      "2010": 10239,
      "生产商": 10240,
      "必须要": 10241,
      "选择性": 10242,
      "并且在": 10243,
      "计划的": 10244,
      "希望能": 10245,
      "能力的": 10246,
      "历史的": 10247,
      "试验研究": 10248,
      "12年": 10249,
      "减少了": 10250,
      "动物的": 10251,
      "15年": 10252,
      "不可避免": 10253,
      "大多数人": 10254,
      "参与者": 10255,
      "心理学": 10256,
      "综合征": 10257,
      "附近的": 10258,
      "总结了": 10259,
      "强烈的": 10260,
      "适当的": 10261,
      "here": 10262,
      "克林顿": 10263,
      "并发症": 10264,
      "前列腺": 10265,
      "华尔街": 10266,
      "卡扎菲": 10267,
      "()": 10268,
      ")。": 10269,
      "2个": 10270,
      "43": 10271,
      "44": 10272,
      "96": 10273,
      "gro": 10274,
      "mb": 10275,
      "mic": 10276,
      "son": 10277,
      "一同": 10278,
      "一度": 10279,
      "一道": 10280,
      "与其他": 10281,
      "东亚": 10282,
      "中东": 10283,
      "中性": 10284,
      "中使用": 10285,
      "中得到": 10286,
      "临界": 10287,
      "主张": 10288,
      "主的": 10289,
      "之地": 10290,
      "乘客": 10291,
      "了许多": 10292,
      "交往": 10293,
      "亮的": 10294,
      "亲密": 10295,
      "付出": 10296,
      "付款": 10297,
      "以致": 10298,
      "伍德": 10299,
      "传达": 10300,
      "似的": 10301,
      "但却": 10302,
      "但他们": 10303,
      "使之": 10304,
      "使它": 10305,
      "凝胶": 10306,
      "分区": 10307,
      "创业": 10308,
      "创立": 10309,
      "前来": 10310,
      "办理": 10311,
      "动荡": 10312,
      "包裹": 10313,
      "卡车": 10314,
      "去看": 10315,
      "参赛": 10316,
      "发光": 10317,
      "发的": 10318,
      "取向": 10319,
      "变革": 10320,
      "向他": 10321,
      "含量的": 10322,
      "和非": 10323,
      "困境": 10324,
      "圆形": 10325,
      "土的": 10326,
      "在下": 10327,
      "在她": 10328,
      "在海": 10329,
      "在非": 10330,
      "地带": 10331,
      "地把": 10332,
      "城的": 10333,
      "塑造": 10334,
      "塔利班": 10335,
      "处在": 10336,
      "多了": 10337,
      "大力": 10338,
      "大厦": 10339,
      "大坝": 10340,
      "大战": 10341,
      "天主": 10342,
      "奇的": 10343,
      "妹妹": 10344,
      "姐姐": 10345,
      "姿态": 10346,
      "实习": 10347,
      "家长": 10348,
      "对外": 10349,
      "对我国": 10350,
      "将要": 10351,
      "差距": 10352,
      "带领": 10353,
      "帮忙": 10354,
      "底部": 10355,
      "开源": 10356,
      "弗兰克": 10357,
      "弯曲": 10358,
      "当作": 10359,
      "当年": 10360,
      "得的": 10361,
      "德尔": 10362,
      "性状": 10363,
      "恶化": 10364,
      "情报": 10365,
      "惊人的": 10366,
      "想知道": 10367,
      "意外": 10368,
      "愿望": 10369,
      "我来": 10370,
      "我发现": 10371,
      "所说": 10372,
      "承包": 10373,
      "抓住": 10374,
      "抽象": 10375,
      "拉伸": 10376,
      "拓展": 10377,
      "拓扑": 10378,
      "接种": 10379,
      "描写": 10380,
      "擅长": 10381,
      "教训": 10382,
      "数千": 10383,
      "断层": 10384,
      "明智": 10385,
      "星的": 10386,
      "是他们": 10387,
      "是由于": 10388,
      "更高的": 10389,
      "最多": 10390,
      "有权": 10391,
      "本公司": 10392,
      "极了": 10393,
      "极大的": 10394,
      "柴油": 10395,
      "格里": 10396,
      "森纳": 10397,
      "每月": 10398,
      "比的": 10399,
      "气象": 10400,
      "水分": 10401,
      "沉默": 10402,
      "没什么": 10403,
      "沥青": 10404,
      "浙江": 10405,
      "深处": 10406,
      "湖泊": 10407,
      "演奏": 10408,
      "灵感": 10409,
      "爱德": 10410,
      "球菌": 10411,
      "生殖": 10412,
      "用以": 10413,
      "电信": 10414,
      "电气": 10415,
      "的女": 10416,
      "的时": 10417,
      "的管理": 10418,
      "的同时": 10419,
      "的存在": 10420,
      "的调查": 10421,
      "的家庭": 10422,
      "的建筑": 10423,
      "的速度": 10424,
      "的诊断": 10425,
      "的比例": 10426,
      "的做法": 10427,
      "直流": 10428,
      "真诚": 10429,
      "知名": 10430,
      "短的": 10431,
      "福特": 10432,
      "种种": 10433,
      "稍微": 10434,
      "笔者": 10435,
      "等优点": 10436,
      "经纪": 10437,
      "维斯": 10438,
      "缓冲": 10439,
      "缩小": 10440,
      "罗拉": 10441,
      "职责": 10442,
      "肌肤": 10443,
      "股东": 10444,
      "腹腔": 10445,
      "自适应": 10446,
      "艰苦": 10447,
      "花的": 10448,
      "衡量": 10449,
      "要比": 10450,
      "见证": 10451,
      "规定的": 10452,
      "让她": 10453,
      "试试": 10454,
      "说他": 10455,
      "谋杀": 10456,
      "起的": 10457,
      "起来的": 10458,
      "趋向": 10459,
      "跑步": 10460,
      "跟随": 10461,
      "轻易": 10462,
      "边境": 10463,
      "运算": 10464,
      "运转": 10465,
      "还有一": 10466,
      "这段": 10467,
      "迭代": 10468,
      "通风": 10469,
      "逮捕": 10470,
      "遵守": 10471,
      "都将": 10472,
      "钻井": 10473,
      "阐明": 10474,
      "阿森纳": 10475,
      "降落": 10476,
      "难题": 10477,
      "青春": 10478,
      "面板": 10479,
      "顶级": 10480,
      "预报": 10481,
      "颜料": 10482,
      "额外": 10483,
      "首要": 10484,
      "我们应该": 10485,
      "他们已经": 10486,
      "发展和": 10487,
      "因为我们": 10488,
      "影响因素": 10489,
      "需要在": 10490,
      "结果与": 10491,
      "以及其他": 10492,
      "目的了解": 10493,
      "国家公园": 10494,
      "的一份": 10495,
      "的一名": 10496,
      "这一切": 10497,
      "进行了探讨": 10498,
      "ant": 10499,
      "学生们": 10500,
      "建立一个": 10501,
      "所以我": 10502,
      "第二章": 10503,
      "导致的": 10504,
      "蛋白酶": 10505,
      "的最大": 10506,
      "专业生产": 10507,
      "分布式": 10508,
      "降低了": 10509,
      "1998年": 10510,
      "比如说": 10511,
      "引起了": 10512,
      "分别为": 10513,
      "认识到": 10514,
      "的主题": 10515,
      "详细的": 10516,
      "唯一的": 10517,
      "十年代": 10518,
      "这就是为什么": 10519,
      "依赖于": 10520,
      "数学模型": 10521,
      "php": 10522,
      "数值模拟": 10523,
      "共和国": 10524,
      "work": 10525,
      "冠状动脉": 10526,
      "49": 10527,
      "5年的": 10528,
      "89": 10529,
      "91": 10530,
      "af": 10531,
      "bu": 10532,
      "ci": 10533,
      "del": 10534,
      "gu": 10535,
      "hp": 10536,
      "mr": 10537,
      "nas": 10538,
      "par": 10539,
      "一句": 10540,
      "一对": 10541,
      "上午": 10542,
      "上来": 10543,
      "上皮": 10544,
      "上个月": 10545,
      "下面的": 10546,
      "不像": 10547,
      "不变": 10548,
      "不已": 10549,
      "世卫": 10550,
      "两名": 10551,
      "丧失": 10552,
      "中场": 10553,
      "中小": 10554,
      "为研究": 10555,
      "举措": 10556,
      "举行的": 10557,
      "也可": 10558,
      "于一": 10559,
      "仓库": 10560,
      "他为": 10561,
      "他认为": 10562,
      "以至于": 10563,
      "估算": 10564,
      "你不能": 10565,
      "使他": 10566,
      "便是": 10567,
      "保温": 10568,
      "假定": 10569,
      "做得": 10570,
      "充足": 10571,
      "入口": 10572,
      "兼容": 10573,
      "冒险": 10574,
      "冰川": 10575,
      "出一个": 10576,
      "分开": 10577,
      "分支": 10578,
      "初期": 10579,
      "别人的": 10580,
      "剂和": 10581,
      "剪切": 10582,
      "化物": 10583,
      "北方": 10584,
      "卓越": 10585,
      "参见": 10586,
      "参议员": 10587,
      "可使": 10588,
      "可爱": 10589,
      "台的": 10590,
      "后再": 10591,
      "向你": 10592,
      "和使用": 10593,
      "哈利": 10594,
      "图标": 10595,
      "在他们": 10596,
      "在网络": 10597,
      "在某些": 10598,
      "在内的": 10599,
      "在哪里": 10600,
      "场地": 10601,
      "均衡": 10602,
      "坦克": 10603,
      "增值": 10604,
      "多人": 10605,
      "大多": 10606,
      "天才": 10607,
      "央行": 10608,
      "奉献": 10609,
      "子女": 10610,
      "它具有": 10611,
      "室里": 10612,
      "宾馆": 10613,
      "密集": 10614,
      "富含": 10615,
      "对不起": 10616,
      "布里": 10617,
      "带宽": 10618,
      "并不能": 10619,
      "并给出了": 10620,
      "座位": 10621,
      "延伸": 10622,
      "延续": 10623,
      "强劲": 10624,
      "很重要": 10625,
      "得了": 10626,
      "怀孕": 10627,
      "总会": 10628,
      "悬浮": 10629,
      "愉快": 10630,
      "我能": 10631,
      "手工": 10632,
      "执法": 10633,
      "把自己": 10634,
      "折磨": 10635,
      "拟合": 10636,
      "捕捉": 10637,
      "提名": 10638,
      "收获": 10639,
      "放到": 10640,
      "故意": 10641,
      "斯塔": 10642,
      "新型的": 10643,
      "施加": 10644,
      "无效": 10645,
      "日志": 10646,
      "是谁": 10647,
      "晚餐": 10648,
      "有没有": 10649,
      "期刊": 10650,
      "本科": 10651,
      "条款": 10652,
      "柔软": 10653,
      "树枝": 10654,
      "格雷": 10655,
      "档案": 10656,
      "死去": 10657,
      "残疾": 10658,
      "比起": 10659,
      "沉淀": 10660,
      "泄漏": 10661,
      "浓缩": 10662,
      "海地": 10663,
      "消毒": 10664,
      "深深": 10665,
      "澳洲": 10666,
      "火星": 10667,
      "热带": 10668,
      "热爱": 10669,
      "燃油": 10670,
      "牵引": 10671,
      "特异性": 10672,
      "电磁": 10673,
      "电网": 10674,
      "画家": 10675,
      "白宫": 10676,
      "白色的": 10677,
      "的行": 10678,
      "的目的": 10679,
      "的企业": 10680,
      "的标准": 10681,
      "的朋友": 10682,
      "的水平": 10683,
      "的任务": 10684,
      "的原理": 10685,
      "的优势": 10686,
      "的照片": 10687,
      "的距离": 10688,
      "盖茨": 10689,
      "着他": 10690,
      "破产": 10691,
      "神话": 10692,
      "福利": 10693,
      "立体": 10694,
      "粘膜": 10695,
      "精密": 10696,
      "纷纷": 10697,
      "组分": 10698,
      "组装": 10699,
      "结局": 10700,
      "给人": 10701,
      "绩效": 10702,
      "综述": 10703,
      "编制": 10704,
      "耳朵": 10705,
      "肝炎": 10706,
      "肝脏": 10707,
      "自豪": 10708,
      "节日": 10709,
      "节约": 10710,
      "英镑": 10711,
      "荷载": 10712,
      "萝卜": 10713,
      "蛋糕": 10714,
      "血流": 10715,
      "要想": 10716,
      "触发": 10717,
      "触摸": 10718,
      "言论": 10719,
      "让自己": 10720,
      "议会": 10721,
      "豪华": 10722,
      "负面": 10723,
      "资讯": 10724,
      "足以": 10725,
      "轻微": 10726,
      "辅导": 10727,
      "近代": 10728,
      "还没": 10729,
      "还说": 10730,
      "追逐": 10731,
      "逃避": 10732,
      "遗憾": 10733,
      "那位": 10734,
      "部落": 10735,
      "重庆": 10736,
      "鉴定": 10737,
      "闻名": 10738,
      "院校": 10739,
      "静电": 10740,
      "面试": 10741,
      "飞船": 10742,
      "马来": 10743,
      "马里": 10744,
      "骑士": 10745,
      "高科技": 10746,
      "鼠标": 10747,
      "一个国家": 10748,
      "可以得到": 10749,
      "工作者": 10750,
      "如果你的": 10751,
      "具有良好的": 10752,
      "具有一定的": 10753,
      "所有这些": 10754,
      "ina": 10755,
      "作用下": 10756,
      "10月": 10757,
      "计算公式": 10758,
      "了一场": 10759,
      "社会的": 10760,
      "安全的": 10761,
      "性的影响": 10762,
      "理论和": 10763,
      "获得的": 10764,
      "ster": 10765,
      "ata": 10766,
      "实际应用": 10767,
      "基本上": 10768,
      "行为的": 10769,
      "还有一个": 10770,
      "意义上": 10771,
      "银行的": 10772,
      "艺术的": 10773,
      "报告中": 10774,
      "自由的": 10775,
      "机构的": 10776,
      "超过了": 10777,
      "000美元": 10778,
      "一定会": 10779,
      "变得更加": 10780,
      "长期以来": 10781,
      "实践中": 10782,
      "结束后": 10783,
      "适合于": 10784,
      "out": 10785,
      "亿美元的": 10786,
      "可靠的": 10787,
      "永远不会": 10788,
      "充满了": 10789,
      "航空公司": 10790,
      "很大程度上": 10791,
      "漂亮的": 10792,
      "马克思": 10793,
      "毫无疑问": 10794,
      "董事会": 10795,
      "各自的": 10796,
      "直升机": 10797,
      "等离子体": 10798,
      "首席执行官": 10799,
      "150": 10800,
      "cn": 10801,
      "ger": 10802,
      "hr": 10803,
      "ob": 10804,
      "ok": 10805,
      "sl": 10806,
      "va": 10807,
      "一路": 10808,
      "一面": 10809,
      "三位": 10810,
      "上网": 10811,
      "不利": 10812,
      "不堪": 10813,
      "世博": 10814,
      "中对": 10815,
      "中断": 10816,
      "临时": 10817,
      "为他": 10818,
      "为中国": 10819,
      "主机": 10820,
      "之旅": 10821,
      "乐器": 10822,
      "乘坐": 10823,
      "乙醇": 10824,
      "争取": 10825,
      "事物": 10826,
      "人权": 10827,
      "人造": 10828,
      "今晚": 10829,
      "他被": 10830,
      "以外的": 10831,
      "优惠": 10832,
      "你是否": 10833,
      "依法": 10834,
      "侵犯": 10835,
      "便宜": 10836,
      "信誉": 10837,
      "光线": 10838,
      "全力": 10839,
      "全面的": 10840,
      "其余": 10841,
      "军人": 10842,
      "冰箱": 10843,
      "冷冻": 10844,
      "创始": 10845,
      "办事": 10846,
      "务员": 10847,
      "勇气": 10848,
      "十六": 10849,
      "午餐": 10850,
      "单纯": 10851,
      "南京": 10852,
      "印尼": 10853,
      "压器": 10854,
      "受益": 10855,
      "变异": 10856,
      "叙利亚": 10857,
      "可乐": 10858,
      "可在": 10859,
      "史蒂": 10860,
      "否定": 10861,
      "吻合": 10862,
      "哈佛": 10863,
      "商标": 10864,
      "回复": 10865,
      "在与": 10866,
      "在被": 10867,
      "在一些": 10868,
      "地基": 10869,
      "地狱": 10870,
      "均为": 10871,
      "基质": 10872,
      "复方": 10873,
      "外表": 10874,
      "多孔": 10875,
      "夜晚": 10876,
      "大胆": 10877,
      "失效": 10878,
      "失望": 10879,
      "女王": 10880,
      "如图": 10881,
      "姓名": 10882,
      "定理": 10883,
      "宣称": 10884,
      "密钥": 10885,
      "将近": 10886,
      "将继续": 10887,
      "就开始": 10888,
      "尺度": 10889,
      "履行": 10890,
      "峰值": 10891,
      "常用": 10892,
      "干预": 10893,
      "并为": 10894,
      "并行": 10895,
      "幻想": 10896,
      "底下": 10897,
      "廉价": 10898,
      "引进": 10899,
      "弥补": 10900,
      "当天": 10901,
      "当选": 10902,
      "很久": 10903,
      "律宾": 10904,
      "得很": 10905,
      "微生物": 10906,
      "性及": 10907,
      "性格": 10908,
      "恰当": 10909,
      "悲剧": 10910,
      "惩罚": 10911,
      "愚蠢": 10912,
      "我现在": 10913,
      "截面": 10914,
      "房产": 10915,
      "所做的": 10916,
      "手里": 10917,
      "打破": 10918,
      "扭转": 10919,
      "把这": 10920,
      "把它们": 10921,
      "投标": 10922,
      "抗生素": 10923,
      "折叠": 10924,
      "损坏": 10925,
      "接待": 10926,
      "搭配": 10927,
      "操纵": 10928,
      "救助": 10929,
      "数以": 10930,
      "数控": 10931,
      "数目": 10932,
      "整整": 10933,
      "新疆": 10934,
      "新方法": 10935,
      "无所": 10936,
      "无数": 10937,
      "日期": 10938,
      "早期的": 10939,
      "昆虫": 10940,
      "是你": 10941,
      "是我的": 10942,
      "是目前": 10943,
      "曾在": 10944,
      "最高的": 10945,
      "有用的": 10946,
      "来进行": 10947,
      "板块": 10948,
      "查尔斯": 10949,
      "校正": 10950,
      "桌面": 10951,
      "检察": 10952,
      "棵树": 10953,
      "欢乐": 10954,
      "正义": 10955,
      "此刻": 10956,
      "殖民": 10957,
      "毫不": 10958,
      "汇率": 10959,
      "沮丧": 10960,
      "法在": 10961,
      "流入": 10962,
      "润滑": 10963,
      "滑雪": 10964,
      "热水": 10965,
      "热点": 10966,
      "烹饪": 10967,
      "煤矿": 10968,
      "照顾": 10969,
      "特里": 10970,
      "理性": 10971,
      "生成的": 10972,
      "用一个": 10973,
      "电缆": 10974,
      "的几": 10975,
      "的重": 10976,
      "的最后": 10977,
      "的反应": 10978,
      "的政策": 10979,
      "的建议": 10980,
      "的电影": 10981,
      "的特性": 10982,
      "盈利": 10983,
      "省的": 10984,
      "瞬间": 10985,
      "磁盘": 10986,
      "神圣": 10987,
      "离散": 10988,
      "竟然": 10989,
      "第十": 10990,
      "紧凑": 10991,
      "约会": 10992,
      "级别": 10993,
      "纳税": 10994,
      "线程": 10995,
      "美容": 10996,
      "群落": 10997,
      "而后": 10998,
      "脑袋": 10999,
      "自信": 11000,
      "自愿": 11001,
      "菲律宾": 11002,
      "营造": 11003,
      "融入": 11004,
      "裂缝": 11005,
      "装箱": 11006,
      "见了": 11007,
      "计画": 11008,
      "让它": 11009,
      "话语": 11010,
      "语文": 11011,
      "说他们": 11012,
      "谴责": 11013,
      "账户": 11014,
      "贫穷": 11015,
      "走出": 11016,
      "转基因": 11017,
      "轿车": 11018,
      "较小": 11019,
      "辩论": 11020,
      "送到": 11021,
      "选手": 11022,
      "都必须": 11023,
      "酒精": 11024,
      "重力": 11025,
      "重组": 11026,
      "鉴于": 11027,
      "钢铁": 11028,
      "钻石": 11029,
      "队长": 11030,
      "防御": 11031,
      "阿里": 11032,
      "集装箱": 11033,
      "雇佣": 11034,
      "雕塑": 11035,
      "鞋子": 11036,
      "预后": 11037,
      "预言": 11038,
      "鱼类": 11039,
      "黄酮": 11040,
      "黑色的": 11041,
      "鼻子": 11042,
      "我们所": 11043,
      "我们不能": 11044,
      "可以从": 11045,
      "使用者": 11046,
      "如果他们": 11047,
      "如果没有": 11048,
      "通过使用": 11049,
      "因为我": 11050,
      "但是他": 11051,
      "但是如果": 11052,
      "技术在": 11053,
      "2001年": 11054,
      "193": 11055,
      "非常好": 11056,
      "ang": 11057,
      "是一项": 11058,
      "理论上": 11059,
      "les": 11060,
      "性能和": 11061,
      "end": 11062,
      "只有在": 11063,
      "接受了": 11064,
      "导致了": 11065,
      "政治家": 11066,
      "ash": 11067,
      "ass": 11068,
      "制造业": 11069,
      "广泛应用于": 11070,
      "生命的": 11071,
      "工业化": 11072,
      "也许会": 11073,
      "另外一个": 11074,
      "显著的": 11075,
      "纽约时报": 11076,
      "困难的": 11077,
      "尤其是在": 11078,
      "改革的": 11079,
      "奥巴马总统": 11080,
      "24小时": 11081,
      "尼亚州": 11082,
      "积极的": 11083,
      "涉及到": 11084,
      "离开了": 11085,
      "也就是说": 11086,
      "bean": 11087,
      "先进的": 11088,
      "补充说": 11089,
      "所需的": 11090,
      "无线电": 11091,
      "采访时": 11092,
      "古老的": 11093,
      "放射性": 11094,
      "显微镜": 11095,
      "新华社": 11096,
      "迄今为止": 11097,
      "巴勒斯坦": 11098,
      "爱德华": 11099,
      "世卫组织": 11100,
      "4个": 11101,
      "4月": 11102,
      "72": 11103,
      "82": 11104,
      "fe": 11105,
      "fin": 11106,
      "gdp": 11107,
      "hone": 11108,
      "ive": 11109,
      "pet": 11110,
      "ud": 11111,
      "ui": 11112,
      "一台": 11113,
      "一百": 11114,
      "一艘": 11115,
      "上学": 11116,
      "下一步": 11117,
      "不出": 11118,
      "不动": 11119,
      "不安": 11120,
      "中医": 11121,
      "丹麦": 11122,
      "主权": 11123,
      "主流": 11124,
      "主观": 11125,
      "之时": 11126,
      "之类的": 11127,
      "也被": 11128,
      "书的": 11129,
      "了两个": 11130,
      "了自己的": 11131,
      "二手": 11132,
      "亚伯": 11133,
      "亚历": 11134,
      "人对": 11135,
      "人是": 11136,
      "仅有": 11137,
      "从此": 11138,
      "他从": 11139,
      "以来的": 11140,
      "们在": 11141,
      "任命": 11142,
      "传送": 11143,
      "但又": 11144,
      "但如果": 11145,
      "体会": 11146,
      "作出了": 11147,
      "你看": 11148,
      "你已经": 11149,
      "你就会": 11150,
      "使我": 11151,
      "便利": 11152,
      "做出了": 11153,
      "做的事情": 11154,
      "健全": 11155,
      "充电": 11156,
      "克兰": 11157,
      "克雷": 11158,
      "典礼": 11159,
      "军方": 11160,
[...]
